<pad>	0
<unk>	0
<s>	0
</s>	0
▁t	-0
he	-1
▁a	-2
in	-3
▁the	-4
er	-5
on	-6
▁,	-7
re	-8
▁s	-9
▁o	-10
▁w	-11
ed	-12
nd	-13
▁.	-14
at	-15
or	-16
▁c	-17
it	-18
▁f	-19
en	-20
is	-21
▁of	-22
es	-23
▁b	-24
▁in	-25
ar	-26
an	-27
al	-28
▁and	-29
▁p	-30
ing	-31
as	-32
▁to	-33
▁m	-34
ro	-35
ic	-36
▁d	-37
▁h	-38
ion	-39
ou	-40
le	-41
▁T	-42
▁re	-43
▁=	-44
▁"	-45
▁th	-46
ent	-47
▁A	-48
▁1	-49
il	-50
▁S	-51
st	-52
▁l	-53
om	-54
▁e	-55
▁n	-56
▁@	-57
am	-58
▁C	-59
el	-60
ad	-61
▁was	-62
ac	-63
▁The	-64
▁on	-65
▁be	-66
ur	-67
ly	-68
▁M	-69
▁'	-70
▁I	-71
▁g	-72
▁for	-73
iv	-74
ol	-75
ter	-76
-@	-77
▁@-@	-78
▁B	-79
im	-80
id	-81
ir	-82
▁as	-83
ct	-84
ig	-85
th	-86
ow	-87
ith	-88
▁st	-89
us	-90
▁H	-91
▁2	-92
ay	-93
▁that	-94
▁with	-95
her	-96
ot	-97
ce	-98
ver	-99
ut	-100
ation	-101
et	-102
▁is	-103
▁P	-104
▁wh	-105
ch	-106
▁by	-107
▁R	-108
▁al	-109
▁)	-110
▁(	-111
un	-112
▁F	-113
▁con	-114
▁D	-115
em	-116
ul	-117
▁at	-118
▁W	-119
▁it	-120
▁19	-121
and	-122
ain	-123
rom	-124
os	-125
▁N	-126
▁an	-127
▁G	-128
ers	-129
▁L	-130
▁he	-131
est	-132
ag	-133
av	-134
00	-135
▁J	-136
▁se	-137
um	-138
▁de	-139
▁his	-140
▁r	-141
▁from	-142
od	-143
▁O	-144
ri	-145
▁com	-146
▁E	-147
pe	-148
ist	-149
▁pro	-150
if	-151
ere	-152
ld	-153
ies	-154
ort	-155
▁v	-156
res	-157
▁su	-158
▁were	-159
ore	-160
ill	-161
▁In	-162
ap	-163
ew	-164
ong	-165
op	-166
igh	-167
ich	-168
▁or	-169
ate	-170
art	-171
all	-172
ard	-173
ak	-174
▁ch	-175
ber	-176
ame	-177
▁ex	-178
gh	-179
ab	-180
ud	-181
▁pl	-182
ated	-183
se	-184
ant	-185
ity	-186
▁are	-187
rou	-188
oc	-189
ive	-190
ess	-191
qu	-192
▁sh	-193
▁had	-194
▁k	-195
ack	-196
▁which	-197
▁U	-198
red	-199
▁y	-200
▁le	-201
▁K	-202
ov	-203
pt	-204
our	-205
▁not	-206
ment	-207
ast	-208
ip	-209
▁St	-210
rit	-211
ord	-212
ear	-213
▁tr	-214
ally	-215
ge	-216
ther	-217
ian	-218
ost	-219
ave	-220
ine	-221
▁u	-222
ight	-223
oun	-224
ell	-225
▁3	-226
ish	-227
pp	-228
cl	-229
ary	-230
▁200	-231
▁Ch	-232
ust	-233
irst	-234
ia	-235
▁;	-236
▁comp	-237
▁their	-238
te	-239
▁but	-240
cc	-241
so	-242
ction	-243
fter	-244
▁first	-245
ous	-246
▁un	-247
▁its	-248
ould	-249
ure	-250
▁–	-251
ra	-252
ide	-253
▁whe	-254
▁cont	-255
▁ar	-256
ue	-257
ical	-258
ome	-259
wo	-260
og	-261
hed	-262
ial	-263
▁20	-264
▁:	-265
ie	-266
▁her	-267
▁also	-268
ition	-269
▁int	-270
ub	-271
▁V	-272
own	-273
▁cl	-274
ru	-275
ater	-276
out	-277
ign	-278
▁us	-279
orm	-280
ork	-281
per	-282
▁ab	-283
▁ad	-284
ok	-285
ff	-286
▁have	-287
age	-288
ire	-289
▁He	-290
▁one	-291
ass	-292
▁has	-293
▁rec	-294
low	-295
ime	-296
mer	-297
▁ro	-298
▁been	-299
du	-300
▁two	-301
▁4	-302
▁res	-303
▁18	-304
▁Th	-305
.@	-306
▁@.@	-307
▁per	-308
ond	-309
ree	-310
▁5	-311
▁who	-312
ence	-313
uring	-314
ough	-315
land	-316
▁this	-317
▁bec	-318
ile	-319
are	-320
pl	-321
ult	-322
ry	-323
ance	-324
ory	-325
ect	-326
▁It	-327
ans	-328
▁sc	-329
▁bo	-330
▁play	-331
▁they	-332
▁Al	-333
clud	-334
▁year	-335
▁part	-336
▁ag	-337
▁201	-338
ade	-339
▁des	-340
ations	-341
ount	-342
▁man	-343
▁other	-344
▁dis	-345
ric	-346
▁te	-347
ely	-348
▁after	-349
ach	-350
▁j	-351
act	-352
▁ser	-353
ound	-354
▁over	-355
over	-356
▁off	-357
,@	-358
▁@,@	-359
▁includ	-360
ang	-361
▁sp	-362
ions	-363
▁en	-364
ite	-365
urn	-366
▁im	-367
ace	-368
ice	-369
iz	-370
ib	-371
wn	-372
▁out	-373
▁up	-374
ke	-375
ress	-376
ark	-377
▁Y	-378
▁time	-379
▁ne	-380
nder	-381
▁into	-382
▁fin	-383
rough	-384
▁pre	-385
▁ev	-386
ced	-387
round	-388
port	-389
we	-390
▁On	-391
▁spe	-392
▁more	-393
▁would	-394
ces	-395
▁she	-396
▁comm	-397
ted	-398
ason	-399
▁att	-400
▁all	-401
ward	-402
ren	-403
ose	-404
one	-405
ail	-406
▁him	-407
ited	-408
amp	-409
▁we	-410
tern	-411
ied	-412
ens	-413
oin	-414
ased	-415
▁6	-416
▁cent	-417
▁Un	-418
rib	-419
▁Re	-420
▁work	-421
ents	-422
▁Se	-423
ild	-424
▁me	-425
ix	-426
ase	-427
ood	-428
ings	-429
les	-430
man	-431
ts	-432
▁7	-433
▁fe	-434
▁them	-435
able	-436
ious	-437
▁when	-438
▁bet	-439
ake	-440
ors	-441
▁sec	-442
▁song	-443
ates	-444
als	-445
vel	-446
▁ear	-447
▁rem	-448
▁An	-449
ubl	-450
iss	-451
old	-452
▁kn	-453
form	-454
▁most	-455
▁during	-456
fer	-457
gan	-458
aus	-459
ath	-460
▁only	-461
▁new	-462
ilm	-463
▁game	-464
ved	-465
oy	-466
ered	-467
ember	-468
ve	-469
orth	-470
ollow	-471
ween	-472
reat	-473
▁199	-474
▁As	-475
outh	-476
way	-477
▁9	-478
▁Ar	-479
▁rel	-480
▁can	-481
▁8	-482
▁about	-483
ters	-484
▁again	-485
▁three	-486
▁season	-487
▁cons	-488
▁than	-489
ick	-490
▁En	-491
ug	-492
▁Mar	-493
▁between	-494
aw	-495
att	-496
▁record	-497
ral	-498
▁some	-499
▁under	-500
▁char	-501
ational	-502
cted	-503
ons	-504
ular	-505
fore	-506
▁through	-507
ind	-508
▁later	-509
ict	-510
hip	-511
iew	-512
▁col	-513
▁num	-514
▁00	-515
ft	-516
ision	-517
▁writ	-518
▁produ	-519
▁while	-520
▁Com	-521
▁pos	-522
▁De	-523
▁rele	-524
▁ver	-525
▁film	-526
ames	-527
▁end	-528
▁inter	-529
ished	-530
▁ap	-531
▁pe	-532
▁made	-533
▁pr	-534
ey	-535
▁form	-536
▁fl	-537
ning	-538
▁reg	-539
▁ass	-540
orld	-541
▁where	-542
▁so	-543
▁spec	-544
▁mov	-545
▁New	-546
ever	-547
meric	-548
▁Americ	-549
ury	-550
▁lar	-551
▁ac	-552
▁app	-553
bum	-554
▁ret	-555
ron	-556
▁follow	-557
▁bu	-558
ener	-559
▁no	-560
▁such	-561
▁def	-562
▁second	-563
ived	-564
▁four	-565
aid	-566
▁mus	-567
▁qu	-568
ock	-569
▁acc	-570
▁used	-571
▁sub	-572
▁inc	-573
olog	-574
▁act	-575
ike	-576
▁day	-577
▁This	-578
▁At	-579
rop	-580
ars	-581
▁publ	-582
▁Le	-583
▁am	-584
ific	-585
ual	-586
▁call	-587
▁ind	-588
hes	-589
▁album	-590
▁000	-591
▁before	-592
▁do	-593
▁appe	-594
ily	-595
ob	-596
oh	-597
▁being	-598
ank	-599
▁gr	-600
▁co	-601
▁years	-602
any	-603
▁there	-604
▁Eng	-605
▁supp	-606
owever	-607
ck	-608
ating	-609
▁found	-610
▁0	-611
▁ele	-612
▁set	-613
ife	-614
▁ep	-615
iel	-616
▁high	-617
ane	-618
ics	-619
hen	-620
orn	-621
▁sy	-622
ird	-623
▁ent	-624
other	-625
iver	-626
▁sur	-627
ained	-628
▁series	-629
▁10	-630
igin	-631
▁number	-632
pen	-633
ten	-634
end	-635
ause	-636
ince	-637
▁loc	-638
ll	-639
ph	-640
ros	-641
▁dec	-642
▁pres	-643
velop	-644
▁both	-645
ode	-646
▁sever	-647
ities	-648
cept	-649
▁then	-650
▁12	-651
▁including	-652
ines	-653
▁epis	-654
▁Brit	-655
▁against	-656
son	-657
▁/	-658
▁well	-659
▁became	-660
▁known	-661
ject	-662
▁—	-663
ised	-664
▁charac	-665
▁po	-666
▁add	-667
▁desc	-668
▁perform	-669
ton	-670
▁bl	-671
▁go	-672
▁sing	-673
▁cap	-674
▁dire	-675
▁198	-676
aj	-677
▁16	-678
▁Joh	-679
ale	-680
urch	-681
▁back	-682
▁many	-683
▁pop	-684
▁Sh	-685
▁main	-686
pr	-687
ident	-688
though	-689
▁inv	-690
▁stud	-691
▁United	-692
its	-693
▁long	-694
ise	-695
ures	-696
ather	-697
▁trans	-698
▁origin	-699
row	-700
io	-701
▁John	-702
iet	-703
▁Br	-704
ement	-705
▁century	-706
▁mon	-707
▁After	-708
▁team	-709
ober	-710
ool	-711
▁est	-712
▁show	-713
▁Sc	-714
▁develop	-715
▁min	-716
ann	-717
ield	-718
ek	-719
ert	-720
▁em	-721
ower	-722
ier	-723
elf	-724
air	-725
▁194	-726
ute	-727
▁cre	-728
▁several	-729
▁lead	-730
▁She	-731
uch	-732
▁began	-733
▁17	-734
ared	-735
ivers	-736
ful	-737
▁196	-738
▁15	-739
▁11	-740
▁mill	-741
▁dif	-742
▁contin	-743
overn	-744
▁sign	-745
▁197	-746
ually	-747
▁sm	-748
ram	-749
view	-750
ired	-751
up	-752
▁may	-753
ative	-754
▁ship	-755
▁comple	-756
▁br	-757
▁could	-758
▁early	-759
led	-760
▁crit	-761
▁did	-762
▁called	-763
▁episode	-764
ern	-765
ross	-766
▁art	-767
ains	-768
▁near	-769
til	-770
▁ob	-771
▁hist	-772
▁pol	-773
▁describ	-774
▁Ind	-775
▁bel	-776
emb	-777
ued	-778
▁rece	-779
ople	-780
▁run	-781
▁along	-782
ins	-783
une	-784
▁ter	-785
iam	-786
imes	-787
ments	-788
▁dep	-789
ccess	-790
▁said	-791
▁feat	-792
roup	-793
▁American	-794
▁bro	-795
▁Wh	-796
▁down	-797
ley	-798
ven	-799
▁inst	-800
▁these	-801
▁Is	-802
aking	-803
▁May	-804
▁mil	-805
▁dist	-806
der	-807
▁though	-808
gest	-809
▁Ger	-810
▁Aust	-811
▁disc	-812
▁British	-813
▁oper	-814
▁until	-815
yl	-816
▁Z	-817
▁start	-818
anc	-819
▁city	-820
oot	-821
ove	-822
▁same	-823
ting	-824
rap	-825
▁inf	-826
ured	-827
▁prev	-828
▁released	-829
▁gener	-830
▁exp	-831
ty	-832
ange	-833
▁own	-834
els	-835
ized	-836
▁any	-837
▁return	-838
▁They	-839
amed	-840
ially	-841
▁km	-842
ided	-843
▁land	-844
▁design	-845
▁rep	-846
▁war	-847
▁prov	-848
▁music	-849
▁War	-850
▁imp	-851
▁million	-852
▁because	-853
ajor	-854
▁use	-855
▁area	-856
tend	-857
▁Con	-858
▁fam	-859
▁air	-860
▁car	-861
▁Aug	-862
▁August	-863
oman	-864
az	-865
▁like	-866
au	-867
▁open	-868
▁success	-869
▁mat	-870
osed	-871
▁sim	-872
▁occ	-873
erson	-874
ink	-875
▁Fr	-876
ep	-877
▁const	-878
▁Chr	-879
▁people	-880
ook	-881
▁count	-882
enn	-883
▁eff	-884
ull	-885
hy	-886
▁ins	-887
▁pass	-888
stem	-889
▁offic	-890
ium	-891
chool	-892
ible	-893
xt	-894
▁six	-895
▁support	-896
▁195	-897
▁around	-898
my	-899
▁Bl	-900
▁Be	-901
▁small	-902
▁However	-903
▁win	-904
▁%	-905
▁Sept	-906
ah	-907
▁north	-908
▁adv	-909
▁dam	-910
▁group	-911
▁str	-912
▁each	-913
▁Car	-914
▁poin	-915
▁September	-916
▁consid	-917
ony	-918
ues	-919
▁met	-920
▁following	-921
▁character	-922
ouse	-923
▁Ju	-924
ists	-925
wards	-926
▁life	-927
▁World	-928
ms	-929
▁Pl	-930
erv	-931
▁ed	-932
▁head	-933
uc	-934
aining	-935
▁Austral	-936
▁13	-937
▁five	-938
▁contro	-939
▁mod	-940
▁attack	-941
▁govern	-942
▁193	-943
ording	-944
ient	-945
▁var	-946
▁result	-947
ales	-948
▁Comm	-949
▁will	-950
ole	-951
▁large	-952
▁All	-953
uth	-954
▁ever	-955
oss	-956
ution	-957
▁Te	-958
ets	-959
▁191	-960
▁gu	-961
▁II	-962
▁Her	-963
▁ann	-964
▁report	-965
▁Col	-966
ague	-967
▁conc	-968
ural	-969
▁US	-970
rote	-971
▁Cl	-972
▁Me	-973
lish	-974
▁book	-975
▁June	-976
▁Eu	-977
▁North	-978
aving	-979
und	-980
aced	-981
▁tit	-982
▁For	-983
ash	-984
▁German	-985
▁since	-986
ik	-987
dom	-988
▁States	-989
ble	-990
▁prom	-991
▁south	-992
▁received	-993
ped	-994
▁final	-995
▁major	-996
ilt	-997
▁name	-998
med	-999
ately	-1000
ivision	-1001
▁Jan	-1002
pect	-1003
▁Ad	-1004
▁Oct	-1005
▁partic	-1006
▁system	-1007
▁public	-1008
..	-1009
▁care	-1010
▁state	-1011
▁dr	-1012
▁South	-1013
▁what	-1014
ives	-1015
▁direct	-1016
▁hel	-1017
▁King	-1018
▁last	-1019
▁Christ	-1020
▁described	-1021
uary	-1022
▁ext	-1023
▁October	-1024
tle	-1025
ored	-1026
▁line	-1027
▁$	-1028
hel	-1029
▁14	-1030
▁appear	-1031
▁...	-1032
▁rest	-1033
▁week	-1034
▁Can	-1035
▁played	-1036
cess	-1037
▁batt	-1038
▁incre	-1039
▁Fe	-1040
▁took	-1041
▁Nov	-1042
▁now	-1043
▁class	-1044
▁[	-1045
▁]	-1046
arl	-1047
ropical	-1048
▁build	-1049
aged	-1050
▁world	-1051
gin	-1052
▁July	-1053
ages	-1054
▁late	-1055
▁wrote	-1056
▁York	-1057
empt	-1058
iving	-1059
ional	-1060
▁won	-1061
▁Tr	-1062
▁species	-1063
▁stru	-1064
ology	-1065
▁child	-1066
aim	-1067
▁25	-1068
ideo	-1069
▁much	-1070
▁During	-1071
ody	-1072
▁due	-1073
ified	-1074
▁serv	-1075
▁Gu	-1076
pril	-1077
▁April	-1078
▁single	-1079
▁allow	-1080
ats	-1081
▁camp	-1082
iod	-1083
▁short	-1084
▁differ	-1085
min	-1086
▁port	-1087
▁vers	-1088
▁death	-1089
▁just	-1090
▁ty	-1091
▁mar	-1092
▁another	-1093
▁included	-1094
ball	-1095
▁Euro	-1096
▁poss	-1097
▁old	-1098
ility	-1099
ively	-1100
▁storm	-1101
▁January	-1102
get	-1103
▁even	-1104
▁gun	-1105
▁within	-1106
ission	-1107
▁left	-1108
▁list	-1109
▁England	-1110
ism	-1111
omin	-1112
▁position	-1113
▁named	-1114
▁based	-1115
▁estab	-1116
▁if	-1117
ants	-1118
▁arr	-1119
▁conf	-1120
▁although	-1121
▁vis	-1122
▁prog	-1123
▁attempt	-1124
ax	-1125
▁30	-1126
ont	-1127
▁very	-1128
▁appro	-1129
▁third	-1130
ina	-1131
▁games	-1132
akes	-1133
ital	-1134
▁top	-1135
▁belie	-1136
▁ref	-1137
▁track	-1138
ctions	-1139
ple	-1140
▁And	-1141
▁March	-1142
ner	-1143
▁family	-1144
▁previous	-1145
by	-1146
▁lit	-1147
▁November	-1148
▁Mus	-1149
▁power	-1150
▁Pro	-1151
▁Ge	-1152
▁tri	-1153
▁event	-1154
▁period	-1155
▁review	-1156
▁Gr	-1157
▁best	-1158
ilar	-1159
▁way	-1160
▁home	-1161
mber	-1162
▁resp	-1163
▁school	-1164
▁Q	-1165
▁water	-1166
▁Europe	-1167
▁government	-1168
▁His	-1169
ances	-1170
▁Ro	-1171
ograp	-1172
ently	-1173
▁expl	-1174
▁192	-1175
▁Dece	-1176
▁December	-1177
▁men	-1178
▁those	-1179
urric	-1180
avy	-1181
ret	-1182
raft	-1183
▁By	-1184
ger	-1185
▁turn	-1186
▁There	-1187
▁constru	-1188
ract	-1189
▁hum	-1190
▁place	-1191
ience	-1192
▁organ	-1193
ulation	-1194
▁sl	-1195
▁built	-1196
▁City	-1197
ards	-1198
ians	-1199
▁bre	-1200
ature	-1201
urther	-1202
▁great	-1203
ides	-1204
▁story	-1205
▁prote	-1206
▁command	-1207
pend	-1208
ached	-1209
▁kill	-1210
▁month	-1211
▁When	-1212
▁colle	-1213
ched	-1214
hest	-1215
▁sent	-1216
▁person	-1217
▁original	-1218
ript	-1219
itary	-1220
▁make	-1221
iversity	-1222
▁hand	-1223
▁100	-1224
▁opp	-1225
eder	-1226
▁med	-1227
▁2009	-1228
▁2010	-1229
▁auth	-1230
▁requ	-1231
▁hal	-1232
▁2008	-1233
▁video	-1234
▁National	-1235
ention	-1236
▁present	-1237
oci	-1238
▁mark	-1239
▁ph	-1240
aur	-1241
▁sug	-1242
▁eng	-1243
▁club	-1244
ences	-1245
riend	-1246
ham	-1247
por	-1248
iven	-1249
elt	-1250
ene	-1251
aster	-1252
▁view	-1253
ically	-1254
self	-1255
▁moved	-1256
▁Mc	-1257
▁led	-1258
▁capt	-1259
▁role	-1260
▁addition	-1261
▁River	-1262
▁stand	-1263
▁still	-1264
▁leg	-1265
▁came	-1266
▁iss	-1267
▁local	-1268
▁repl	-1269
ense	-1270
rench	-1271
gy	-1272
aff	-1273
▁often	-1274
▁history	-1275
▁common	-1276
ival	-1277
▁caus	-1278
▁cour	-1279
▁dest	-1280
▁We	-1281
ae	-1282
ison	-1283
▁Man	-1284
▁dem	-1285
▁effect	-1286
▁Pr	-1287
aken	-1288
▁few	-1289
ery	-1290
▁next	-1291
▁considered	-1292
ady	-1293
ops	-1294
▁trad	-1295
eng	-1296
▁2007	-1297
▁player	-1298
▁Bo	-1299
ories	-1300
▁suggest	-1301
be	-1302
urricane	-1303
ling	-1304
▁star	-1305
lev	-1306
▁Fl	-1307
▁exper	-1308
▁No	-1309
side	-1310
▁French	-1311
▁career	-1312
▁similar	-1313
▁my	-1314
astern	-1315
▁recorded	-1316
▁Sp	-1317
▁One	-1318
▁English	-1319
uss	-1320
▁side	-1321
▁right	-1322
ined	-1323
▁init	-1324
▁import	-1325
▁cr	-1326
rown	-1327
▁Or	-1328
▁Pe	-1329
▁real	-1330
▁claim	-1331
let	-1332
que	-1333
▁company	-1334
▁cover	-1335
▁published	-1336
▁deb	-1337
▁continued	-1338
ai	-1339
rew	-1340
idge	-1341
▁you	-1342
▁refer	-1343
arn	-1344
▁take	-1345
▁without	-1346
▁Ph	-1347
▁bas	-1348
▁mid	-1349
▁Batt	-1350
▁sold	-1351
▁songs	-1352
▁different	-1353
ternational	-1354
▁ant	-1355
▁say	-1356
▁With	-1357
▁town	-1358
▁former	-1359
ior	-1360
▁held	-1361
▁wind	-1362
uted	-1363
▁Comp	-1364
▁Acc	-1365
atter	-1366
▁among	-1367
ness	-1368
ister	-1369
▁memb	-1370
▁level	-1371
lu	-1372
▁tot	-1373
▁tem	-1374
▁arch	-1375
▁road	-1376
ne	-1377
▁polit	-1378
ged	-1379
▁defe	-1380
▁field	-1381
▁written	-1382
arch	-1383
thing	-1384
▁every	-1385
▁es	-1386
▁plan	-1387
bs	-1388
ps	-1389
▁Port	-1390
▁half	-1391
▁21	-1392
ampions	-1393
▁Division	-1394
alk	-1395
▁tw	-1396
▁release	-1397
▁2011	-1398
resent	-1399
ves	-1400
▁Will	-1401
estern	-1402
▁fun	-1403
iment	-1404
▁become	-1405
ead	-1406
▁mag	-1407
▁2006	-1408
tended	-1409
▁commun	-1410
▁further	-1411
▁According	-1412
▁av	-1413
ensive	-1414
▁Although	-1415
▁west	-1416
▁State	-1417
▁church	-1418
▁however	-1419
▁23	-1420
▁days	-1421
▁Canad	-1422
▁strong	-1423
yle	-1424
▁east	-1425
▁find	-1426
itar	-1427
▁version	-1428
lear	-1429
▁join	-1430
roy	-1431
bru	-1432
ried	-1433
ott	-1434
▁title	-1435
▁compet	-1436
▁particular	-1437
br	-1438
▁&	-1439
pite	-1440
▁low	-1441
▁military	-1442
mp	-1443
▁par	-1444
▁Count	-1445
▁del	-1446
par	-1447
▁beh	-1448
rodu	-1449
▁order	-1450
▁Church	-1451
▁author	-1452
▁League	-1453
▁prop	-1454
▁Roman	-1455
▁control	-1456
▁Min	-1457
thern	-1458
bruary	-1459
outhern	-1460
▁February	-1461
aly	-1462
▁Song	-1463
▁foot	-1464
▁times	-1465
fric	-1466
▁Per	-1467
▁gave	-1468
▁Gener	-1469
▁less	-1470
▁22	-1471
▁sit	-1472
▁members	-1473
▁reported	-1474
▁26	-1475
▁band	-1476
▁vict	-1477
ots	-1478
raw	-1479
▁chang	-1480
▁24	-1481
ylan	-1482
▁fore	-1483
▁Dylan	-1484
▁nort	-1485
▁produced	-1486
ches	-1487
▁Geor	-1488
▁!	-1489
▁Ab	-1490
▁prof	-1491
levision	-1492
▁2012	-1493
▁total	-1494
▁el	-1495
ices	-1496
augh	-1497
ailed	-1498
▁stat	-1499
urs	-1500
▁Park	-1501
▁popular	-1502
▁production	-1503
aces	-1504
iety	-1505
line	-1506
▁Old	-1507
▁fre	-1508
▁West	-1509
▁decl	-1510
ception	-1511
▁tropical	-1512
ront	-1513
hern	-1514
oung	-1515
▁project	-1516
▁nov	-1517
▁sol	-1518
▁forces	-1519
itions	-1520
▁point	-1521
▁children	-1522
apan	-1523
▁Bar	-1524
▁cur	-1525
▁Japan	-1526
▁cult	-1527
▁having	-1528
▁include	-1529
▁obs	-1530
▁critic	-1531
▁histor	-1532
▁Par	-1533
reen	-1534
pec	-1535
▁28	-1536
▁invol	-1537
▁lost	-1538
▁influ	-1539
ler	-1540
ering	-1541
▁given	-1542
alion	-1543
▁want	-1544
▁X	-1545
ression	-1546
▁country	-1547
inc	-1548
▁fr	-1549
▁Ass	-1550
▁fire	-1551
▁signific	-1552
▁represent	-1553
▁manag	-1554
sh	-1555
ize	-1556
chn	-1557
omen	-1558
▁2013	-1559
ape	-1560
omet	-1561
▁seen	-1562
▁site	-1563
osp	-1564
▁Des	-1565
▁eight	-1566
▁program	-1567
vers	-1568
▁never	-1569
▁making	-1570
▁far	-1571
▁establ	-1572
▁stated	-1573
▁Sim	-1574
▁det	-1575
▁comb	-1576
▁Afric	-1577
▁press	-1578
▁Miss	-1579
▁body	-1580
▁should	-1581
▁Ed	-1582
▁While	-1583
▁match	-1584
▁General	-1585
▁Am	-1586
▁aff	-1587
ither	-1588
▁Cent	-1589
▁fact	-1590
ploy	-1591
▁returned	-1592
▁Dav	-1593
▁pat	-1594
reet	-1595
rent	-1596
▁University	-1597
▁fem	-1598
craft	-1599
ising	-1600
enc	-1601
▁ord	-1602
▁ft	-1603
ours	-1604
▁post	-1605
▁These	-1606
▁America	-1607
▁190	-1608
▁Ear	-1609
▁ships	-1610
▁established	-1611
sequ	-1612
▁Pol	-1613
▁how	-1614
▁earl	-1615
▁sound	-1616
▁island	-1617
ampionship	-1618
▁announ	-1619
▁population	-1620
▁equ	-1621
▁struct	-1622
▁reached	-1623
▁chart	-1624
▁50	-1625
ably	-1626
▁Ste	-1627
▁soc	-1628
▁away	-1629
▁noted	-1630
ades	-1631
▁Air	-1632
▁Ire	-1633
▁Ireland	-1634
play	-1635
▁too	-1636
igade	-1637
▁Jack	-1638
▁across	-1639
▁friend	-1640
▁ground	-1641
▁thought	-1642
▁developed	-1643
▁throughout	-1644
ope	-1645
▁god	-1646
▁Ha	-1647
▁light	-1648
fic	-1649
ox	-1650
▁Ev	-1651
▁seven	-1652
▁27	-1653
▁gen	-1654
▁introdu	-1655
me	-1656
▁div	-1657
ondon	-1658
▁using	-1659
▁London	-1660
▁himself	-1661
ground	-1662
▁William	-1663
▁development	-1664
▁good	-1665
▁la	-1666
▁destroy	-1667
▁Ne	-1668
▁hig	-1669
▁lim	-1670
ument	-1671
▁Feder	-1672
aint	-1673
▁felt	-1674
▁significant	-1675
ford	-1676
most	-1677
used	-1678
▁performed	-1679
ese	-1680
ctor	-1681
ological	-1682
▁important	-1683
yn	-1684
reek	-1685
▁cast	-1686
idence	-1687
▁Australia	-1688
▁writing	-1689
work	-1690
▁pra	-1691
▁miles	-1692
arr	-1693
ords	-1694
▁Mich	-1695
▁father	-1696
▁television	-1697
amb	-1698
▁cou	-1699
▁ide	-1700
▁various	-1701
▁interest	-1702
atic	-1703
▁areas	-1704
▁human	-1705
int	-1706
oon	-1707
ivil	-1708
▁Atl	-1709
imately	-1710
ream	-1711
▁tour	-1712
▁black	-1713
▁night	-1714
ones	-1715
▁typ	-1716
▁died	-1717
▁full	-1718
▁Black	-1719
utes	-1720
▁look	-1721
▁prot	-1722
▁went	-1723
aren	-1724
▁rad	-1725
▁wat	-1726
▁activ	-1727
▁white	-1728
▁does	-1729
▁successful	-1730
▁Rich	-1731
▁events	-1732
▁need	-1733
ief	-1734
▁sk	-1735
▁Reg	-1736
▁law	-1737
▁Char	-1738
▁Rober	-1739
aign	-1740
▁players	-1741
▁started	-1742
aul	-1743
ges	-1744
▁Road	-1745
▁modern	-1746
▁mm	-1747
▁Roy	-1748
▁ten	-1749
▁discover	-1750
▁see	-1751
▁feet	-1752
▁James	-1753
▁formed	-1754
▁cor	-1755
itive	-1756
tain	-1757
▁range	-1758
ask	-1759
▁conv	-1760
▁performance	-1761
▁mix	-1762
▁poem	-1763
▁house	-1764
▁style	-1765
▁County	-1766
▁building	-1767
▁relations	-1768
▁ball	-1769
▁caused	-1770
ung	-1771
▁cat	-1772
antic	-1773
▁force	-1774
rick	-1775
▁age	-1776
▁prim	-1777
▁read	-1778
▁put	-1779
af	-1780
ald	-1781
▁trav	-1782
▁vill	-1783
ration	-1784
▁techn	-1785
▁cy	-1786
ster	-1787
▁Mount	-1788
▁El	-1789
alth	-1790
▁created	-1791
▁189	-1792
▁Pal	-1793
▁official	-1794
na	-1795
ael	-1796
con	-1797
ico	-1798
▁Su	-1799
▁You	-1800
▁2004	-1801
▁suff	-1802
▁entire	-1803
▁ke	-1804
ublic	-1805
▁2005	-1806
▁able	-1807
▁novel	-1808
▁political	-1809
ec	-1810
isc	-1811
ogn	-1812
ush	-1813
▁To	-1814
▁characters	-1815
ourn	-1816
▁get	-1817
▁sum	-1818
▁coast	-1819
▁relig	-1820
▁others	-1821
▁construction	-1822
omb	-1823
▁bird	-1824
▁begin	-1825
abor	-1826
aves	-1827
▁High	-1828
▁occur	-1829
oll	-1830
ring	-1831
▁pit	-1832
▁pri	-1833
▁son	-1834
iness	-1835
▁cert	-1836
day	-1837
ying	-1838
▁Mag	-1839
▁Town	-1840
ressed	-1841
▁once	-1842
▁Gl	-1843
▁Ang	-1844
ample	-1845
▁remained	-1846
▁located	-1847
▁ste	-1848
epend	-1849
isted	-1850
iting	-1851
▁surv	-1852
▁becom	-1853
▁mount	-1854
ination	-1855
▁promot	-1856
rest	-1857
▁lik	-1858
▁tro	-1859
asing	-1860
ficult	-1861
▁works	-1862
▁battle	-1863
▁scored	-1864
▁difficult	-1865
fall	-1866
▁Cor	-1867
▁Care	-1868
▁produc	-1869
▁red	-1870
ected	-1871
▁meet	-1872
▁announced	-1873
▁completed	-1874
▁tradition	-1875
▁Australian	-1876
▁rank	-1877
▁Kingdom	-1878
▁campaign	-1879
▁national	-1880
uck	-1881
▁Hist	-1882
▁stars	-1883
▁region	-1884
▁Cal	-1885
▁Sec	-1886
▁Som	-1887
▁fig	-1888
▁guns	-1889
▁hold	-1890
▁rock	-1891
▁Island	-1892
ator	-1893
▁redu	-1894
rie	-1895
▁Cup	-1896
▁little	-1897
▁Company	-1898
▁process	-1899
iers	-1900
▁fav	-1901
▁goal	-1902
▁help	-1903
▁fight	-1904
▁instead	-1905
irc	-1906
ivid	-1907
▁Mor	-1908
▁Rec	-1909
▁tre	-1910
hem	-1911
▁val	-1912
▁grow	-1913
▁pred	-1914
▁added	-1915
▁gl	-1916
ament	-1917
itted	-1918
rought	-1919
▁let	-1920
▁cross	-1921
▁least	-1922
▁followed	-1923
ounc	-1924
▁fac	-1925
▁peak	-1926
▁front	-1927
▁appeared	-1928
▁31	-1929
▁Ol	-1930
ways	-1931
▁rev	-1932
▁know	-1933
▁killed	-1934
▁Ke	-1935
leet	-1936
quad	-1937
▁born	-1938
▁months	-1939
▁originally	-1940
▁Army	-1941
▁wife	-1942
elling	-1943
▁comment	-1944
▁er	-1945
▁David	-1946
▁southern	-1947
reg	-1948
▁cas	-1949
▁Bill	-1950
▁loss	-1951
enth	-1952
oice	-1953
ries	-1954
▁fif	-1955
ality	-1956
enced	-1957
orse	-1958
▁nuc	-1959
▁Grand	-1960
▁associ	-1961
▁Ham	-1962
▁agre	-1963
▁ident	-1964
bo	-1965
▁29	-1966
angu	-1967
▁women	-1968
▁eastern	-1969
▁relationship	-1970
▁2003	-1971
▁mass	-1972
▁Music	-1973
▁critics	-1974
▁accom	-1975
▁France	-1976
▁mother	-1977
▁eventually	-1978
acy	-1979
off	-1980
▁40	-1981
▁Some	-1982
▁award	-1983
▁features	-1984
▁hurricane	-1985
lect	-1986
▁185	-1987
▁bus	-1988
▁2015	-1989
▁Other	-1990
▁live	-1991
▁broad	-1992
gr	-1993
com	-1994
▁aud	-1995
field	-1996
▁anim	-1997
▁cond	-1998
▁young	-1999
app	-2000
idd	-2001
▁cell	-2002
▁stri	-2003
▁route	-2004
▁taken	-2005
▁appoin	-2006
▁fourth	-2007
▁recogn	-2008
▁Two	-2009
▁served	-2010
ray	-2011
here	-2012
▁bar	-2013
emy	-2014
▁estim	-2015
▁damage	-2016
▁profess	-2017
▁Ex	-2018
ully	-2019
▁lack	-2020
▁heavy	-2021
▁sw	-2022
ique	-2023
antry	-2024
▁base	-2025
▁either	-2026
▁decided	-2027
ota	-2028
inal	-2029
▁sex	-2030
▁voc	-2031
▁aver	-2032
arliam	-2033
▁proble	-2034
▁Sw	-2035
▁behind	-2036
▁commer	-2037
▁condom	-2038
▁Battalion	-2039
aper	-2040
osaur	-2041
gether	-2042
olution	-2043
▁believed	-2044
▁together	-2045
▁mor	-2046
azine	-2047
▁separ	-2048
chie	-2049
▁arg	-2050
▁super	-2051
▁Robert	-2052
ought	-2053
▁individ	-2054
▁playing	-2055
▁ve	-2056
▁impro	-2057
ille	-2058
igned	-2059
▁Love	-2060
▁Carey	-2061
ization	-2062
arliament	-2063
▁God	-2064
ouncil	-2065
▁creat	-2066
▁example	-2067
▁special	-2068
▁188	-2069
▁clos	-2070
▁Royal	-2071
▁close	-2072
▁almost	-2073
▁move	-2074
▁accept	-2075
lo	-2076
▁quar	-2077
ements	-2078
▁leading	-2079
hys	-2080
cial	-2081
▁Mex	-2082
▁Mon	-2083
▁ask	-2084
▁burn	-2085
▁langu	-2086
▁service	-2087
▁European	-2088
▁generally	-2089
aching	-2090
▁mater	-2091
▁round	-2092
▁opened	-2093
▁Federer	-2094
▁towards	-2095
▁elements	-2096
▁arm	-2097
▁fall	-2098
urb	-2099
▁hy	-2100
▁dou	-2101
▁sour	-2102
▁weeks	-2103
▁brought	-2104
mar	-2105
▁Ser	-2106
▁non	-2107
▁miss	-2108
iction	-2109
▁Brigade	-2110
▁finished	-2111
▁International	-2112
▁ce	-2113
▁ra	-2114
rict	-2115
▁circ	-2116
▁laun	-2117
▁Ir	-2118
ceed	-2119
▁Ber	-2120
▁saw	-2121
icated	-2122
▁Wales	-2123
▁study	-2124
▁featured	-2125
illa	-2126
▁host	-2127
▁respect	-2128
▁aircraft	-2129
▁Viet	-2130
▁regular	-2131
▁Cr	-2132
▁enc	-2133
▁draw	-2134
ests	-2135
▁vol	-2136
▁Flor	-2137
iation	-2138
▁general	-2139
ida	-2140
ned	-2141
read	-2142
▁rese	-2143
▁White	-2144
▁elect	-2145
▁points	-2146
▁contract	-2147
▁directed	-2148
iron	-2149
etwork	-2150
▁central	-2151
▁provided	-2152
▁Championship	-2153
hic	-2154
▁Hen	-2155
▁Part	-2156
▁meas	-2157
▁action	-2158
ze	-2159
▁35	-2160
▁Sy	-2161
ston	-2162
ordan	-2163
▁fund	-2164
▁upon	-2165
ography	-2166
▁inform	-2167
▁highway	-2168
▁director	-2169
▁Act	-2170
▁Game	-2171
▁mean	-2172
▁wall	-2173
▁appearance	-2174
iol	-2175
val	-2176
▁Har	-2177
▁wid	-2178
▁coll	-2179
▁Follow	-2180
▁earlier	-2181
eum	-2182
▁mi	-2183
ency	-2184
▁186	-2185
▁Bro	-2186
▁East	-2187
▁From	-2188
▁yard	-2189
▁Jordan	-2190
odes	-2191
▁2014	-2192
▁king	-2193
▁sequ	-2194
▁flood	-2195
▁female	-2196
▁rather	-2197
umb	-2198
medi	-2199
▁Pres	-2200
▁indust	-2201
▁troops	-2202
▁current	-2203
irl	-2204
unk	-2205
▁Play	-2206
▁Thom	-2207
▁largest	-2208
▁victory	-2209
▁Following	-2210
bit	-2211
ino	-2212
▁dev	-2213
▁ren	-2214
oring	-2215
▁reve	-2216
▁employ	-2217
▁manager	-2218
▁subsequ	-2219
▁Christian	-2220
▁operations	-2221
▁particularly	-2222
▁Du	-2223
ming	-2224
▁Jew	-2225
▁cost	-2226
▁achie	-2227
▁Atlantic	-2228
uter	-2229
▁Rep	-2230
▁Hero	-2231
▁House	-2232
▁George	-2233
▁wanted	-2234
▁opening	-2235
oid	-2236
ude	-2237
cher	-2238
stit	-2239
▁beg	-2240
▁condu	-2241
orts	-2242
▁Mad	-2243
▁yards	-2244
▁evidence	-2245
mb	-2246
eler	-2247
▁Day	-2248
▁Red	-2249
▁cut	-2250
▁exc	-2251
▁prob	-2252
ounter	-2253
▁river	-2254
▁reason	-2255
▁northern	-2256
iber	-2257
ouri	-2258
▁insp	-2259
▁stage	-2260
▁member	-2261
cast	-2262
▁500	-2263
ength	-2264
▁Mary	-2265
▁crew	-2266
anding	-2267
▁Street	-2268
▁engine	-2269
▁Florida	-2270
▁allowed	-2271
▁outside	-2272
▁possible	-2273
▁bi	-2274
▁foc	-2275
▁stren	-2276
▁saying	-2277
oo	-2278
sel	-2279
▁ill	-2280
ellow	-2281
▁Med	-2282
▁hit	-2283
cript	-2284
▁Oliv	-2285
▁whom	-2286
atural	-2287
▁hours	-2288
anch	-2289
west	-2290
conom	-2291
erous	-2292
▁Rock	-2293
▁case	-2294
ential	-2295
▁nomin	-2296
▁2001	-2297
▁fort	-2298
▁deter	-2299
▁exist	-2300
▁regard	-2301
▁worked	-2302
▁account	-2303
ania	-2304
ators	-2305
▁Most	-2306
▁pract	-2307
▁streng	-2308
▁Missouri	-2309
eal	-2310
atin	-2311
▁Wal	-2312
▁mot	-2313
▁length	-2314
▁territ	-2315
▁respons	-2316
▁working	-2317
cent	-2318
▁Bra	-2319
▁news	-2320
ama	-2321
▁reb	-2322
board	-2323
artment	-2324
osition	-2325
▁material	-2326
▁My	-2327
▁Od	-2328
▁bur	-2329
▁gold	-2330
▁mach	-2331
▁poor	-2332
▁designed	-2333
ata	-2334
ump	-2335
▁Gal	-2336
▁neg	-2337
▁rul	-2338
▁free	-2339
▁love	-2340
▁seem	-2341
ault	-2342
▁Bay	-2343
▁Paul	-2344
▁Tech	-2345
▁stay	-2346
▁praised	-2347
uel	-2348
thod	-2349
ights	-2350
ishing	-2351
▁avail	-2352
▁Indian	-2353
▁forced	-2354
▁remains	-2355
▁Co	-2356
ores	-2357
▁187	-2358
▁1970	-2359
▁Phil	-2360
▁Command	-2361
alt	-2362
ana	-2363
▁Best	-2364
▁Mark	-2365
▁bill	-2366
▁think	-2367
▁winds	-2368
less	-2369
▁cop	-2370
▁goals	-2371
▁quick	-2372
▁treat	-2373
▁Michael	-2374
▁station	-2375
▁football	-2376
▁increased	-2377
aps	-2378
▁di	-2379
ened	-2380
heast	-2381
▁past	-2382
▁previously	-2383
ago	-2384
▁Wil	-2385
▁gre	-2386
▁First	-2387
▁above	-2388
▁replaced	-2389
gg	-2390
ius	-2391
ule	-2392
gypt	-2393
vest	-2394
▁But	-2395
▁Cap	-2396
▁soon	-2397
▁Egypt	-2398
▁invest	-2399
ica	-2400
vert	-2401
▁ly	-2402
▁civil	-2403
▁Despite	-2404
▁Richard	-2405
▁business	-2406
xas	-2407
▁hon	-2408
▁viol	-2409
▁Bus	-2410
▁mer	-2411
▁2000	-2412
ession	-2413
ributed	-2414
▁threat	-2415
▁writer	-2416
▁interview	-2417
▁commercial	-2418
irth	-2419
▁mph	-2420
asion	-2421
erved	-2422
▁units	-2423
▁Canada	-2424
▁estimated	-2425
hens	-2426
▁Que	-2427
▁esc	-2428
anned	-2429
▁Hill	-2430
▁Henry	-2431
▁clear	-2432
▁quarter	-2433
▁San	-2434
▁1990	-2435
▁pain	-2436
▁somet	-2437
▁joined	-2438
▁claimed	-2439
▁highest	-2440
▁Kh	-2441
utive	-2442
▁situ	-2443
▁surf	-2444
▁trib	-2445
▁placed	-2446
▁Japanese	-2447
▁involved	-2448
▁specific	-2449
▁z	-2450
ara	-2451
▁lo	-2452
▁must	-2453
▁Times	-2454
▁Oldham	-2455
▁signed	-2456
▁discuss	-2457
▁suggested	-2458
wh	-2459
ye	-2460
▁Dep	-2461
▁Vir	-2462
▁Brown	-2463
▁court	-2464
▁parts	-2465
▁President	-2466
▁183	-2467
▁react	-2468
▁intens	-2469
▁western	-2470
BC	-2471
ett	-2472
oms	-2473
clus	-2474
▁priv	-2475
▁Carol	-2476
▁itself	-2477
▁league	-2478
▁proper	-2479
▁Olivier	-2480
▁Dr	-2481
iter	-2482
▁Tor	-2483
istic	-2484
▁Later	-2485
▁Vietn	-2486
▁object	-2487
▁average	-2488
tt	-2489
▁Whe	-2490
▁Arab	-2491
▁pers	-2492
▁shot	-2493
▁India	-2494
▁contr	-2495
▁Mexico	-2496
▁change	-2497
▁taking	-2498
▁available	-2499
wood	-2500
▁Cro	-2501
osing	-2502
thlet	-2503
▁come	-2504
▁cycl	-2505
▁scene	-2506
▁Govern	-2507
▁introduced	-2508
▁McC	-2509
▁fly	-2510
▁term	-2511
▁whose	-2512
▁village	-2513
▁transport	-2514
olic	-2515
ving	-2516
▁inj	-2517
▁heav	-2518
▁hous	-2519
▁School	-2520
▁brother	-2521
▁transfer	-2522
▁recording	-2523
ita	-2524
▁Im	-2525
▁Val	-2526
achel	-2527
▁Cong	-2528
▁Hall	-2529
ington	-2530
▁Irish	-2531
ximately	-2532
▁religious	-2533
nes	-2534
now	-2535
quar	-2536
▁Var	-2537
▁pen	-2538
ready	-2539
▁race	-2540
lected	-2541
porary	-2542
ibility	-2543
▁Thomas	-2544
▁travel	-2545
bor	-2546
onst	-2547
▁don	-2548
▁slow	-2549
▁told	-2550
▁break	-2551
▁shows	-2552
▁Britain	-2553
▁damaged	-2554
▁network	-2555
lic	-2556
abit	-2557
band	-2558
acing	-2559
rated	-2560
▁exec	-2561
▁stop	-2562
pected	-2563
▁names	-2564
▁remov	-2565
▁turned	-2566
▁Republic	-2567
▁increasing	-2568
▁-	-2569
▁36	-2570
▁Pac	-2571
▁1960	-2572
▁Card	-2573
▁That	-2574
▁give	-2575
▁mult	-2576
▁rail	-2577
▁lines	-2578
▁subject	-2579
▁Many	-2580
▁nine	-2581
▁Scient	-2582
▁defend	-2583
▁nearly	-2584
▁despite	-2585
▁appointed	-2586
▁Sm	-2587
oney	-2588
▁Hel	-2589
▁pie	-2590
▁Zeal	-2591
▁feel	-2592
▁size	-2593
▁Great	-2594
▁Guitar	-2595
▁Zealand	-2596
▁complet	-2597
▁community	-2598
▁structure	-2599
AF	-2600
▁op	-2601
▁Not	-2602
▁Sun	-2603
elled	-2604
▁date	-2605
▁diss	-2606
▁educ	-2607
▁hard	-2608
▁phys	-2609
▁econom	-2610
▁passed	-2611
▁surround	-2612
▁NY	-2613
▁Mac	-2614
▁pur	-2615
iding	-2616
▁Union	-2617
ruction	-2618
pecially	-2619
▁certain	-2620
▁independ	-2621
▁establish	-2622
▁initially	-2623
▁international	-2624
head	-2625
▁184	-2626
ronic	-2627
▁grad	-2628
▁going	-2629
▁liter	-2630
▁withd	-2631
▁immedi	-2632
▁social	-2633
▁already	-2634
ume	-2635
▁60	-2636
▁rap	-2637
inese	-2638
▁chap	-2639
▁deal	-2640
▁Early	-2641
▁might	-2642
▁archae	-2643
▁assist	-2644
▁failed	-2645
▁Chinese	-2646
▁display	-2647
▁winning	-2648
▁45	-2649
▁Ac	-2650
anna	-2651
▁Gold	-2652
▁type	-2653
▁occup	-2654
▁score	-2655
▁states	-2656
▁capital	-2657
▁language	-2658
▁probably	-2659
▁training	-2660
▁according	-2661
▁especially	-2662
iff	-2663
▁Em	-2664
▁doc	-2665
arily	-2666
▁2002	-2667
▁Ever	-2668
▁food	-2669
▁Colle	-2670
▁debut	-2671
▁issue	-2672
▁minor	-2673
▁forest	-2674
for	-2675
aled	-2676
▁Pre	-2677
▁fut	-2678
▁Mont	-2679
▁male	-2680
▁test	-2681
▁wood	-2682
▁Super	-2683
▁daugh	-2684
▁studio	-2685
▁Pacific	-2686
▁Hurricane	-2687
▁Os	-2688
ties	-2689
▁III	-2690
▁tow	-2691
▁conn	-2692
hedral	-2693
▁spent	-2694
▁arrived	-2695
▁ordered	-2696
▁includes	-2697
pper	-2698
▁Mos	-2699
▁Film	-2700
▁army	-2701
▁visit	-2702
▁Awards	-2703
▁enough	-2704
▁Wheeler	-2705
▁Canadian	-2706
▁particip	-2707
▁remaining	-2708
urt	-2709
▁Ag	-2710
▁Sl	-2711
onse	-2712
▁Jin	-2713
▁mem	-2714
odies	-2715
▁Navy	-2716
▁fail	-2717
▁mixed	-2718
▁forward	-2719
▁sometimes	-2720
ula	-2721
▁UK	-2722
▁Peter	-2723
▁History	-2724
▁reviews	-2725
▁complete	-2726
▁required	-2727
▁approximately	-2728
ays	-2729
▁pot	-2730
aries	-2731
atory	-2732
▁Cath	-2733
ulated	-2734
▁latter	-2735
nel	-2736
fect	-2737
▁Res	-2738
▁abs	-2739
▁rain	-2740
ference	-2741
ilities	-2742
▁Africa	-2743
▁Associ	-2744
▁center	-2745
▁remain	-2746
▁beginning	-2747
hib	-2748
ulf	-2749
▁cru	-2750
▁Rose	-2751
▁Sing	-2752
▁Angel	-2753
▁block	-2754
eth	-2755
ateg	-2756
▁Don	-2757
▁Law	-2758
▁anti	-2759
tation	-2760
▁Creek	-2761
▁lower	-2762
▁limited	-2763
▁decision	-2764
chol	-2765
enes	-2766
▁changes	-2767
▁usually	-2768
▁additional	-2769
ste	-2770
ites	-2771
rian	-2772
▁den	-2773
▁indic	-2774
▁journ	-2775
▁Virgin	-2776
▁better	-2777
▁running	-2778
▁Regiment	-2779
▁response	-2780
▁Art	-2781
▁Jer	-2782
▁key	-2783
▁ended	-2784
▁Rachel	-2785
▁larger	-2786
▁positive	-2787
▁students	-2788
▁president	-2789
itz	-2790
▁Mo	-2791
▁Rou	-2792
▁Soc	-2793
▁Nort	-2794
▁dead	-2795
▁woman	-2796
▁mention	-2797
▁magazine	-2798
▁supported	-2799
rics	-2800
▁Stud	-2801
▁Scott	-2802
▁notes	-2803
▁touch	-2804
quadron	-2805
▁police	-2806
▁pressure	-2807
▁depression	-2808
aval	-2809
lymp	-2810
▁cal	-2811
▁poet	-2812
▁wide	-2813
▁Award	-2814
▁Olymp	-2815
▁birds	-2816
▁amount	-2817
edy	-2818
enty	-2819
▁quest	-2820
▁shown	-2821
▁prevent	-2822
▁Billboard	-2823
gl	-2824
ases	-2825
▁Ver	-2826
▁Penn	-2827
▁space	-2828
▁future	-2829
▁Charles	-2830
▁related	-2831
aph	-2832
aker	-2833
back	-2834
▁1980	-2835
▁1995	-2836
▁fifth	-2837
▁provide	-2838
▁defeated	-2839
go	-2840
rd	-2841
arm	-2842
▁38	-2843
▁hom	-2844
stant	-2845
▁face	-2846
uments	-2847
▁discovered	-2848
ih	-2849
tr	-2850
leg	-2851
▁TV	-2852
▁syn	-2853
▁staff	-2854
▁temper	-2855
▁feature	-2856
men	-2857
▁80	-2858
▁Pri	-2859
▁anc	-2860
▁Fort	-2861
▁prior	-2862
▁becoming	-2863
ids	-2864
irt	-2865
ands	-2866
uals	-2867
▁Ter	-2868
▁Tom	-2869
▁aut	-2870
▁birth	-2871
co	-2872
ifa	-2873
owl	-2874
▁cm	-2875
▁doll	-2876
▁exam	-2877
mitted	-2878
▁frequ	-2879
▁Western	-2880
▁section	-2881
▁smaller	-2882
onc	-2883
bert	-2884
gely	-2885
inct	-2886
riage	-2887
▁disp	-2888
▁idea	-2889
idents	-2890
▁groups	-2891
▁screen	-2892
▁intended	-2893
▁Scientology	-2894
▁App	-2895
▁Off	-2896
aring	-2897
selves	-2898
▁metres	-2899
▁mostly	-2900
▁conclud	-2901
▁percent	-2902
▁themselves	-2903
aby	-2904
ney	-2905
agon	-2906
▁Hot	-2907
▁Tur	-2908
anies	-2909
ishop	-2910
quare	-2911
stein	-2912
▁Haifa	-2913
▁fleet	-2914
▁likely	-2915
▁minutes	-2916
▁surface	-2917
▁captured	-2918
▁referred	-2919
▁research	-2920
aut	-2921
rief	-2922
▁Inf	-2923
▁fir	-2924
ching	-2925
▁Year	-2926
▁word	-2927
▁Frank	-2928
▁Since	-2929
▁domin	-2930
▁office	-2931
▁largely	-2932
▁musical	-2933
▁problems	-2934
▁Association	-2935
▁professional	-2936
▁75	-2937
▁FI	-2938
▁La	-2939
down	-2940
enon	-2941
rael	-2942
iforn	-2943
orial	-2944
▁2016	-2945
▁flow	-2946
▁media	-2947
▁entered	-2948
ee	-2949
▁sem	-2950
▁Croat	-2951
▁Under	-2952
▁makes	-2953
▁contem	-2954
▁moving	-2955
▁broadcast	-2956
gar	-2957
omm	-2958
ners	-2959
▁cer	-2960
▁der	-2961
▁emb	-2962
▁Star	-2963
▁Light	-2964
▁learn	-2965
▁radio	-2966
quarters	-2967
▁contains	-2968
▁Parliament	-2969
▁constructed	-2970
oul	-2971
sec	-2972
▁ens	-2973
▁keep	-2974
▁link	-2975
▁Portug	-2976
▁summer	-2977
gu	-2978
uf	-2979
▁Je	-2980
bers	-2981
ises	-2982
ples	-2983
pped	-2984
▁Sov	-2985
▁Oper	-2986
▁Russ	-2987
▁cele	-2988
▁pair	-2989
▁money	-2990
▁guitar	-2991
▁effects	-2992
▁Californ	-2993
to	-2994
uk	-2995
ios	-2996
cean	-2997
ergy	-2998
itte	-2999
▁sea	-3000
▁1950	-3001
▁1999	-3002
isions	-3003
▁Earth	-3004
▁grant	-3005
▁voice	-3006
▁Israel	-3007
▁Jewish	-3008
▁nature	-3009
▁observ	-3010
▁ranked	-3011
▁Council	-3012
▁stories	-3013
▁majority	-3014
▁lay	-3015
ville	-3016
▁adop	-3017
▁self	-3018
▁paren	-3019
▁arrang	-3020
▁create	-3021
▁listed	-3022
▁experience	-3023
den	-3024
uing	-3025
▁How	-3026
▁Ott	-3027
anish	-3028
eding	-3029
veston	-3030
▁Route	-3031
▁leaving	-3032
▁critical	-3033
▁Galveston	-3034
under	-3035
▁Chic	-3036
▁Wood	-3037
▁thus	-3038
▁favor	-3039
▁primary	-3040
lor	-3041
ires	-3042
▁Met	-3043
▁dro	-3044
urity	-3045
▁gods	-3046
minist	-3047
▁lived	-3048
▁schol	-3049
▁agreed	-3050
▁always	-3051
▁lyrics	-3052
▁Another	-3053
▁consist	-3054
▁location	-3055
iest	-3056
teen	-3057
▁Fin	-3058
▁lab	-3059
▁pay	-3060
imate	-3061
owler	-3062
▁rare	-3063
▁runs	-3064
▁brief	-3065
▁compl	-3066
▁films	-3067
▁controll	-3068
▁launched	-3069
▁officers	-3070
ping	-3071
pool	-3072
reak	-3073
▁Bey	-3074
▁coin	-3075
▁sett	-3076
▁colon	-3077
▁teams	-3078
▁friends	-3079
▁quickly	-3080
▁California	-3081
ylv	-3082
aven	-3083
▁Serv	-3084
change	-3085
hester	-3086
▁meant	-3087
▁minute	-3088
▁culture	-3089
▁episodes	-3090
▁occurred	-3091
▁proposed	-3092
oke	-3093
oor	-3094
pan	-3095
tar	-3096
urg	-3097
▁Go	-3098
▁Ale	-3099
▁Hol	-3100
▁Camp	-3101
▁prem	-3102
▁equip	-3103
osaurus	-3104
▁access	-3105
▁settle	-3106
▁attract	-3107
▁whether	-3108
▁Catholic	-3109
▁assigned	-3110
▁increase	-3111
key	-3112
ror	-3113
▁If	-3114
arts	-3115
▁sat	-3116
▁vot	-3117
affic	-3118
▁Brad	-3119
▁adap	-3120
▁fans	-3121
▁pian	-3122
illery	-3123
▁forms	-3124
atively	-3125
▁defeat	-3126
▁appears	-3127
▁changed	-3128
▁traffic	-3129
ification	-3130
▁destroyed	-3131
zy	-3132
kan	-3133
▁Mr	-3134
▁Up	-3135
imum	-3136
▁400	-3137
▁tons	-3138
▁Saint	-3139
ability	-3140
ospital	-3141
▁longer	-3142
▁Chicago	-3143
▁meaning	-3144
▁commission	-3145
asy	-3146
▁70	-3147
▁Nix	-3148
▁job	-3149
▁theme	-3150
▁script	-3151
▁Central	-3152
▁concern	-3153
▁numbers	-3154
▁soldiers	-3155
▁competition	-3156
sis	-3157
vey	-3158
aded	-3159
onym	-3160
▁Nic	-3161
▁1940	-3162
▁Ross	-3163
▁bound	-3164
▁earth	-3165
▁focus	-3166
▁leave	-3167
▁reach	-3168
▁trade	-3169
▁celebr	-3170
▁awarded	-3171
▁carried	-3172
▁Northern	-3173
▁33	-3174
ruit	-3175
▁Haw	-3176
▁hop	-3177
▁mom	-3178
andon	-3179
▁girl	-3180
undred	-3181
▁Alice	-3182
▁Latin	-3183
▁private	-3184
▁daughter	-3185
▁conducted	-3186
▁Lou	-3187
▁sil	-3188
▁1998	-3189
▁Over	-3190
▁cred	-3191
▁deep	-3192
▁newsp	-3193
▁natural	-3194
▁records	-3195
▁underst	-3196
▁subsequently	-3197
▁Qu	-3198
bery	-3199
▁300	-3200
▁ran	-3201
▁unc	-3202
ortun	-3203
▁1930	-3204
▁Enter	-3205
▁analy	-3206
▁cause	-3207
▁plans	-3208
▁tourn	-3209
▁consider	-3210
▁fighting	-3211
iva	-3212
oir	-3213
▁ded	-3214
▁1993	-3215
▁Scot	-3216
▁bord	-3217
▁Villa	-3218
▁shoot	-3219
▁takes	-3220
▁Second	-3221
▁overall	-3222
▁industry	-3223
▁commented	-3224
▁influence	-3225
zz	-3226
ari	-3227
▁Dj	-3228
ruct	-3229
▁Mer	-3230
▁Mey	-3231
▁cle	-3232
itect	-3233
ption	-3234
▁bomb	-3235
▁Alkan	-3236
▁Liver	-3237
▁asked	-3238
▁bring	-3239
▁Battle	-3240
▁Polish	-3241
▁finally	-3242
▁serious	-3243
▁Liverpool	-3244
▁32	-3245
▁Ma	-3246
▁Pat	-3247
▁Tay	-3248
▁deg	-3249
▁imm	-3250
▁kil	-3251
▁Fore	-3252
▁Form	-3253
▁Ital	-3254
▁emer	-3255
tained	-3256
usband	-3257
▁Nixon	-3258
▁whole	-3259
▁ending	-3260
▁method	-3261
▁concert	-3262
▁greater	-3263
▁election	-3264
▁BC	-3265
▁Its	-3266
▁done	-3267
▁Sever	-3268
stitute	-3269
▁double	-3270
▁unable	-3271
▁married	-3272
▁compared	-3273
▁positions	-3274
hou	-3275
oly	-3276
sen	-3277
▁inn	-3278
▁our	-3279
aches	-3280
anced	-3281
inent	-3282
▁cann	-3283
▁upper	-3284
▁Christm	-3285
umn	-3286
ills	-3287
▁che	-3288
▁got	-3289
▁sus	-3290
▁tar	-3291
▁yet	-3292
▁dram	-3293
▁Texas	-3294
▁thick	-3295
▁centre	-3296
▁earned	-3297
▁flight	-3298
▁buildings	-3299
unt	-3300
▁90	-3301
aily	-3302
anks	-3303
gian	-3304
well	-3305
▁Mil	-3306
▁big	-3307
▁env	-3308
erset	-3309
▁1996	-3310
▁Cour	-3311
▁Lady	-3312
▁Mart	-3313
▁Tour	-3314
▁acqu	-3315
▁Three	-3316
▁party	-3317
▁rapid	-3318
▁Mosley	-3319
▁begins	-3320
▁issued	-3321
▁living	-3322
▁counter	-3323
▁Somerset	-3324
▁personal	-3325
▁standard	-3326
gen	-3327
▁box	-3328
▁log	-3329
ittee	-3330
▁kind	-3331
▁Busch	-3332
▁nucle	-3333
▁purch	-3334
▁terms	-3335
▁throw	-3336
▁marked	-3337
▁market	-3338
▁directly	-3339
dle	-3340
ails	-3341
amer	-3342
▁Bel	-3343
▁Tre	-3344
▁ult	-3345
▁Tenn	-3346
▁hero	-3347
▁books	-3348
▁Taylor	-3349
▁health	-3350
▁scenes	-3351
▁status	-3352
▁marriage	-3353
▁movement	-3354
▁Sk	-3355
▁Str	-3356
▁dom	-3357
▁Lake	-3358
▁helped	-3359
▁slight	-3360
▁Several	-3361
▁concept	-3362
▁portray	-3363
▁Christmas	-3364
umed	-3365
▁und	-3366
▁Back	-3367
▁tell	-3368
istics	-3369
▁sched	-3370
▁Fowler	-3371
▁batter	-3372
▁experi	-3373
▁African	-3374
▁Spanish	-3375
▁attacks	-3376
▁planned	-3377
▁schools	-3378
▁Tropical	-3379
▁starting	-3380
▁suffered	-3381
▁information	-3382
▁traditional	-3383
itor	-3384
▁dig	-3385
▁jud	-3386
alled	-3387
▁dark	-3388
▁speed	-3389
▁figure	-3390
▁giving	-3391
▁inspired	-3392
▁associated	-3393
▁performances	-3394
ma	-3395
▁x	-3396
▁Jo	-3397
▁Pit	-3398
▁Sam	-3399
itude	-3400
▁closed	-3401
▁source	-3402
▁abandon	-3403
▁condoms	-3404
▁husband	-3405
▁leaders	-3406
▁machine	-3407
▁Infantry	-3408
▁division	-3409
▁presented	-3410
▁Tw	-3411
▁mur	-3412
▁via	-3413
athan	-3414
▁Foot	-3415
▁Party	-3416
▁Soviet	-3417
▁raised	-3418
▁initial	-3419
▁determin	-3420
▁greatest	-3421
▁presence	-3422
AS	-3423
II	-3424
awn	-3425
iant	-3426
embly	-3427
▁Arch	-3428
▁Vict	-3429
▁room	-3430
▁unit	-3431
▁uses	-3432
▁wound	-3433
▁Series	-3434
▁except	-3435
▁nearby	-3436
▁writers	-3437
▁Carolina	-3438
▁Virginia	-3439
▁continue	-3440
▁document	-3441
▁education	-3442
ks	-3443
iami	-3444
iser	-3445
mium	-3446
▁uns	-3447
aught	-3448
▁Jane	-3449
▁dism	-3450
▁norm	-3451
▁plot	-3452
▁Cross	-3453
▁Paris	-3454
▁image	-3455
▁covered	-3456
▁cyclone	-3457
▁Rosebery	-3458
▁collection	-3459
olk	-3460
raf	-3461
cing	-3462
▁Ben	-3463
▁Bob	-3464
incip	-3465
▁rein	-3466
▁weap	-3467
▁Queen	-3468
▁chall	-3469
itation	-3470
▁annual	-3471
▁College	-3472
▁complex	-3473
▁hundred	-3474
▁composed	-3475
▁services	-3476
atre	-3477
erve	-3478
eway	-3479
oncé	-3480
▁Ant	-3481
▁Boy	-3482
▁Jam	-3483
▁Just	-3484
▁Live	-3485
▁polic	-3486
oration	-3487
ylvania	-3488
▁bodies	-3489
▁really	-3490
▁Beyoncé	-3491
▁figures	-3492
▁extended	-3493
▁numerous	-3494
▁producer	-3495
▁cathedral	-3496
▁commander	-3497
▁territory	-3498
joy	-3499
ken	-3500
▁tor	-3501
aging	-3502
icted	-3503
▁1997	-3504
▁Open	-3505
▁fell	-3506
▁park	-3507
▁path	-3508
▁Miami	-3509
▁Penns	-3510
▁Storm	-3511
▁enjoy	-3512
▁Museum	-3513
▁depend	-3514
▁things	-3515
▁vocals	-3516
▁Germany	-3517
▁proteins	-3518
ift	-3519
▁39	-3520
essa	-3521
etic	-3522
▁Cer	-3523
▁Rob	-3524
▁Six	-3525
▁sev	-3526
anded	-3527
ously	-3528
rical	-3529
▁prep	-3530
▁waters	-3531
▁operation	-3532
▁something	-3533
anz	-3534
bar	-3535
▁Club	-3536
▁Meyer	-3537
▁Their	-3538
estival	-3539
▁highly	-3540
▁impact	-3541
▁Nations	-3542
▁Through	-3543
▁morning	-3544
▁request	-3545
▁attacked	-3546
▁attempts	-3547
▁investig	-3548
▁strength	-3549
▁companies	-3550
ander	-3551
▁talk	-3552
▁metal	-3553
▁aspect	-3554
▁confir	-3555
▁financ	-3556
▁reject	-3557
▁transl	-3558
▁Service	-3559
▁individual	-3560
▁immediately	-3561
lim	-3562
ses	-3563
anas	-3564
▁Inn	-3565
▁era	-3566
▁pil	-3567
ademy	-3568
uries	-3569
▁dise	-3570
admium	-3571
▁Inter	-3572
▁incor	-3573
▁piano	-3574
▁stone	-3575
▁Prince	-3576
▁artist	-3577
▁necess	-3578
▁interse	-3579
▁nuclear	-3580
▁removed	-3581
▁allowing	-3582
▁distance	-3583
▁powerful	-3584
▁situation	-3585
NA	-3586
apo	-3587
ipp	-3588
mon	-3589
ibly	-3590
▁Ill	-3591
lands	-3592
vement	-3593
▁Games	-3594
▁habit	-3595
▁inside	-3596
▁needed	-3597
▁peaked	-3598
▁advance	-3599
▁offered	-3600
▁recover	-3601
▁studies	-3602
▁variety	-3603
▁Squadron	-3604
▁interact	-3605
▁selected	-3606
▁artillery	-3607
TV	-3608
ny	-3609
olf	-3610
▁42	-3611
chan	-3612
pted	-3613
▁182	-3614
▁Sur	-3615
▁hot	-3616
▁rate	-3617
▁Somal	-3618
▁Water	-3619
▁means	-3620
▁attend	-3621
▁copies	-3622
▁native	-3623
▁Scotland	-3624
▁attempted	-3625
▁countries	-3626
▁Pennsylvania	-3627
▁headquarters	-3628
rol	-3629
▁Hum	-3630
▁Los	-3631
▁saf	-3632
adium	-3633
ether	-3634
track	-3635
▁1991	-3636
▁Jose	-3637
▁kick	-3638
▁purp	-3639
▁China	-3640
▁coach	-3641
▁hands	-3642
▁casual	-3643
▁search	-3644
▁tracks	-3645
ribution	-3646
▁Jackson	-3647
▁princip	-3648
▁scoring	-3649
▁architect	-3650
▁responsible	-3651
▁respectively	-3652
een	-3653
▁AI	-3654
pole	-3655
▁Out	-3656
imony	-3657
▁Both	-3658
▁mole	-3659
▁purs	-3660
▁rule	-3661
▁symb	-3662
lement	-3663
▁Major	-3664
▁genus	-3665
▁higher	-3666
▁widely	-3667
▁describes	-3668
▁touchdown	-3669
▁Department	-3670
▁appearances	-3671
ha	-3672
cer	-3673
ria	-3674
▁47	-3675
cend	-3676
▁Dan	-3677
▁Nor	-3678
andid	-3679
anger	-3680
▁Crit	-3681
▁sets	-3682
▁spir	-3683
▁text	-3684
orship	-3685
▁Chris	-3686
▁Corps	-3687
▁advant	-3688
▁course	-3689
▁sexual	-3690
▁heavily	-3691
▁Anderson	-3692
▁Football	-3693
▁observed	-3694
▁controvers	-3695
of	-3696
oud	-3697
rey	-3698
anta	-3699
reme	-3700
▁amb	-3701
ports	-3702
▁1992	-3703
▁Alex	-3704
▁phot	-3705
▁pick	-3706
▁Braat	-3707
▁adult	-3708
▁below	-3709
▁xenon	-3710
▁middle	-3711
▁relief	-3712
▁meeting	-3713
▁reduced	-3714
▁ang	-3715
▁boy	-3716
▁1994	-3717
▁plat	-3718
icient	-3719
▁sixth	-3720
▁active	-3721
▁intern	-3722
▁secret	-3723
▁matches	-3724
▁administ	-3725
▁audience	-3726
▁resulted	-3727
▁concluded	-3728
ils	-3729
iny	-3730
▁44	-3731
lict	-3732
ship	-3733
▁Are	-3734
▁sal	-3735
▁Like	-3736
▁Time	-3737
▁true	-3738
nesota	-3739
▁Franc	-3740
▁lands	-3741
▁Victor	-3742
▁singer	-3743
▁activity	-3744
▁Minnesota	-3745
▁activities	-3746
▁completely	-3747
aen	-3748
car	-3749
cts	-3750
iqu	-3751
▁ess	-3752
akapo	-3753
inkel	-3754
isher	-3755
▁Center	-3756
▁managed	-3757
▁stating	-3758
▁Southern	-3759
▁opportun	-3760
▁revealed	-3761
▁contemporary	-3762
ga	-3763
ems	-3764
like	-3765
send	-3766
▁Sea	-3767
▁Tem	-3768
▁fill	-3769
▁hour	-3770
atives	-3771
ricket	-3772
▁trees	-3773
▁levels	-3774
▁quality	-3775
▁refused	-3776
▁Townsend	-3777
▁declared	-3778
▁separate	-3779
gal	-3780
ocr	-3781
▁pu	-3782
rowd	-3783
▁Bec	-3784
▁Del	-3785
▁Sir	-3786
▁bad	-3787
annel	-3788
iated	-3789
▁blue	-3790
▁drum	-3791
▁Colon	-3792
▁Force	-3793
▁graph	-3794
ication	-3795
ologist	-3796
▁Because	-3797
▁Italian	-3798
▁constit	-3799
▁question	-3800
ify	-3801
▁Li	-3802
aped	-3803
beer	-3804
ining	-3805
peror	-3806
▁Long	-3807
▁Midd	-3808
▁Hawai	-3809
▁Shiva	-3810
▁blood	-3811
▁carry	-3812
▁model	-3813
▁shell	-3814
▁today	-3815
▁Finkel	-3816
▁instit	-3817
▁recent	-3818
▁Walpole	-3819
▁parents	-3820
▁approach	-3821
▁contrast	-3822
▁Meyerbeer	-3823
▁featuring	-3824
▁typically	-3825
▁background	-3826
▁historical	-3827
▁university	-3828
▁Finkelstein	-3829
oph	-3830
ares	-3831
▁Yue	-3832
▁ris	-3833
athus	-3834
▁Smith	-3835
▁Tessa	-3836
▁paper	-3837
▁issues	-3838
▁multip	-3839
▁Ottoman	-3840
▁actions	-3841
▁descript	-3842
▁expected	-3843
▁conditions	-3844
▁76	-3845
alty	-3846
oint	-3847
rawn	-3848
utch	-3849
▁Bet	-3850
▁Sol	-3851
▁tax	-3852
force	-3853
▁Cast	-3854
▁Mill	-3855
▁entr	-3856
▁wing	-3857
▁peace	-3858
▁plays	-3859
▁Nicole	-3860
▁compos	-3861
▁houses	-3862
▁mainly	-3863
▁weaken	-3864
▁Society	-3865
▁assault	-3866
▁becomes	-3867
▁efforts	-3868
▁attention	-3869
▁reception	-3870
cle	-3871
hew	-3872
▁37	-3873
ican	-3874
▁Emp	-3875
▁Jim	-3876
▁pow	-3877
▁rhy	-3878
▁wit	-3879
ounds	-3880
shire	-3881
▁emot	-3882
▁iron	-3883
▁subs	-3884
▁webs	-3885
▁brown	-3886
▁grand	-3887
▁offer	-3888
▁vehic	-3889
▁nation	-3890
▁specim	-3891
▁strugg	-3892
▁residents	-3893
isl	-3894
▁51	-3895
ging	-3896
rate	-3897
▁Lit	-3898
▁lot	-3899
ufact	-3900
▁Wild	-3901
▁magn	-3902
▁narr	-3903
▁sense	-3904
▁consec	-3905
▁titles	-3906
ervation	-3907
▁calling	-3908
▁actually	-3909
▁Braathens	-3910
▁soundtrack	-3911
ado	-3912
bed	-3913
eds	-3914
het	-3915
ware	-3916
▁roy	-3917
▁hair	-3918
▁task	-3919
▁Court	-3920
▁roles	-3921
▁write	-3922
▁cannot	-3923
▁struck	-3924
▁demonst	-3925
▁seasons	-3926
▁accepted	-3927
▁achieved	-3928
icip	-3929
▁Dam	-3930
▁Dem	-3931
▁Nes	-3932
▁lif	-3933
arent	-3934
▁Balt	-3935
▁Dire	-3936
▁Hait	-3937
▁bene	-3938
▁resc	-3939
▁wear	-3940
▁Charl	-3941
▁famil	-3942
▁instr	-3943
▁vocal	-3944
▁athlet	-3945
▁recomm	-3946
▁Highway	-3947
▁Johnson	-3948
▁Vietnam	-3949
▁protein	-3950
▁respond	-3951
▁viewers	-3952
▁practice	-3953
ply	-3954
▁48	-3955
▁ge	-3956
aine	-3957
hood	-3958
imin	-3959
rial	-3960
uese	-3961
appen	-3962
ellig	-3963
▁Adam	-3964
▁Blue	-3965
▁beat	-3966
▁corn	-3967
▁elev	-3968
onents	-3969
▁avoid	-3970
▁crowd	-3971
▁thous	-3972
▁Illino	-3973
▁scient	-3974
▁Academy	-3975
▁fiction	-3976
▁sequence	-3977
▁primarily	-3978
▁Government	-3979
▁Portuguese	-3980
MS	-3981
▁52	-3982
▁lb	-3983
▁181	-3984
▁Fey	-3985
▁Jul	-3986
▁Tod	-3987
venue	-3988
▁chem	-3989
▁board	-3990
▁owned	-3991
▁types	-3992
essions	-3993
▁combat	-3994
▁spread	-3995
▁twenty	-3996
▁Thunder	-3997
▁elected	-3998
▁infantry	-3999
▁slightly	-4000
▁Of	-4001
▁du	-4002
anes	-4003
ding	-4004
hold	-4005
writ	-4006
▁150	-4007
▁Gar	-4008
▁Ram	-4009
▁Rev	-4010
▁max	-4011
▁nin	-4012
acher	-4013
itual	-4014
▁1986	-4015
▁News	-4016
▁Civil	-4017
▁Spain	-4018
▁plant	-4019
▁sales	-4020
▁scale	-4021
▁sport	-4022
▁altern	-4023
▁inches	-4024
▁rights	-4025
▁sister	-4026
ulations	-4027
▁Captain	-4028
▁concent	-4029
▁expressed	-4030
▁northeast	-4031
▁offensive	-4032
▁34	-4033
▁Ty	-4034
estic	-4035
▁scul	-4036
ceeded	-4037
ograph	-4038
▁Group	-4039
▁Louis	-4040
▁neigh	-4041
▁rough	-4042
▁words	-4043
▁Columb	-4044
▁Engine	-4045
▁Review	-4046
▁showed	-4047
cription	-4048
▁affected	-4049
uit	-4050
▁Er	-4051
▁Kr	-4052
bury	-4053
road	-4054
▁180	-4055
▁Mal	-4056
▁Mog	-4057
▁spl	-4058
▁suc	-4059
ledge	-4060
ushed	-4061
▁Land	-4062
▁sout	-4063
▁walk	-4064
▁Horse	-4065
▁Young	-4066
▁Empire	-4067
▁county	-4068
▁themes	-4069
▁window	-4070
▁ability	-4071
▁officer	-4072
▁combined	-4073
▁battalion	-4074
FA	-4075
nh	-4076
aha	-4077
vin	-4078
elsh	-4079
ingu	-4080
room	-4081
▁pun	-4082
anasi	-4083
arrow	-4084
intin	-4085
light	-4086
▁Cont	-4087
▁Zhou	-4088
▁prec	-4089
▁rear	-4090
▁sust	-4091
▁Welsh	-4092
▁fruit	-4093
▁horse	-4094
onymous	-4095
▁Little	-4096
▁Though	-4097
▁Tintin	-4098
▁titled	-4099
▁Varanasi	-4100
▁cultural	-4101
▁incorpor	-4102
▁progress	-4103
▁casualties	-4104
BA	-4105
bitt	-4106
emic	-4107
house	-4108
▁Dist	-4109
▁Manc	-4110
▁says	-4111
▁Green	-4112
▁excav	-4113
▁Secret	-4114
▁murder	-4115
▁remark	-4116
▁square	-4117
ironment	-4118
▁Angeles	-4119
▁Nesbitt	-4120
▁ancient	-4121
▁produce	-4122
▁earliest	-4123
▁mountain	-4124
▁continues	-4125
▁mentioned	-4126
▁newspaper	-4127
▁recommend	-4128
mun	-4129
omer	-4130
oses	-4131
pedo	-4132
▁Eva	-4133
▁hol	-4134
▁inh	-4135
▁1920	-4136
▁Book	-4137
▁Conf	-4138
▁Home	-4139
▁Ceres	-4140
▁Odaen	-4141
▁actor	-4142
▁cerem	-4143
▁fully	-4144
▁Andrew	-4145
▁Commun	-4146
▁Olympic	-4147
▁Records	-4148
▁adopted	-4149
▁artists	-4150
▁distinct	-4151
▁flooding	-4152
▁manufact	-4153
▁resulting	-4154
▁Odaenathus	-4155
▁influenced	-4156
▁authorities	-4157
▁championship	-4158
Mont	-4159
etts	-4160
▁Add	-4161
▁Rad	-4162
▁dyn	-4163
arnia	-4164
enant	-4165
umber	-4166
while	-4167
▁Turn	-4168
utions	-4169
▁basis	-4170
▁DuMont	-4171
▁Origin	-4172
▁Sarnia	-4173
▁disease	-4174
▁mission	-4175
▁reports	-4176
▁represented	-4177
ev	-4178
eter	-4179
nown	-4180
ovic	-4181
▁Arg	-4182
▁Bol	-4183
▁har	-4184
▁Burn	-4185
▁Spec	-4186
▁qual	-4187
▁repe	-4188
▁Trans	-4189
▁alone	-4190
▁grass	-4191
▁tower	-4192
▁coming	-4193
▁toward	-4194
▁defense	-4195
▁letters	-4196
▁apparent	-4197
▁advantage	-4198
▁Manchester	-4199
▁tournament	-4200
imb	-4201
nds	-4202
▁Om	-4203
▁SR	-4204
bird	-4205
orus	-4206
▁Def	-4207
▁Jos	-4208
▁Sal	-4209
▁Apple	-4210
▁Mogad	-4211
▁armed	-4212
▁exhib	-4213
▁reign	-4214
▁sides	-4215
▁bridge	-4216
▁encour	-4217
▁kakapo	-4218
▁founded	-4219
▁torpedo	-4220
▁workers	-4221
▁Illinois	-4222
▁occasion	-4223
▁withdraw	-4224
▁alongside	-4225
▁northwest	-4226
▁relatively	-4227
▁Thunderbird	-4228
mir	-4229
▁fa	-4230
helm	-4231
ocks	-4232
▁Dou	-4233
▁1988	-4234
▁Four	-4235
▁Fred	-4236
▁Post	-4237
▁nest	-4238
▁Ocean	-4239
▁legal	-4240
▁tried	-4241
▁illust	-4242
▁losing	-4243
▁mechan	-4244
▁narrow	-4245
▁termin	-4246
▁yellow	-4247
▁cadmium	-4248
▁capture	-4249
▁contain	-4250
▁edition	-4251
▁attended	-4252
▁direction	-4253
▁organized	-4254
▁officially	-4255
▁individuals	-4256
▁transferred	-4257
lin	-4258
▁Av	-4259
osen	-4260
eller	-4261
▁Wash	-4262
▁mess	-4263
▁mile	-4264
▁Clark	-4265
▁Produ	-4266
▁acting	-4267
▁effort	-4268
▁perman	-4269
▁proved	-4270
▁contact	-4271
▁measure	-4272
▁require	-4273
▁physical	-4274
▁dedicated	-4275
▁officials	-4276
▁Washington	-4277
▁surrounding	-4278
AA	-4279
mes	-4280
▁MD	-4281
ogue	-4282
▁Way	-4283
▁eye	-4284
abama	-4285
usion	-4286
▁edge	-4287
▁emph	-4288
▁prin	-4289
▁rang	-4290
▁thir	-4291
ension	-4292
ricult	-4293
▁Omaha	-4294
▁doing	-4295
▁lives	-4296
▁Middle	-4297
▁candid	-4298
▁couple	-4299
▁energy	-4300
▁Alabama	-4301
▁conflict	-4302
▁rainfall	-4303
ien	-4304
wen	-4305
adel	-4306
right	-4307
▁Mean	-4308
▁starl	-4309
▁prepar	-4310
▁divided	-4311
▁follows	-4312
▁pattern	-4313
▁shortly	-4314
▁possibly	-4315
▁Reception	-4316
▁financial	-4317
▁intensity	-4318
▁designated	-4319
ols	-4320
▁49	-4321
▁ir	-4322
▁vo	-4323
ishu	-4324
mond	-4325
▁Sch	-4326
▁hun	-4327
▁ven	-4328
ading	-4329
prise	-4330
▁Fant	-4331
▁Lord	-4332
▁paid	-4333
▁youn	-4334
▁your	-4335
▁Helms	-4336
▁faced	-4337
▁older	-4338
▁shape	-4339
▁albums	-4340
▁images	-4341
▁simply	-4342
▁winter	-4343
▁maximum	-4344
▁society	-4345
▁sources	-4346
▁Mogadishu	-4347
▁determined	-4348
mit	-4349
uff	-4350
▁65	-4351
▁NC	-4352
lied	-4353
rane	-4354
▁Fam	-4355
▁Hal	-4356
▁aid	-4357
▁ple	-4358
▁rat	-4359
orses	-4360
▁Kent	-4361
▁kept	-4362
▁onto	-4363
▁raid	-4364
▁step	-4365
▁Innis	-4366
▁behav	-4367
▁chief	-4368
▁piece	-4369
▁Edward	-4370
▁Histor	-4371
▁Joseph	-4372
▁border	-4373
▁broken	-4374
▁comedy	-4375
▁dissip	-4376
▁emphas	-4377
▁places	-4378
▁journal	-4379
▁portion	-4380
▁function	-4381
▁potential	-4382
rat	-4383
use	-4384
▁sac	-4385
ental	-4386
imore	-4387
▁1964	-4388
▁Cons	-4389
▁Fleet	-4390
▁movie	-4391
▁advert	-4392
▁argued	-4393
▁charge	-4394
▁cities	-4395
▁Wilhelm	-4396
▁protect	-4397
▁univers	-4398
▁Commission	-4399
rid	-4400
oper	-4401
ugby	-4402
▁Bre	-4403
▁Jup	-4404
▁Max	-4405
▁Rih	-4406
▁thr	-4407
▁folk	-4408
▁grew	-4409
▁mind	-4410
▁wild	-4411
▁Journ	-4412
▁PlayS	-4413
▁color	-4414
▁depth	-4415
▁feder	-4416
▁heart	-4417
▁sites	-4418
▁Argent	-4419
▁McCall	-4420
▁Rihanna	-4421
▁content	-4422
▁Assembly	-4423
▁domestic	-4424
▁projects	-4425
▁suggests	-4426
▁authority	-4427
▁management	-4428
▁PlayStation	-4429
ada	-4430
▁64	-4431
iled	-4432
onna	-4433
▁Fer	-4434
▁Van	-4435
▁dut	-4436
▁wor	-4437
▁wave	-4438
▁weak	-4439
▁Greek	-4440
▁paint	-4441
▁royal	-4442
▁twice	-4443
acement	-4444
lection	-4445
▁Hamels	-4446
▁Valley	-4447
▁belong	-4448
▁depart	-4449
▁gained	-4450
▁legisl	-4451
▁letter	-4452
▁prison	-4453
▁sculpt	-4454
▁target	-4455
▁causing	-4456
▁schedul	-4457
▁science	-4458
▁website	-4459
▁entrance	-4460
▁criticized	-4461
▁structures	-4462
▁ultimately	-4463
ex	-4464
je	-4465
ani	-4466
edar	-4467
lies	-4468
▁fit	-4469
▁unk	-4470
atops	-4471
ening	-4472
ented	-4473
▁Dest	-4474
▁Week	-4475
▁doub	-4476
▁neut	-4477
▁roll	-4478
▁vess	-4479
▁extra	-4480
▁homes	-4481
▁share	-4482
▁Common	-4483
▁Palest	-4484
▁museum	-4485
▁debuted	-4486
▁results	-4487
▁Independ	-4488
▁formation	-4489
▁containing	-4490
edk	-4491
▁kg	-4492
wide	-4493
▁Cra	-4494
▁Tru	-4495
▁agg	-4496
claim	-4497
▁1947	-4498
▁Gall	-4499
▁Mass	-4500
▁Writ	-4501
▁opin	-4502
edkare	-4503
enture	-4504
▁artic	-4505
▁label	-4506
mission	-4507
▁chosen	-4508
▁deploy	-4509
▁Jupiter	-4510
▁defence	-4511
▁foreign	-4512
▁Constant	-4513
▁Djedkare	-4514
▁hospital	-4515
▁Baltimore	-4516
▁defensive	-4517
VD	-4518
acks	-4519
asty	-4520
bour	-4521
resh	-4522
umes	-4523
▁DVD	-4524
▁Lew	-4525
▁Sen	-4526
▁Ven	-4527
▁Bowl	-4528
▁core	-4529
▁frag	-4530
▁inch	-4531
▁mouth	-4532
▁Torres	-4533
▁animal	-4534
▁buried	-4535
▁master	-4536
▁battles	-4537
▁brigade	-4538
▁dismiss	-4539
▁granted	-4540
▁growing	-4541
▁rejected	-4542
▁security	-4543
▁standing	-4544
▁abandoned	-4545
▁prominent	-4546
▁reference	-4547
▁consecutive	-4548
▁FA	-4549
▁Rh	-4550
▁Ann	-4551
▁Lis	-4552
▁Sar	-4553
inary	-4554
▁Horn	-4555
▁Kore	-4556
▁Once	-4557
▁risk	-4558
▁cells	-4559
▁claims	-4560
▁colony	-4561
▁orders	-4562
▁temple	-4563
▁Eastern	-4564
▁visited	-4565
▁Scottish	-4566
▁therefore	-4567
▁organization	-4568
igan	-4569
phia	-4570
roll	-4571
▁Hib	-4572
▁Sil	-4573
▁mel	-4574
▁rom	-4575
nding	-4576
stone	-4577
white	-4578
▁1941	-4579
▁jump	-4580
▁seek	-4581
▁spot	-4582
▁Night	-4583
▁Short	-4584
▁broke	-4585
▁remix	-4586
▁Forest	-4587
adelphia	-4588
▁Airport	-4589
▁regions	-4590
▁seconds	-4591
▁singles	-4592
▁student	-4593
▁wounded	-4594
▁condition	-4595
▁Applewhite	-4596
▁independent	-4597
ML	-4598
met	-4599
▁Lo	-4600
ancy	-4601
iana	-4602
mark	-4603
▁Cam	-4604
▁Pop	-4605
▁adj	-4606
▁fix	-4607
▁1987	-4608
▁Chap	-4609
▁solo	-4610
ertain	-4611
isters	-4612
▁ahead	-4613
▁cases	-4614
▁enemy	-4615
▁enter	-4616
▁miner	-4617
▁seems	-4618
▁collect	-4619
▁collabor	-4620
▁reaching	-4621
▁versions	-4622
▁Institute	-4623
▁equipment	-4624
▁nominated	-4625
▁Background	-4626
▁identified	-4627
▁temperature	-4628
ech	-4629
ims	-4630
▁53	-4631
▁Ap	-4632
▁Hu	-4633
▁120	-4634
▁BBC	-4635
▁Big	-4636
▁Due	-4637
▁Tri	-4638
▁1984	-4639
▁1989	-4640
▁bott	-4641
▁Child	-4642
▁aired	-4643
▁males	-4644
▁newly	-4645
▁Before	-4646
▁campus	-4647
▁conver	-4648
▁height	-4649
▁moment	-4650
▁planet	-4651
▁unique	-4652
▁Further	-4653
▁element	-4654
▁opposed	-4655
▁problem	-4656
▁Egyptian	-4657
▁intellig	-4658
▁knowledge	-4659
▁returning	-4660
▁supporting	-4661
AFE	-4662
ety	-4663
▁wa	-4664
rete	-4665
uous	-4666
▁Att	-4667
▁Bir	-4668
▁fle	-4669
▁tur	-4670
astic	-4671
▁1972	-4672
▁1985	-4673
▁Each	-4674
▁Mike	-4675
▁SAFE	-4676
▁fear	-4677
ocated	-4678
▁dress	-4679
▁fired	-4680
▁Indust	-4681
▁interp	-4682
▁weight	-4683
▁Croatia	-4684
▁connect	-4685
▁looking	-4686
▁teacher	-4687
▁unknown	-4688
▁analysis	-4689
▁operated	-4690
▁Operation	-4691
▁increasingly	-4692
▁Po	-4693
iate	-4694
▁Lar	-4695
▁shr	-4696
▁tun	-4697
▁Good	-4698
▁Lock	-4699
▁here	-4700
asters	-4701
▁burns	-4702
▁compr	-4703
▁defin	-4704
▁ideas	-4705
▁theory	-4706
▁writes	-4707
▁Cardiff	-4708
▁believe	-4709
▁council	-4710
▁breeding	-4711
▁commonly	-4712
▁confirmed	-4713
▁explained	-4714
▁historian	-4715
▁literature	-4716
▁settlement	-4717
▁environment	-4718
bon	-4719
ibr	-4720
igg	-4721
▁55	-4722
▁Ox	-4723
▁ox	-4724
hips	-4725
iles	-4726
mosp	-4727
▁bud	-4728
▁oil	-4729
ortal	-4730
orter	-4731
▁1944	-4732
▁More	-4733
▁phil	-4734
▁Field	-4735
▁alter	-4736
▁molec	-4737
▁arrest	-4738
▁atmosp	-4739
▁females	-4740
▁herself	-4741
▁perfect	-4742
▁singing	-4743
▁systems	-4744
▁advanced	-4745
▁economic	-4746
▁property	-4747
▁scholars	-4748
▁stations	-4749
▁Entertain	-4750
▁consisted	-4751
▁controlled	-4752
▁Philadelphia	-4753
da	-4754
yes	-4755
▁Es	-4756
appy	-4757
▁Jon	-4758
▁Sum	-4759
▁fox	-4760
▁Even	-4761
▁Only	-4762
▁Swed	-4763
▁fast	-4764
alions	-4765
▁Keats	-4766
▁devot	-4767
▁Public	-4768
▁growth	-4769
▁happen	-4770
▁pieces	-4771
▁Mounted	-4772
▁cricket	-4773
▁dropped	-4774
▁failure	-4775
▁kilomet	-4776
▁strengt	-4777
▁Meanwhile	-4778
▁maintained	-4779
▁parliament	-4780
tav	-4781
▁Us	-4782
odon	-4783
▁Arm	-4784
▁Bon	-4785
▁pan	-4786
istry	-4787
▁Carl	-4788
▁Norm	-4789
▁sens	-4790
▁Class	-4791
▁Dutch	-4792
▁Never	-4793
▁honor	-4794
isation	-4795
▁Barrow	-4796
▁awards	-4797
▁compar	-4798
▁filmed	-4799
▁flying	-4800
▁injury	-4801
▁strike	-4802
▁deities	-4803
▁freeway	-4804
▁killing	-4805
▁pitched	-4806
▁Addition	-4807
▁Williams	-4808
▁creation	-4809
▁landfall	-4810
▁43	-4811
agan	-4812
airs	-4813
▁600	-4814
▁Jur	-4815
▁try	-4816
aling	-4817
ighth	-4818
urban	-4819
▁Andy	-4820
▁Morr	-4821
▁Prem	-4822
▁Album	-4823
▁Italy	-4824
▁Steve	-4825
▁boats	-4826
▁conne	-4827
▁exped	-4828
▁serve	-4829
▁speak	-4830
▁value	-4831
▁belief	-4832
▁extend	-4833
▁horses	-4834
▁humans	-4835
▁resemb	-4836
▁actress	-4837
▁battery	-4838
▁mounted	-4839
▁rapidly	-4840
▁retired	-4841
▁weapons	-4842
▁Congress	-4843
▁promoted	-4844
sw	-4845
▁56	-4846
▁RA	-4847
lers	-4848
▁Ban	-4849
▁HMS	-4850
▁Mat	-4851
ieval	-4852
▁imag	-4853
▁pict	-4854
▁semi	-4855
▁stra	-4856
stream	-4857
▁premi	-4858
▁Nathan	-4859
▁cougar	-4860
▁passes	-4861
▁federal	-4862
▁passing	-4863
▁selling	-4864
▁weather	-4865
▁Minister	-4866
▁creating	-4867
▁invasion	-4868
▁multiple	-4869
▁prepared	-4870
▁religion	-4871
▁straight	-4872
▁Americans	-4873
▁connected	-4874
▁promotion	-4875
▁Conference	-4876
▁recognized	-4877
▁description	-4878
▁publication	-4879
▁significantly	-4880
Le	-4881
oty	-4882
haps	-4883
itch	-4884
more	-4885
pass	-4886
▁Abu	-4887
▁ast	-4888
▁bid	-4889
oured	-4890
▁bats	-4891
▁data	-4892
ampion	-4893
▁Guard	-4894
▁chose	-4895
▁walls	-4896
arrison	-4897
▁column	-4898
▁famous	-4899
▁leader	-4900
▁matter	-4901
▁sought	-4902
▁volume	-4903
▁aspects	-4904
▁deliver	-4905
▁protest	-4906
▁seventh	-4907
▁regarded	-4908
▁necessary	-4909
▁producers	-4910
▁scheduled	-4911
▁popularity	-4912
gn	-4913
ano	-4914
▁46	-4915
icks	-4916
▁Pet	-4917
▁Sor	-4918
asure	-4919
ordon	-4920
▁Jeff	-4921
▁Matt	-4922
▁cust	-4923
▁laid	-4924
▁rise	-4925
▁sand	-4926
heless	-4927
render	-4928
▁Final	-4929
▁Video	-4930
▁flank	-4931
▁guest	-4932
▁spect	-4933
agement	-4934
▁starts	-4935
▁Develop	-4936
▁convers	-4937
▁landing	-4938
▁restaur	-4939
▁accompan	-4940
▁agricult	-4941
▁sustained	-4942
eer	-4943
ella	-4944
ieut	-4945
uild	-4946
▁Rog	-4947
▁tim	-4948
amese	-4949
ersey	-4950
izing	-4951
ulate	-4952
▁Bost	-4953
▁Gulf	-4954
▁Hart	-4955
▁fung	-4956
▁tact	-4957
▁Among	-4958
▁beaut	-4959
▁dated	-4960
▁delay	-4961
▁rival	-4962
▁strik	-4963
clusion	-4964
▁castle	-4965
▁fought	-4966
▁philos	-4967
ographer	-4968
▁nucleus	-4969
▁Michigan	-4970
▁employed	-4971
▁families	-4972
▁reaction	-4973
▁currently	-4974
▁Vietnamese	-4975
ads	-4976
apt	-4977
ees	-4978
isy	-4979
uge	-4980
▁41	-4981
crib	-4982
▁700	-4983
ambod	-4984
inity	-4985
▁1981	-4986
▁Line	-4987
▁Slam	-4988
▁arms	-4989
▁ends	-4990
▁virt	-4991
ansion	-4992
▁Haven	-4993
▁drive	-4994
▁outer	-4995
▁phase	-4996
▁train	-4997
▁Cambod	-4998
▁budget	-4999
▁rating	-5000
▁supply	-5001
heastern	-5002
▁contained	-5003
▁facilities	-5004
▁frequently	-5005
▁underground	-5006
▁Thunderbirds	-5007
RA	-5008
che	-5009
omy	-5010
▁Op	-5011
▁Ul	-5012
appe	-5013
▁Pho	-5014
▁Sat	-5015
iring	-5016
lines	-5017
▁1939	-5018
▁1942	-5019
▁Anth	-5020
▁Stan	-5021
▁bank	-5022
▁drop	-5023
▁fict	-5024
▁save	-5025
▁tree	-5026
▁unus	-5027
insula	-5028
itable	-5029
▁clean	-5030
▁finds	-5031
▁gradu	-5032
▁trial	-5033
▁Athlet	-5034
▁Oxford	-5035
▁actors	-5036
▁allows	-5037
▁bottom	-5038
▁degree	-5039
▁reform	-5040
▁silver	-5041
▁spring	-5042
▁reflect	-5043
▁Festival	-5044
▁negative	-5045
▁collected	-5046
▁executive	-5047
▁contributed	-5048
▁Gi	-5049
amic	-5050
aved	-5051
illo	-5052
rain	-5053
yond	-5054
▁Che	-5055
▁Den	-5056
▁Les	-5057
▁NBA	-5058
▁Naz	-5059
▁USA	-5060
▁sen	-5061
olved	-5062
onent	-5063
orney	-5064
▁1918	-5065
▁Girl	-5066
angers	-5067
▁cited	-5068
▁fresh	-5069
▁opera	-5070
▁Friend	-5071
▁Gordon	-5072
▁beyond	-5073
▁shaped	-5074
standing	-5075
▁Between	-5076
▁Premier	-5077
▁Studios	-5078
▁animals	-5079
ieutenant	-5080
▁computer	-5081
▁entirely	-5082
▁improved	-5083
▁effective	-5084
▁Revolution	-5085
▁subsequent	-5086
▁Entertainment	-5087
asc	-5088
▁54	-5089
alle	-5090
▁130	-5091
▁End	-5092
▁Sha	-5093
▁bow	-5094
▁mob	-5095
▁1969	-5096
▁Work	-5097
▁gain	-5098
ashion	-5099
ushing	-5100
▁Coast	-5101
▁Crazy	-5102
▁Lewis	-5103
▁Today	-5104
▁draft	-5105
▁gives	-5106
▁Boston	-5107
▁Muslim	-5108
▁Turner	-5109
▁simple	-5110
▁express	-5111
▁finding	-5112
▁medical	-5113
▁notable	-5114
▁recently	-5115
▁extensive	-5116
▁gradually	-5117
▁kilometres	-5118
cy	-5119
azz	-5120
sea	-5121
▁57	-5122
thur	-5123
▁179	-5124
▁Obs	-5125
▁Pen	-5126
▁egg	-5127
ansas	-5128
ocked	-5129
▁1968	-5130
▁1975	-5131
▁Chel	-5132
▁Gard	-5133
▁Jain	-5134
iments	-5135
ropium	-5136
▁Boise	-5137
▁Mario	-5138
▁dates	-5139
▁People	-5140
▁finals	-5141
▁severe	-5142
▁stages	-5143
▁Russian	-5144
▁serving	-5145
▁antimony	-5146
▁expanded	-5147
▁programs	-5148
▁secondary	-5149
cel	-5150
▁Kn	-5151
rong	-5152
unte	-5153
▁800	-5154
▁Der	-5155
▁Jes	-5156
▁Leg	-5157
▁bit	-5158
▁ham	-5159
ishes	-5160
stead	-5161
▁1965	-5162
▁1974	-5163
▁Cold	-5164
▁Rail	-5165
▁Turk	-5166
▁Upon	-5167
▁boat	-5168
▁tail	-5169
▁Evita	-5170
▁camer	-5171
▁comes	-5172
▁corre	-5173
▁items	-5174
▁occas	-5175
▁Democr	-5176
▁Martin	-5177
▁System	-5178
▁occupied	-5179
▁centuries	-5180
▁composition	-5181
ki	-5182
ero	-5183
udd	-5184
▁So	-5185
▁mo	-5186
berg	-5187
weet	-5188
▁Cre	-5189
▁mig	-5190
▁wed	-5191
rence	-5192
▁Juan	-5193
▁Sund	-5194
▁farm	-5195
▁mush	-5196
▁sole	-5197
ancing	-5198
unicip	-5199
urches	-5200
▁Domin	-5201
▁chair	-5202
▁daily	-5203
▁floor	-5204
▁naval	-5205
iations	-5206
unction	-5207
▁deaths	-5208
▁losses	-5209
▁slowly	-5210
▁decades	-5211
▁Magazine	-5212
▁Commander	-5213
▁criticism	-5214
▁fictional	-5215
▁treatment	-5216
▁experienced	-5217
▁commissioned	-5218
▁successfully	-5219
icc	-5220
kin	-5221
oys	-5222
uli	-5223
ura	-5224
▁Ry	-5225
▁od	-5226
anny	-5227
inem	-5228
▁Bru	-5229
▁Key	-5230
▁row	-5231
aming	-5232
▁Cole	-5233
▁Greg	-5234
▁Jurc	-5235
▁Rome	-5236
▁dial	-5237
▁didn	-5238
▁myth	-5239
▁trou	-5240
▁MacLe	-5241
▁Songs	-5242
▁Stone	-5243
▁faith	-5244
▁squad	-5245
▁Avenue	-5246
▁Bridge	-5247
▁Daniel	-5248
▁policy	-5249
▁engaged	-5250
▁sentence	-5251
▁personnel	-5252
▁purchased	-5253
▁independence	-5254
TC	-5255
hat	-5256
ket	-5257
▁96	-5258
▁ec	-5259
hess	-5260
iced	-5261
yson	-5262
▁Fox	-5263
▁Kir	-5264
▁unp	-5265
▁bass	-5266
▁coal	-5267
▁cool	-5268
▁Brian	-5269
▁Jamal	-5270
▁begun	-5271
▁negot	-5272
ategory	-5273
▁chorus	-5274
▁prefer	-5275
▁propos	-5276
▁sports	-5277
▁visual	-5278
▁briefly	-5279
▁captain	-5280
▁reasons	-5281
▁District	-5282
▁Tennyson	-5283
▁challeng	-5284
▁concrete	-5285
▁declined	-5286
▁protagon	-5287
▁southwest	-5288
▁worldwide	-5289
▁Throughout	-5290
lys	-5291
▁73	-5292
▁95	-5293
▁Do	-5294
▁NH	-5295
▁UN	-5296
▁164	-5297
▁Alf	-5298
▁eas	-5299
▁fat	-5300
ublin	-5301
▁1946	-5302
▁Bart	-5303
▁Isab	-5304
▁Prov	-5305
▁Vill	-5306
▁flag	-5307
▁note	-5308
lywood	-5309
perial	-5310
▁Crown	-5311
▁beach	-5312
▁drawn	-5313
▁moves	-5314
▁roads	-5315
▁Dublin	-5316
▁concer	-5317
▁escape	-5318
▁exclus	-5319
ccessful	-5320
▁Science	-5321
▁nothing	-5322
▁organiz	-5323
▁importance	-5324
bl	-5325
▁Id	-5326
▁Ka	-5327
aret	-5328
fort	-5329
▁Cub	-5330
▁Liu	-5331
▁Mic	-5332
▁arc	-5333
▁fur	-5334
▁hyd	-5335
chers	-5336
▁1919	-5337
▁1952	-5338
▁1966	-5339
▁Also	-5340
▁Barb	-5341
▁Head	-5342
▁calc	-5343
▁firm	-5344
▁tend	-5345
▁unsu	-5346
iences	-5347
▁Liber	-5348
▁hired	-5349
borough	-5350
▁Simone	-5351
▁decade	-5352
▁elimin	-5353
▁favour	-5354
▁street	-5355
▁Project	-5356
▁arrival	-5357
▁billion	-5358
▁chapter	-5359
▁enjoyed	-5360
▁longest	-5361
▁witness	-5362
▁worship	-5363
▁incident	-5364
▁paintings	-5365
▁responded	-5366
▁Production	-5367
▁foundation	-5368
▁accompanied	-5369
▁possibility	-5370
▁participated	-5371
acu	-5372
iro	-5373
▁61	-5374
▁97	-5375
▁Hy	-5376
▁Ll	-5377
apes	-5378
ayer	-5379
izes	-5380
rang	-5381
▁177	-5382
▁Bas	-5383
▁Dun	-5384
▁Ell	-5385
▁Igu	-5386
▁flu	-5387
▁gas	-5388
▁nor	-5389
▁pul	-5390
iance	-5391
▁1936	-5392
▁Kang	-5393
▁Prot	-5394
▁glob	-5395
▁mist	-5396
▁neck	-5397
▁tall	-5398
▁Chart	-5399
▁guard	-5400
▁heard	-5401
▁labor	-5402
▁stret	-5403
▁theat	-5404
▁wides	-5405
▁Family	-5406
▁Temple	-5407
▁applic	-5408
▁normal	-5409
▁oldest	-5410
▁owners	-5411
▁senior	-5412
▁MacLeod	-5413
▁roughly	-5414
▁setting	-5415
▁Governor	-5416
▁platform	-5417
▁agreement	-5418
▁developing	-5419
ls	-5420
▁CD	-5421
▁Cy	-5422
▁GA	-5423
▁Lu	-5424
alls	-5425
▁Ali	-5426
▁Ret	-5427
▁Ron	-5428
▁hor	-5429
chest	-5430
iable	-5431
pread	-5432
quake	-5433
▁Area	-5434
▁Band	-5435
▁Five	-5436
▁Ulys	-5437
▁acad	-5438
▁remn	-5439
▁skin	-5440
▁trip	-5441
▁vert	-5442
▁Admir	-5443
▁Board	-5444
▁Dougl	-5445
▁green	-5446
▁Chains	-5447
▁adding	-5448
▁choice	-5449
▁dollar	-5450
▁lasted	-5451
▁poetry	-5452
▁Anthony	-5453
▁Instead	-5454
▁Turkish	-5455
▁Ulysses	-5456
▁Francisc	-5457
▁accident	-5458
▁athletes	-5459
▁consists	-5460
▁violence	-5461
▁dominated	-5462
▁existence	-5463
▁regarding	-5464
▁technology	-5465
▁Development	-5466
▁combination	-5467
▁populations	-5468
rem	-5469
▁sn	-5470
adow	-5471
ager	-5472
iday	-5473
usal	-5474
▁Aer	-5475
▁Isl	-5476
▁Mem	-5477
▁Mod	-5478
▁Mur	-5479
▁Sus	-5480
▁eth	-5481
antly	-5482
istan	-5483
▁1967	-5484
▁1973	-5485
▁Baby	-5486
▁isol	-5487
▁Maria	-5488
▁acres	-5489
▁calls	-5490
▁clubs	-5491
▁comic	-5492
▁spons	-5493
▁resear	-5494
▁reserv	-5495
▁Theatre	-5496
▁applied	-5497
▁closely	-5498
▁college	-5499
▁filming	-5500
▁habitat	-5501
▁existing	-5502
▁weakened	-5503
▁committee	-5504
▁performing	-5505
▁association	-5506
▁competitions	-5507
▁unsuccessful	-5508
eda	-5509
iot	-5510
▁62	-5511
aser	-5512
come	-5513
resp	-5514
▁110	-5515
▁Mov	-5516
▁aer	-5517
isers	-5518
▁1914	-5519
▁Team	-5520
▁Iguan	-5521
▁Phill	-5522
▁altar	-5523
▁benef	-5524
▁decre	-5525
▁overl	-5526
▁pilot	-5527
▁tells	-5528
▁appeal	-5529
▁serves	-5530
▁submar	-5531
▁undert	-5532
▁capable	-5533
▁derived	-5534
▁details	-5535
▁greatly	-5536
▁learned	-5537
▁neither	-5538
▁perhaps	-5539
▁purpose	-5540
▁transit	-5541
▁ceremony	-5542
▁distingu	-5543
▁painting	-5544
▁provides	-5545
▁reinforce	-5546
▁battalions	-5547
▁opportunity	-5548
▁occasionally	-5549
▁administration	-5550
▁archaeological	-5551
era	-5552
rum	-5553
set	-5554
▁85	-5555
aton	-5556
aver	-5557
bean	-5558
opes	-5559
▁AML	-5560
pring	-5561
▁Braz	-5562
▁Marl	-5563
▁ones	-5564
▁seat	-5565
▁sort	-5566
ection	-5567
ibbean	-5568
▁Aston	-5569
▁dance	-5570
▁thing	-5571
▁towns	-5572
▁Albert	-5573
▁Bishop	-5574
▁bought	-5575
▁editor	-5576
▁fellow	-5577
▁filled	-5578
▁headed	-5579
▁survey	-5580
▁Chelsea	-5581
▁Douglas	-5582
▁contrib	-5583
▁descend	-5584
▁innings	-5585
▁invited	-5586
▁paralle	-5587
▁reconst	-5588
▁Mountain	-5589
▁churches	-5590
▁speaking	-5591
▁supposed	-5592
▁vehicles	-5593
▁Anonymous	-5594
▁Caribbean	-5595
▁encounter	-5596
▁receiving	-5597
▁storyline	-5598
▁technique	-5599
▁dissipated	-5600
▁sufficient	-5601
ato	-5602
erc	-5603
vis	-5604
▁71	-5605
▁ut	-5606
ules	-5607
▁ERA	-5608
▁Gab	-5609
▁Men	-5610
▁seg	-5611
▁som	-5612
▁ton	-5613
ichol	-5614
inner	-5615
▁1945	-5616
▁1971	-5617
▁Asia	-5618
▁Dota	-5619
▁Kenn	-5620
▁Life	-5621
▁Stew	-5622
▁door	-5623
▁drew	-5624
▁goes	-5625
▁plum	-5626
▁About	-5627
▁Georg	-5628
▁drama	-5629
pective	-5630
ructure	-5631
▁astron	-5632
▁basket	-5633
▁branch	-5634
▁depict	-5635
▁symbol	-5636
▁viewed	-5637
ographic	-5638
▁Hornung	-5639
▁accompl	-5640
▁fashion	-5641
▁islands	-5642
▁massive	-5643
▁receive	-5644
▁stopped	-5645
▁typical	-5646
▁Cardinal	-5647
▁anything	-5648
▁survived	-5649
▁Lieutenant	-5650
▁classified	-5651
▁widespread	-5652
▁Constantine	-5653
hu	-5654
amy	-5655
win	-5656
▁59	-5657
▁eu	-5658
ruli	-5659
▁Age	-5660
▁MTV	-5661
▁Ode	-5662
▁Rod	-5663
▁Rol	-5664
▁aim	-5665
▁rif	-5666
▁why	-5667
arian	-5668
lying	-5669
usted	-5670
uting	-5671
▁1982	-5672
▁Leon	-5673
▁Step	-5674
▁What	-5675
▁acid	-5676
▁crop	-5677
▁poly	-5678
▁quot	-5679
▁ring	-5680
▁sail	-5681
▁synt	-5682
ibrary	-5683
▁Const	-5684
▁Maeda	-5685
▁Perry	-5686
▁truth	-5687
ountain	-5688
▁Hibari	-5689
▁Summer	-5690
▁assass	-5691
▁motion	-5692
▁safety	-5693
▁shared	-5694
▁trying	-5695
ications	-5696
▁Fantasy	-5697
▁authors	-5698
▁digital	-5699
▁flights	-5700
▁missing	-5701
▁acquired	-5702
▁district	-5703
▁repeated	-5704
▁settlers	-5705
▁converted	-5706
▁household	-5707
▁southeast	-5708
▁protection	-5709
ala	-5710
ati	-5711
ips	-5712
pty	-5713
▁Ur	-5714
▁ha	-5715
agle	-5716
gend	-5717
rait	-5718
▁160	-5719
▁Ari	-5720
▁Fre	-5721
▁Ing	-5722
▁Jud	-5723
▁Tra	-5724
▁Wat	-5725
essed	-5726
idges	-5727
iston	-5728
▁1913	-5729
▁1916	-5730
▁1976	-5731
▁Bond	-5732
▁Bull	-5733
▁Oslo	-5734
▁Stev	-5735
▁roof	-5736
glades	-5737
▁Brook	-5738
▁Qedar	-5739
▁Radio	-5740
▁evacu	-5741
▁turns	-5742
issance	-5743
utation	-5744
▁Golden	-5745
▁Romani	-5746
▁finish	-5747
▁routes	-5748
entially	-5749
▁Shortly	-5750
▁Stadium	-5751
▁focused	-5752
▁funding	-5753
▁holding	-5754
▁opinion	-5755
▁watched	-5756
▁wedding	-5757
▁Georgian	-5758
▁arranged	-5759
▁baseball	-5760
▁depicted	-5761
▁planning	-5762
▁substant	-5763
▁locations	-5764
▁permanent	-5765
▁succeeded	-5766
▁atmosphere	-5767
▁experiment	-5768
VN	-5769
▁i	-5770
inn	-5771
tty	-5772
▁72	-5773
iege	-5774
pson	-5775
▁175	-5776
▁Moz	-5777
▁Rio	-5778
▁Row	-5779
▁Tim	-5780
▁bul	-5781
▁cho	-5782
▁dub	-5783
▁ign	-5784
▁opt	-5785
acity	-5786
hetic	-5787
▁1943	-5788
▁1956	-5789
▁bowl	-5790
▁fuel	-5791
▁knew	-5792
bridge	-5793
▁Jones	-5794
▁Simon	-5795
▁exact	-5796
▁initi	-5797
respond	-5798
▁Allied	-5799
▁Brazil	-5800
▁Freder	-5801
▁chance	-5802
▁channel	-5803
▁creator	-5804
▁decline	-5805
▁defined	-5806
▁penalty	-5807
▁reality	-5808
▁spacing	-5809
▁credited	-5810
▁resident	-5811
ifications	-5812
▁providing	-5813
▁correspond	-5814
GN	-5815
eed	-5816
▁Oh	-5817
indu	-5818
okes	-5819
▁112	-5820
▁250	-5821
▁IGN	-5822
▁mic	-5823
idden	-5824
▁1963	-5825
▁Arts	-5826
▁grav	-5827
▁indu	-5828
▁laws	-5829
▁rich	-5830
▁tied	-5831
▁ways	-5832
▁wins	-5833
ivered	-5834
▁Haiti	-5835
▁Hindu	-5836
▁Phoen	-5837
▁Venus	-5838
▁glass	-5839
▁heads	-5840
▁inner	-5841
▁pregn	-5842
stances	-5843
▁assemb	-5844
▁dating	-5845
▁downlo	-5846
▁explos	-5847
▁Rangers	-5848
▁airport	-5849
▁charter	-5850
▁renamed	-5851
▁supplies	-5852
▁Iguanodon	-5853
▁Secretary	-5854
▁delivered	-5855
▁separated	-5856
▁thousands	-5857
▁Additionally	-5858
ux	-5859
cki	-5860
isf	-5861
uan	-5862
▁81	-5863
▁94	-5864
▁Bh	-5865
agre	-5866
anda	-5867
iece	-5868
outs	-5869
rupt	-5870
▁Ast	-5871
▁Luc	-5872
▁Run	-5873
▁UTC	-5874
▁cit	-5875
▁ice	-5876
▁rac	-5877
▁Lenn	-5878
▁eyes	-5879
▁jack	-5880
▁rose	-5881
estone	-5882
inated	-5883
▁Broad	-5884
▁Gully	-5885
▁Homer	-5886
▁rural	-5887
▁split	-5888
uilding	-5889
▁Sunday	-5890
▁inspir	-5891
▁overse	-5892
▁regime	-5893
▁secure	-5894
▁Friends	-5895
▁Similar	-5896
▁Stevens	-5897
▁emperor	-5898
▁turning	-5899
▁Morrison	-5900
▁indicate	-5901
▁teaching	-5902
▁Alexander	-5903
▁Committee	-5904
▁certified	-5905
▁commanded	-5906
▁remainder	-5907
▁Everglades	-5908
▁consisting	-5909
▁earthquake	-5910
▁instrument	-5911
▁opposition	-5912
▁Australians	-5913
BS	-5914
RE	-5915
gé	-5916
ky	-5917
awa	-5918
rug	-5919
▁77	-5920
▁Ly	-5921
itan	-5922
pany	-5923
rons	-5924
▁176	-5925
▁Gre	-5926
▁dog	-5927
▁eld	-5928
▁hat	-5929
jillo	-5930
▁1953	-5931
▁1978	-5932
▁Gang	-5933
▁Pers	-5934
▁drug	-5935
▁wick	-5936
▁Dream	-5937
▁aware	-5938
▁noisy	-5939
▁quite	-5940
▁urban	-5941
igation	-5942
▁Archae	-5943
▁Marine	-5944
▁Native	-5945
▁affect	-5946
▁colour	-5947
▁courts	-5948
▁occurs	-5949
▁powers	-5950
▁valley	-5951
ologists	-5952
▁Montana	-5953
▁address	-5954
▁economy	-5955
▁journey	-5956
▁Bradford	-5957
▁Columbia	-5958
▁Critical	-5959
▁Director	-5960
▁Trujillo	-5961
▁attached	-5962
▁Hollywood	-5963
▁highlight	-5964
▁surrender	-5965
▁technical	-5966
▁assistance	-5967
▁references	-5968
▁revolution	-5969
▁establishment	-5970
ela	-5971
lik	-5972
aked	-5973
ippi	-5974
▁Cle	-5975
▁Han	-5976
▁Sap	-5977
▁dry	-5978
▁lin	-5979
▁pet	-5980
apers	-5981
ilton	-5982
▁Alan	-5983
▁Bern	-5984
▁Gram	-5985
▁Holy	-5986
▁Patt	-5987
ewhere	-5988
ighter	-5989
▁leads	-5990
▁table	-5991
▁views	-5992
inosaur	-5993
issippi	-5994
ivalent	-5995
ressive	-5996
▁Office	-5997
▁Walter	-5998
▁denied	-5999
▁leaves	-6000
▁resist	-6001
▁surviv	-6002
▁Charlie	-6003
▁adapted	-6004
▁disturb	-6005
▁methods	-6006
▁studied	-6007
▁Croatian	-6008
▁Maryland	-6009
▁interior	-6010
▁missions	-6011
▁shooting	-6012
▁finishing	-6013
▁portrayed	-6014
▁producing	-6015
▁successor	-6016
▁reputation	-6017
▁strengthen	-6018
▁Mississippi	-6019
▁distribution	-6020
sey	-6021
ych	-6022
andy	-6023
ardo	-6024
bles	-6025
ider	-6026
rier	-6027
ture	-6028
▁Adv	-6029
▁Bur	-6030
▁Kil	-6031
▁Low	-6032
▁Rel	-6033
▁rob	-6034
▁rub	-6035
▁sle	-6036
▁sud	-6037
▁upd	-6038
agues	-6039
▁1915	-6040
▁Down	-6041
▁Wind	-6042
▁kits	-6043
▁lane	-6044
▁prey	-6045
ifying	-6046
▁Roxas	-6047
▁camps	-6048
▁crime	-6049
▁entry	-6050
▁immig	-6051
▁worst	-6052
uration	-6053
▁Arthur	-6054
▁Samuel	-6055
▁Within	-6056
▁Chronic	-6057
▁getting	-6058
▁offense	-6059
▁Engineer	-6060
▁entering	-6061
▁gameplay	-6062
▁maintain	-6063
▁politics	-6064
▁Recording	-6065
▁dismissed	-6066
▁protected	-6067
▁Activision	-6068
▁characteristics	-6069
OT	-6070
SB	-6071
hi	-6072
ipl	-6073
osa	-6074
▁98	-6075
born	-6076
ells	-6077
ette	-6078
kins	-6079
▁Edu	-6080
▁Hon	-6081
▁Hug	-6082
▁Jay	-6083
▁Mul	-6084
▁Sub	-6085
▁von	-6086
ropri	-6087
senal	-6088
▁puzz	-6089
▁Ridge	-6090
▁basin	-6091
▁crown	-6092
▁exerc	-6093
▁holds	-6094
▁knots	-6095
▁Howard	-6096
▁charts	-6097
▁franch	-6098
▁noting	-6099
▁novels	-6100
▁stones	-6101
▁charges	-6102
▁classes	-6103
▁dollars	-6104
▁monarch	-6105
▁replace	-6106
▁capacity	-6107
▁monument	-6108
▁mushroom	-6109
▁discussed	-6110
▁attributed	-6111
▁interested	-6112
▁intelligence	-6113
▁introduction	-6114
ao	-6115
oba	-6116
var	-6117
▁66	-6118
▁ML	-6119
ador	-6120
elve	-6121
enge	-6122
town	-6123
▁DNA	-6124
▁Dar	-6125
▁NBC	-6126
▁cab	-6127
▁die	-6128
▁lic	-6129
▁pal	-6130
▁vic	-6131
ecess	-6132
icial	-6133
ivity	-6134
opher	-6135
▁1890	-6136
▁1917	-6137
▁1948	-6138
▁Pope	-6139
▁Stef	-6140
▁Wall	-6141
▁baby	-6142
▁mort	-6143
▁vary	-6144
ameter	-6145
offman	-6146
orters	-6147
ources	-6148
▁Danny	-6149
▁Marsh	-6150
▁Plunk	-6151
▁Sound	-6152
▁agent	-6153
▁pound	-6154
▁ruled	-6155
▁rules	-6156
▁worth	-6157
▁Weekly	-6158
▁fields	-6159
▁offers	-6160
▁sector	-6161
▁vision	-6162
▁Calvert	-6163
▁coastal	-6164
▁younger	-6165
▁Industry	-6166
▁Isabella	-6167
▁accounts	-6168
▁electric	-6169
▁historic	-6170
▁medieval	-6171
▁appearing	-6172
▁predecess	-6173
▁publisher	-6174
▁statement	-6175
▁describing	-6176
▁generation	-6177
can	-6178
evo	-6179
ube	-6180
erog	-6181
iful	-6182
mans	-6183
▁Far	-6184
▁Jac	-6185
▁Ray	-6186
▁Vol	-6187
ajevo	-6188
attle	-6189
erted	-6190
itors	-6191
▁1951	-6192
▁1979	-6193
▁Hard	-6194
▁Less	-6195
▁Lisa	-6196
▁Snow	-6197
▁Yank	-6198
▁arts	-6199
▁soil	-6200
▁tomb	-6201
▁zone	-6202
cribed	-6203
intend	-6204
orough	-6205
▁Daily	-6206
▁apart	-6207
▁basic	-6208
▁cinem	-6209
▁conte	-6210
▁moder	-6211
▁ninth	-6212
▁Jersey	-6213
▁caught	-6214
▁desire	-6215
▁expect	-6216
▁plants	-6217
▁rarely	-6218
▁retire	-6219
▁tribes	-6220
angerous	-6221
▁article	-6222
▁forests	-6223
▁someone	-6224
formation	-6225
▁Sarajevo	-6226
▁Victoria	-6227
▁Yankovic	-6228
▁discovery	-6229
▁emotional	-6230
▁exception	-6231
▁difficulty	-6232
▁everything	-6233
▁recognition	-6234
▁considerable	-6235
OC	-6236
cop	-6237
▁Ye	-6238
host	-6239
orer	-6240
rien	-6241
▁Abb	-6242
▁Gil	-6243
▁Top	-6244
▁enl	-6245
▁pup	-6246
ients	-6247
itage	-6248
othes	-6249
▁1954	-6250
▁1961	-6251
▁Earl	-6252
▁Init	-6253
▁bond	-6254
▁doct	-6255
▁shel	-6256
coming	-6257
graded	-6258
igades	-6259
▁Press	-6260
▁conve	-6261
▁hotel	-6262
▁kings	-6263
▁pitch	-6264
▁rhyth	-6265
▁shore	-6266
▁store	-6267
▁Around	-6268
▁Resear	-6269
▁Somali	-6270
▁Strand	-6271
▁chapel	-6272
▁landed	-6273
▁manner	-6274
▁sudden	-6275
▁taught	-6276
▁thirty	-6277
▁wooden	-6278
▁Destiny	-6279
▁Rolling	-6280
▁Stephen	-6281
▁contest	-6282
▁disappe	-6283
▁evening	-6284
▁Clarkson	-6285
▁colonial	-6286
▁Frederick	-6287
▁opponents	-6288
▁nomination	-6289
▁restaurant	-6290
▁involvement	-6291
▁replacement	-6292
▁specifically	-6293
ym	-6294
ena	-6295
▁69	-6296
▁Ho	-6297
nest	-6298
pton	-6299
▁Det	-6300
▁Lee	-6301
▁fan	-6302
ateur	-6303
▁1937	-6304
▁Bono	-6305
▁Fame	-6306
▁Flow	-6307
▁Hell	-6308
▁fair	-6309
▁hope	-6310
▁impr	-6311
▁mine	-6312
▁soft	-6313
cation	-6314
usalem	-6315
▁Anton	-6316
▁Campb	-6317
▁Lords	-6318
▁Order	-6319
▁Wilde	-6320
▁accur	-6321
▁poems	-6322
▁Castle	-6323
▁Mozamb	-6324
▁Nether	-6325
▁divine	-6326
▁fungus	-6327
▁picked	-6328
▁wealth	-6329
▁Colonel	-6330
▁Singles	-6331
▁consequ	-6332
▁secured	-6333
▁believes	-6334
▁Francisco	-6335
▁Jerusalem	-6336
▁Television	-6337
▁communities	-6338
▁controversy	-6339
▁recommended	-6340
▁intersection	-6341
LI	-6342
ys	-6343
ava	-6344
rin	-6345
▁87	-6346
▁Mu	-6347
▁ru	-6348
ifna	-6349
rets	-6350
▁Joe	-6351
▁Tel	-6352
▁lov	-6353
▁van	-6354
eenth	-6355
itled	-6356
named	-6357
psons	-6358
reets	-6359
▁Duke	-6360
▁Eliz	-6361
▁Fish	-6362
▁Skye	-6363
▁legs	-6364
▁pros	-6365
ingale	-6366
remely	-6367
ultane	-6368
▁Jifna	-6369
▁Santa	-6370
▁faces	-6371
▁joint	-6372
▁releg	-6373
rations	-6374
theless	-6375
▁Master	-6376
▁launch	-6377
▁missed	-6378
unicipal	-6379
▁Roberts	-6380
▁appoint	-6381
▁drawing	-6382
▁scholar	-6383
▁signing	-6384
▁volunte	-6385
▁whereas	-6386
▁Hamilton	-6387
▁Military	-6388
▁Simpsons	-6389
▁concerns	-6390
▁Argentina	-6391
▁extremely	-6392
▁principal	-6393
▁specimens	-6394
▁standards	-6395
▁leadership	-6396
▁organizations	-6397
uma	-6398
▁Bi	-6399
▁Ré	-6400
aire	-6401
aska	-6402
avia	-6403
nell	-6404
▁Dis	-6405
▁Dom	-6406
▁Rif	-6407
Brien	-6408
amber	-6409
osure	-6410
ureau	-6411
▁1955	-6412
▁1958	-6413
▁Here	-6414
▁Marc	-6415
▁Walk	-6416
▁Wars	-6417
▁card	-6418
▁jazz	-6419
atures	-6420
ceived	-6421
engers	-6422
ranean	-6423
wealth	-6424
▁Adams	-6425
▁Prime	-6426
▁Track	-6427
▁teeth	-6428
▁tries	-6429
▁youth	-6430
▁commit	-6431
▁speech	-6432
▁stream	-6433
▁treaty	-6434
▁Writing	-6435
▁emerged	-6436
▁existed	-6437
▁parties	-6438
▁session	-6439
▁showing	-6440
▁Olympics	-6441
▁chemical	-6442
▁diameter	-6443
▁europium	-6444
▁partners	-6445
▁Transport	-6446
▁approached	-6447
▁conference	-6448
▁connection	-6449
▁surrounded	-6450
▁threatened	-6451
▁distributed	-6452
▁relationships	-6453
30	-6454
ét	-6455
add	-6456
▁Wi	-6457
▁Wy	-6458
edom	-6459
wise	-6460
▁Cop	-6461
▁Yan	-6462
▁gal	-6463
▁lbw	-6464
acent	-6465
alent	-6466
ideos	-6467
istol	-6468
▁1900	-6469
▁1949	-6470
▁1977	-6471
▁Cory	-6472
▁Fire	-6473
▁Plot	-6474
▁hill	-6475
▁pack	-6476
▁page	-6477
▁stem	-6478
▁Banai	-6479
▁Beach	-6480
▁alien	-6481
▁hoped	-6482
▁solid	-6483
▁wants	-6484
▁wrong	-6485
▁Carter	-6486
▁Forces	-6487
▁Modern	-6488
▁Spring	-6489
▁disapp	-6490
▁discip	-6491
▁facing	-6492
▁firing	-6493
▁seeing	-6494
▁conduct	-6495
▁crossed	-6496
▁product	-6497
▁railway	-6498
▁ratings	-6499
▁strateg	-6500
▁synthes	-6501
▁unusual	-6502
▁favorite	-6503
▁isolated	-6504
▁immediate	-6505
▁regularly	-6506
▁Depression	-6507
▁expedition	-6508
▁historians	-6509
▁Independent	-6510
▁alternative	-6511
▁documentary	-6512
▁institutions	-6513
ez	-6514
gie	-6515
ipe	-6516
▁79	-6517
▁Ca	-6518
▁DA	-6519
▁WW	-6520
oked	-6521
ooth	-6522
usad	-6523
▁121	-6524
▁Fel	-6525
▁Mot	-6526
▁bes	-6527
▁sym	-6528
abeth	-6529
inals	-6530
ombat	-6531
▁Ryan	-6532
▁cold	-6533
▁leuk	-6534
▁soul	-6535
▁warm	-6536
▁Hergé	-6537
▁Roger	-6538
▁demol	-6539
▁motor	-6540
▁owner	-6541
▁scrap	-6542
▁shark	-6543
▁veget	-6544
entions	-6545
ossible	-6546
▁Kilmer	-6547
▁Lennon	-6548
▁Norman	-6549
▁Unlike	-6550
▁bright	-6551
▁detail	-6552
▁duties	-6553
▁inland	-6554
▁sequel	-6555
iversary	-6556
▁assumed	-6557
▁message	-6558
▁partial	-6559
▁pointed	-6560
▁treated	-6561
▁admitted	-6562
▁breaking	-6563
▁bringing	-6564
▁changing	-6565
▁examples	-6566
▁literary	-6567
▁protests	-6568
▁regional	-6569
▁reviewer	-6570
▁strongly	-6571
▁expansion	-6572
▁franchise	-6573
▁languages	-6574
▁watershed	-6575
▁destroyers	-6576
▁anniversary	-6577
▁designation	-6578
▁protagonist	-6579
dal	-6580
gas	-6581
ibl	-6582
▁AR	-6583
atus	-6584
imet	-6585
owie	-6586
real	-6587
▁BCE	-6588
▁Cat	-6589
▁Kat	-6590
▁Kel	-6591
▁Nap	-6592
▁bat	-6593
▁ske	-6594
▁tra	-6595
ingly	-6596
ledon	-6597
onica	-6598
osite	-6599
union	-6600
▁1983	-6601
▁Iron	-6602
▁Wimb	-6603
▁aged	-6604
▁eggs	-6605
▁fish	-6606
▁harm	-6607
▁outf	-6608
friend	-6609
▁Chief	-6610
▁Human	-6611
▁absor	-6612
▁genre	-6613
▁indig	-6614
▁marks	-6615
▁meets	-6616
▁overw	-6617
▁ancest	-6618
▁circum	-6619
▁consum	-6620
▁easily	-6621
▁eighth	-6622
▁rescue	-6623
▁winner	-6624
▁Georgia	-6625
▁Goffman	-6626
▁Janeiro	-6627
▁Saprang	-6628
▁airline	-6629
▁improve	-6630
▁orchest	-6631
▁retreat	-6632
▁stadium	-6633
▁wearing	-6634
▁Research	-6635
▁academic	-6636
▁approved	-6637
▁champion	-6638
▁detailed	-6639
▁minister	-6640
▁sections	-6641
▁specimen	-6642
▁Wimbledon	-6643
▁attracted	-6644
▁indicated	-6645
▁intention	-6646
▁completion	-6647
▁department	-6648
▁engineering	-6649
adu	-6650
arp	-6651
aug	-6652
aws	-6653
och	-6654
rab	-6655
war	-6656
▁AD	-6657
▁IV	-6658
▁ur	-6659
iour	-6660
know	-6661
▁Dev	-6662
▁Mid	-6663
▁emp	-6664
▁lap	-6665
▁sun	-6666
▁tie	-6667
allow	-6668
ensus	-6669
ician	-6670
ockey	-6671
oking	-6672
orous	-6673
pping	-6674
▁Bank	-6675
▁Base	-6676
▁Jean	-6677
▁Trib	-6678
▁coup	-6679
aments	-6680
▁Burns	-6681
▁Color	-6682
▁Third	-6683
▁citiz	-6684
▁coord	-6685
▁happy	-6686
▁trail	-6687
istered	-6688
ogether	-6689
▁Hearts	-6690
▁Lawton	-6691
▁Person	-6692
▁Square	-6693
▁acknow	-6694
▁gather	-6695
▁looked	-6696
▁Somalia	-6697
▁Station	-6698
▁accused	-6699
▁feeling	-6700
▁reading	-6701
▁settled	-6702
▁adjacent	-6703
▁civilian	-6704
▁terminus	-6705
▁traveled	-6706
▁Cambridge	-6707
▁assistant	-6708
▁challenge	-6709
▁practices	-6710
▁surviving	-6711
▁Richardson	-6712
▁attempting	-6713
▁encouraged	-6714
▁effectively	-6715
▁territories	-6716
▁constitution	-6717
amm	-6718
ban	-6719
bur	-6720
eor	-6721
mod	-6722
nie	-6723
ona	-6724
thy	-6725
▁91	-6726
▁99	-6727
▁Si	-6728
▁ib	-6729
body	-6730
▁Bul	-6731
▁Sav	-6732
▁Win	-6733
▁bal	-6734
▁fer	-6735
▁mut	-6736
break	-6737
ewhat	-6738
▁1880	-6739
▁1909	-6740
▁Garc	-6741
▁Hung	-6742
▁dock	-6743
▁evil	-6744
▁grey	-6745
▁nick	-6746
▁sell	-6747
▁thin	-6748
illing	-6749
▁Jesus	-6750
▁armor	-6751
▁crest	-6752
▁decor	-6753
▁multi	-6754
▁races	-6755
▁recre	-6756
▁shots	-6757
▁Gerard	-6758
▁Kombat	-6759
▁Mortal	-6760
▁Rhodes	-6761
▁Territ	-6762
▁carbon	-6763
▁convoy	-6764
▁muscar	-6765
▁partly	-6766
▁preced	-6767
▁seemed	-6768
▁stands	-6769
▁streak	-6770
▁towers	-6771
▁underw	-6772
▁videos	-6773
▁Admiral	-6774
▁Aniston	-6775
▁Formula	-6776
▁Journal	-6777
▁extreme	-6778
▁inhabit	-6779
▁painted	-6780
▁visible	-6781
▁brothers	-6782
▁identity	-6783
▁obtained	-6784
▁recalled	-6785
▁romantic	-6786
▁somewhat	-6787
▁starling	-6788
▁candidate	-6789
▁compounds	-6790
▁recovered	-6791
▁possession	-6792
▁scientific	-6793
▁arrangement	-6794
▁inspiration	-6795
▁interchange	-6796
▁Commonwealth	-6797
▁agricultural	-6798
▁88	-6799
isis	-6800
umps	-6801
▁Guy	-6802
▁Ros	-6803
▁san	-6804
achus	-6805
ennis	-6806
ivals	-6807
▁1910	-6808
▁1931	-6809
▁1935	-6810
▁Fern	-6811
▁Test	-6812
▁acts	-6813
▁fled	-6814
▁gall	-6815
▁hear	-6816
▁hits	-6817
▁shif	-6818
▁tone	-6819
▁Every	-6820
▁Keamy	-6821
▁Power	-6822
▁Tower	-6823
▁catch	-6824
▁cloud	-6825
▁cycle	-6826
▁equal	-6827
▁funds	-6828
▁maint	-6829
▁ocean	-6830
▁teach	-6831
▁verse	-6832
▁Arabic	-6833
▁Fraser	-6834
▁Poland	-6835
▁convin	-6836
▁estate	-6837
▁hosted	-6838
▁linked	-6839
▁reduce	-6840
▁select	-6841
▁spaces	-6842
▁spirit	-6843
▁Germans	-6844
▁Islands	-6845
▁footage	-6846
▁passage	-6847
▁proceed	-6848
▁theatre	-6849
▁Attorney	-6850
▁relative	-6851
▁implement	-6852
▁preserved	-6853
▁sculpture	-6854
▁suffering	-6855
▁industrial	-6856
how	-6857
sta	-6858
▁CE	-6859
▁Ec	-6860
▁au	-6861
▁ps	-6862
amin	-6863
cape	-6864
dess	-6865
emia	-6866
iary	-6867
illy	-6868
ppet	-6869
rast	-6870
▁Anc	-6871
▁Bos	-6872
▁Exp	-6873
▁FIA	-6874
▁Inc	-6875
▁Jun	-6876
▁Lev	-6877
▁Loc	-6878
▁ere	-6879
▁flo	-6880
▁hip	-6881
▁map	-6882
▁mis	-6883
▁unf	-6884
abled	-6885
going	-6886
itals	-6887
peare	-6888
ropol	-6889
using	-6890
vious	-6891
▁1912	-6892
▁1932	-6893
▁Lanc	-6894
▁Nick	-6895
▁Pine	-6896
▁Rele	-6897
▁Type	-6898
▁Wolf	-6899
▁deck	-6900
▁lear	-6901
▁wars	-6902
▁Hotel	-6903
▁conqu	-6904
▁displ	-6905
▁siege	-6906
attered	-6907
intendo	-6908
sewhere	-6909
▁Coryth	-6910
▁Shakes	-6911
▁adults	-6912
▁blocks	-6913
▁debate	-6914
▁income	-6915
▁legend	-6916
▁medium	-6917
▁serial	-6918
▁stayed	-6919
▁twelve	-6920
▁Marines	-6921
▁chronic	-6922
▁correct	-6923
▁Johnston	-6924
▁Nintendo	-6925
▁composer	-6926
▁defended	-6927
▁download	-6928
▁equipped	-6929
▁learning	-6930
▁opposite	-6931
▁province	-6932
▁sessions	-6933
▁Peninsula	-6934
▁Plunketts	-6935
▁attacking	-6936
▁concerned	-6937
▁expensive	-6938
▁reviewers	-6939
▁basketball	-6940
▁continuing	-6941
▁Shakespeare	-6942
▁circulation	-6943
▁destruction	-6944
▁incorporated	-6945
▁Corythosaurus	-6946
▁controversial	-6947
▁responsibility	-6948
hm	-6949
uri	-6950
xts	-6951
▁Pu	-6952
▁ic	-6953
icts	-6954
onic	-6955
yles	-6956
▁122	-6957
▁Fei	-6958
▁bay	-6959
▁ble	-6960
▁lob	-6961
aware	-6962
▁1921	-6963
▁1929	-6964
▁Fair	-6965
▁Owen	-6966
▁gone	-6967
▁hall	-6968
▁none	-6969
▁pool	-6970
▁pric	-6971
▁spin	-6972
bishop	-6973
inking	-6974
▁Allah	-6975
▁Palmy	-6976
▁Prote	-6977
▁depos	-6978
▁inaug	-6979
▁voted	-6980
ificial	-6981
▁Palace	-6982
▁lowest	-6983
▁patrol	-6984
▁pushed	-6985
▁rebels	-6986
▁ritual	-6987
▁tailed	-6988
▁Patrick	-6989
▁driving	-6990
▁falling	-6991
▁kitsune	-6992
▁promote	-6993
▁proport	-6994
▁reserve	-6995
▁victims	-6996
▁willing	-6997
erogative	-6998
stitution	-6999
▁Lawrence	-7000
▁accommod	-7001
▁crossing	-7002
▁measures	-7003
▁meetings	-7004
▁parallel	-7005
▁remnants	-7006
▁songwrit	-7007
▁throwing	-7008
▁initiative	-7009
▁passengers	-7010
▁Marlborough	-7011
▁Netherlands	-7012
▁Construction	-7013
▁observations	-7014
agn	-7015
bie	-7016
oca	-7017
ycl	-7018
zen	-7019
▁82	-7020
agas	-7021
burg	-7022
hews	-7023
inje	-7024
ogen	-7025
rant	-7026
yard	-7027
▁162	-7028
▁Kar	-7029
arked	-7030
onder	-7031
▁1911	-7032
▁1938	-7033
▁1962	-7034
▁Your	-7035
▁ethn	-7036
▁exha	-7037
▁flat	-7038
▁inte	-7039
anning	-7040
formed	-7041
iminal	-7042
itated	-7043
orious	-7044
▁Geoff	-7045
▁Organ	-7046
▁absol	-7047
▁craft	-7048
▁fixed	-7049
▁gross	-7050
▁hydro	-7051
▁plain	-7052
▁raise	-7053
▁sight	-7054
▁watch	-7055
uscript	-7056
▁Flight	-7057
▁Korean	-7058
▁Player	-7059
▁Queens	-7060
▁global	-7061
▁patron	-7062
▁praise	-7063
▁Emperor	-7064
▁Stefani	-7065
▁acclaim	-7066
▁batsman	-7067
▁objects	-7068
▁pitcher	-7069
▁returns	-7070
▁vessels	-7071
▁Cambodia	-7072
▁Guardian	-7073
▁Hospital	-7074
▁carrying	-7075
▁comments	-7076
▁defences	-7077
▁governor	-7078
▁retained	-7079
▁superior	-7080
▁villages	-7081
▁Elizabeth	-7082
▁biography	-7083
▁classical	-7084
▁involving	-7085
▁musicians	-7086
▁occasions	-7087
▁equivalent	-7088
▁understand	-7089
▁intensified	-7090
▁difficulties	-7091
▁representing	-7092
de	-7093
ka	-7094
▁74	-7095
▁ju	-7096
▁ow	-7097
olay	-7098
▁Cru	-7099
▁Hun	-7100
▁Lab	-7101
▁Our	-7102
▁Pul	-7103
▁cry	-7104
▁fal	-7105
▁orn	-7106
▁ray	-7107
▁sam	-7108
etery	-7109
▁1959	-7110
▁Bert	-7111
▁Chen	-7112
▁Cook	-7113
▁answ	-7114
▁fine	-7115
▁mart	-7116
▁sees	-7117
▁sulf	-7118
iamond	-7119
pecies	-7120
▁Space	-7121
▁Stock	-7122
▁Sweet	-7123
▁alleg	-7124
▁limit	-7125
▁moral	-7126
▁needs	-7127
▁renew	-7128
emetery	-7129
entures	-7130
terbury	-7131
▁Design	-7132
▁Pitman	-7133
▁camera	-7134
▁covers	-7135
▁divers	-7136
▁escort	-7137
▁online	-7138
▁prohib	-7139
▁voiced	-7140
▁Atlanta	-7141
▁Channel	-7142
▁Mediter	-7143
▁Protest	-7144
▁Stanley	-7145
▁collaps	-7146
▁context	-7147
▁goddess	-7148
▁periods	-7149
▁reveals	-7150
▁Phillies	-7151
▁concerts	-7152
▁exchange	-7153
▁purchase	-7154
▁Palestine	-7155
▁accompany	-7156
▁behaviour	-7157
▁committed	-7158
▁defeating	-7159
▁divisions	-7160
▁narrative	-7161
▁preferred	-7162
▁resources	-7163
▁simultane	-7164
▁survivors	-7165
▁Canterbury	-7166
▁influences	-7167
▁Mediterranean	-7168
ahl	-7169
esc	-7170
rel	-7171
rig	-7172
uda	-7173
▁06	-7174
▁07	-7175
▁DC	-7176
▁Di	-7177
elli	-7178
fare	-7179
mine	-7180
ophy	-7181
raph	-7182
uilt	-7183
wich	-7184
▁161	-7185
▁USD	-7186
▁ash	-7187
▁clo	-7188
▁cul	-7189
apped	-7190
atech	-7191
▁Link	-7192
▁Mega	-7193
▁Raff	-7194
▁else	-7195
▁exit	-7196
▁fold	-7197
▁tick	-7198
athers	-7199
ooking	-7200
▁Rugby	-7201
▁Story	-7202
▁agree	-7203
▁doesn	-7204
▁incom	-7205
▁steel	-7206
resents	-7207
▁Aerith	-7208
▁closer	-7209
▁detect	-7210
▁elabor	-7211
▁pupils	-7212
▁refers	-7213
▁rhythm	-7214
▁tribut	-7215
▁Raffles	-7216
▁Special	-7217
▁absence	-7218
▁consult	-7219
▁Athletic	-7220
▁Colorado	-7221
▁arrested	-7222
▁covering	-7223
▁deployed	-7224
▁dialogue	-7225
▁feelings	-7226
▁formally	-7227
▁hundreds	-7228
▁normally	-7229
▁products	-7230
▁proposal	-7231
▁visitors	-7232
▁considers	-7233
▁followers	-7234
▁municipal	-7235
▁operating	-7236
▁criticised	-7237
▁represents	-7238
▁legislation	-7239
▁Championships	-7240
ns	-7241
agu	-7242
eke	-7243
esi	-7244
ras	-7245
▁PA	-7246
▁et	-7247
graf	-7248
isms	-7249
math	-7250
otic	-7251
▁166	-7252
▁Cab	-7253
▁Gib	-7254
▁Joy	-7255
▁Mel	-7256
▁NHL	-7257
▁Now	-7258
▁dim	-7259
▁hyp	-7260
after	-7261
annah	-7262
iders	-7263
organ	-7264
urday	-7265
▁Bark	-7266
▁Bass	-7267
▁Corn	-7268
▁Furt	-7269
▁Late	-7270
▁Real	-7271
▁Usta	-7272
▁Wicc	-7273
▁bone	-7274
▁deem	-7275
▁dens	-7276
▁diet	-7277
▁feed	-7278
▁pure	-7279
▁Along	-7280
▁Labor	-7281
▁Prior	-7282
▁Techn	-7283
▁amino	-7284
▁brick	-7285
▁drums	-7286
▁skull	-7287
▁surpr	-7288
▁Grammy	-7289
▁Mother	-7290
▁ensure	-7291
▁extent	-7292
▁option	-7293
▁poorly	-7294
▁stable	-7295
▁Furtado	-7296
▁classic	-7297
▁forming	-7298
▁infrast	-7299
▁moments	-7300
▁reconna	-7301
▁trading	-7302
▁Imperial	-7303
▁Markgraf	-7304
▁Saturday	-7305
▁displays	-7306
▁internal	-7307
▁Dominican	-7308
▁interpret	-7309
▁stationed	-7310
▁Enterprise	-7311
▁biographer	-7312
▁convection	-7313
▁manuscript	-7314
▁researchers	-7315
▁reconnaissance	-7316
▁reconstruction	-7317
ias	-7318
▁05	-7319
▁89	-7320
▁93	-7321
eman	-7322
eper	-7323
esse	-7324
▁DAG	-7325
▁Dur	-7326
▁Hou	-7327
▁Kit	-7328
▁Tig	-7329
▁swe	-7330
iques	-7331
state	-7332
ullen	-7333
▁Dark	-7334
▁FIFA	-7335
▁Free	-7336
▁Krak	-7337
▁Marg	-7338
▁Sher	-7339
▁Stop	-7340
▁blow	-7341
▁lose	-7342
▁sunk	-7343
encies	-7344
▁Blood	-7345
▁Media	-7346
▁creek	-7347
▁lists	-7348
▁orbit	-7349
▁rugby	-7350
▁saves	-7351
▁verte	-7352
▁wings	-7353
vention	-7354
▁Record	-7355
▁Sholay	-7356
▁driven	-7357
▁memory	-7358
▁posted	-7359
▁useful	-7360
▁Mexican	-7361
▁intense	-7362
▁streets	-7363
▁annually	-7364
▁appropri	-7365
▁dramatic	-7366
▁entitled	-7367
▁injuries	-7368
▁modified	-7369
▁muscaria	-7370
▁overwhel	-7371
▁purposes	-7372
▁withdrew	-7373
▁construct	-7374
▁extension	-7375
▁submarine	-7376
▁transition	-7377
▁influential	-7378
▁prerogative	-7379
▁understanding	-7380
CA	-7381
ds	-7382
ora	-7383
rif	-7384
sch	-7385
uls	-7386
▁63	-7387
axon	-7388
icop	-7389
inet	-7390
lete	-7391
mann	-7392
rell	-7393
rine	-7394
vati	-7395
▁900	-7396
▁Bed	-7397
▁Hob	-7398
▁Hok	-7399
▁Hud	-7400
▁Mah	-7401
▁VII	-7402
▁ago	-7403
▁loy	-7404
▁orb	-7405
▁1928	-7406
▁Bron	-7407
▁Cape	-7408
▁Cult	-7409
▁Hind	-7410
▁Jenn	-7411
▁cong	-7412
▁hang	-7413
▁repr	-7414
▁tank	-7415
▁Front	-7416
▁Treat	-7417
▁ammun	-7418
▁choir	-7419
▁clock	-7420
▁doubt	-7421
▁frame	-7422
▁panel	-7423
▁plane	-7424
▁rated	-7425
▁rates	-7426
▁ridge	-7427
▁saved	-7428
▁spoke	-7429
▁tests	-7430
▁tight	-7431
vements	-7432
▁Maggie	-7433
▁Nichol	-7434
▁Norway	-7435
▁actual	-7436
▁burned	-7437
▁custom	-7438
▁demand	-7439
▁excess	-7440
▁satisf	-7441
restling	-7442
▁Fernand	-7443
▁Israeli	-7444
▁Parvati	-7445
▁crosses	-7446
▁dynasty	-7447
▁engines	-7448
▁factors	-7449
▁helicop	-7450
▁kingdom	-7451
▁picture	-7452
▁readers	-7453
achusetts	-7454
▁Township	-7455
▁chairman	-7456
▁dinosaur	-7457
▁exposure	-7458
▁happened	-7459
▁informed	-7460
▁restrict	-7461
▁severely	-7462
▁shipping	-7463
▁watching	-7464
▁writings	-7465
▁Cathedral	-7466
▁Education	-7467
▁essential	-7468
▁generated	-7469
▁installed	-7470
▁interests	-7471
▁materials	-7472
▁otherwise	-7473
▁ammunition	-7474
▁apparently	-7475
▁journalist	-7476
▁originated	-7477
▁subspecies	-7478
▁suggesting	-7479
▁Massachusetts	-7480
▁circumstances	-7481
▁Sa	-7482
▁Xe	-7483
acle	-7484
ilst	-7485
ntav	-7486
oral	-7487
oven	-7488
▁Cec	-7489
ables	-7490
ateau	-7491
gency	-7492
icate	-7493
rants	-7494
▁1927	-7495
▁Gwen	-7496
▁Hamp	-7497
▁Kann	-7498
▁belt	-7499
▁cart	-7500
▁ille	-7501
▁Found	-7502
▁Guide	-7503
▁chess	-7504
▁latex	-7505
▁layer	-7506
▁ready	-7507
▁recur	-7508
▁relie	-7509
▁Barker	-7510
▁Branch	-7511
▁Corpor	-7512
▁Having	-7513
▁Peters	-7514
▁Sports	-7515
▁Wilson	-7516
▁cancer	-7517
▁carved	-7518
▁causes	-7519
▁citing	-7520
▁eleven	-7521
▁listen	-7522
▁parish	-7523
▁shells	-7524
▁Federal	-7525
▁Kannada	-7526
▁Réunion	-7527
▁Swedish	-7528
▁bombard	-7529
▁burning	-7530
▁climate	-7531
▁jackrab	-7532
▁mixture	-7533
▁operate	-7534
▁survive	-7535
urricanes	-7536
▁Historic	-7537
▁Ministry	-7538
▁Portugal	-7539
▁Richmond	-7540
▁behavior	-7541
▁disaster	-7542
▁festival	-7543
▁generals	-7544
▁overseas	-7545
▁administr	-7546
▁departure	-7547
▁movements	-7548
▁partially	-7549
▁starlings	-7550
▁victories	-7551
▁impossible	-7552
▁resistance	-7553
▁instruments	-7554
▁substantial	-7555
▁transportation	-7556
OK	-7557
ni	-7558
ASA	-7559
aga	-7560
osl	-7561
osm	-7562
pes	-7563
rot	-7564
utz	-7565
aste	-7566
lets	-7567
life	-7568
pent	-7569
quez	-7570
▁Ald	-7571
▁CBS	-7572
▁Int	-7573
▁Ton	-7574
▁Yug	-7575
▁phr	-7576
chang	-7577
heera	-7578
iling	-7579
ithic	-7580
raham	-7581
rquez	-7582
▁1860	-7583
▁1933	-7584
▁Ball	-7585
▁Gary	-7586
▁Howe	-7587
▁Mand	-7588
▁Pass	-7589
▁Pict	-7590
▁loan	-7591
▁shut	-7592
▁wasn	-7593
andoba	-7594
forced	-7595
ricted	-7596
teenth	-7597
▁Eaton	-7598
▁Elect	-7599
▁Patty	-7600
▁Yanke	-7601
▁abund	-7602
▁consc	-7603
▁liber	-7604
▁looks	-7605
▁lover	-7606
▁marry	-7607
▁persu	-7608
▁rooms	-7609
▁spend	-7610
▁Bureau	-7611
▁Police	-7612
▁Yugosl	-7613
▁commem	-7614
▁models	-7615
▁spores	-7616
▁unlike	-7617
▁Masters	-7618
▁Stewart	-7619
▁amateur	-7620
▁bearing	-7621
▁compete	-7622
▁cruiser	-7623
▁listing	-7624
▁temples	-7625
▁tribute	-7626
▁windows	-7627
▁Khandoba	-7628
▁Veronica	-7629
▁instance	-7630
▁resigned	-7631
▁restored	-7632
▁squadron	-7633
▁struggle	-7634
▁thinking	-7635
▁beautiful	-7636
▁dangerous	-7637
▁documents	-7638
▁engineers	-7639
▁premiered	-7640
▁sequences	-7641
▁afterwards	-7642
▁electronic	-7643
▁supporters	-7644
▁techniques	-7645
▁interesting	-7646
▁establishing	-7647
▁opportunities	-7648
DH	-7649
Hg	-7650
MO	-7651
nal	-7652
zac	-7653
▁68	-7654
▁AP	-7655
▁Jr	-7656
LIMO	-7657
iped	-7658
osis	-7659
rene	-7660
roit	-7661
urse	-7662
yria	-7663
▁FRE	-7664
▁Roc	-7665
▁Sis	-7666
▁Tam	-7667
▁eat	-7668
▁tip	-7669
itzer	-7670
otton	-7671
▁1957	-7672
▁Lith	-7673
▁Niel	-7674
▁Soon	-7675
▁Then	-7676
▁fram	-7677
▁gard	-7678
▁heat	-7679
▁inHg	-7680
▁mode	-7681
▁outl	-7682
▁pale	-7683
▁sale	-7684
▁wine	-7685
rorist	-7686
roscop	-7687
uation	-7688
▁Baker	-7689
▁Eagle	-7690
▁Midge	-7691
▁Robin	-7692
▁advis	-7693
▁coins	-7694
▁divor	-7695
▁merch	-7696
▁prove	-7697
▁recru	-7698
▁subst	-7699
ishment	-7700
western	-7701
▁Miller	-7702
▁Mulder	-7703
▁Philip	-7704
▁Wright	-7705
▁storms	-7706
▁vessel	-7707
▁weapon	-7708
atechism	-7709
entional	-7710
▁Detroit	-7711
▁FRELIMO	-7712
▁Jurchen	-7713
▁Justice	-7714
▁Phoenix	-7715
▁achieve	-7716
▁artwork	-7717
▁designs	-7718
▁forcing	-7719
▁minimum	-7720
▁notably	-7721
▁offices	-7722
▁criminal	-7723
▁memorial	-7724
▁musician	-7725
▁neighbor	-7726
▁predomin	-7727
▁remember	-7728
▁situated	-7729
▁thousand	-7730
▁acknowled	-7731
▁adventure	-7732
▁elsewhere	-7733
▁spiritual	-7734
▁Mozambique	-7735
▁properties	-7736
▁recognised	-7737
▁retirement	-7738
▁experiences	-7739
▁interaction	-7740
sp	-7741
aka	-7742
iar	-7743
pus	-7744
▁Sb	-7745
▁Ts	-7746
heme	-7747
leph	-7748
onto	-7749
rows	-7750
ryce	-7751
▁Cob	-7752
▁Ira	-7753
▁Kim	-7754
▁Raj	-7755
▁Who	-7756
icide	-7757
omura	-7758
order	-7759
▁1850	-7760
▁Bath	-7761
▁Bell	-7762
▁Celt	-7763
▁Last	-7764
▁Prog	-7765
▁Rest	-7766
▁Sans	-7767
▁Vice	-7768
▁anek	-7769
▁conj	-7770
▁copy	-7771
▁frig	-7772
▁obst	-7773
▁rect	-7774
▁shop	-7775
▁sons	-7776
▁tiss	-7777
▁vast	-7778
omatic	-7779
pended	-7780
▁Barry	-7781
▁Bulls	-7782
▁Death	-7783
▁Girls	-7784
▁Kevin	-7785
▁Moore	-7786
▁Point	-7787
▁check	-7788
▁costs	-7789
▁giant	-7790
▁psych	-7791
▁tanks	-7792
▁Albums	-7793
▁Hudson	-7794
▁Russia	-7795
▁Scully	-7796
▁Season	-7797
▁agents	-7798
▁attrib	-7799
▁burial	-7800
▁engage	-7801
▁fallen	-7802
▁format	-7803
▁instru	-7804
▁resign	-7805
▁Coleman	-7806
▁Gilbert	-7807
▁Simpson	-7808
▁Toronto	-7809
▁biggest	-7810
▁cleared	-7811
▁delayed	-7812
▁depicts	-7813
▁founder	-7814
▁holiday	-7815
▁starred	-7816
▁trained	-7817
▁vehicle	-7818
▁counties	-7819
▁formerly	-7820
▁fountain	-7821
▁measured	-7822
▁networks	-7823
▁remarked	-7824
▁westward	-7825
▁convinced	-7826
▁depending	-7827
▁objective	-7828
▁programme	-7829
▁radiation	-7830
▁selection	-7831
▁Management	-7832
▁artificial	-7833
▁excavation	-7834
▁photograph	-7835
▁statistics	-7836
▁institution	-7837
▁characterized	-7838
▁infrastructure	-7839
oe	-7840
cru	-7841
mel	-7842
ruz	-7843
▁67	-7844
▁84	-7845
▁86	-7846
amps	-7847
ears	-7848
heim	-7849
hist	-7850
otal	-7851
▁140	-7852
▁Mrs	-7853
▁See	-7854
▁Sid	-7855
▁rum	-7856
▁sed	-7857
akota	-7858
ategy	-7859
hered	-7860
uable	-7861
▁1926	-7862
▁Bang	-7863
▁Benn	-7864
▁Budd	-7865
▁Gate	-7866
▁Gray	-7867
▁RAAF	-7868
▁Roth	-7869
▁Such	-7870
▁horn	-7871
▁impl	-7872
▁mamm	-7873
▁mask	-7874
▁safe	-7875
▁vote	-7876
avalry	-7877
niowie	-7878
▁Canal	-7879
▁Minor	-7880
▁Oscar	-7881
▁crops	-7882
▁dream	-7883
▁union	-7884
eratops	-7885
▁Hokies	-7886
▁Kansas	-7887
▁formal	-7888
▁helmet	-7889
▁render	-7890
▁rivers	-7891
▁skills	-7892
▁styles	-7893
atherine	-7894
▁Journey	-7895
▁Network	-7896
▁Perfect	-7897
▁Persian	-7898
▁benefit	-7899
▁clearly	-7900
▁closest	-7901
▁decides	-7902
▁housing	-7903
▁hunting	-7904
▁playoff	-7905
▁ranging	-7906
criptions	-7907
niowiecki	-7908
▁citizens	-7909
▁claiming	-7910
▁compound	-7911
▁	-7912
e	-7913
t	-7914
a	-7915
n	-7916
o	-7917
i	-7918
r	-7919
s	-7920
h	-7921
d	-7922
l	-7923
c	-7924
u	-7925
m	-7926
f	-7927
g	-7928
p	-7929
w	-7930
y	-7931
b	-7932
,	-7933
.	-7934
v	-7935
@	-7936
k	-7937
1	-7938
T	-7939
0	-7940
A	-7941
=	-7942
"	-7943
S	-7944
C	-7945
2	-7946
I	-7947
M	-7948
'	-7949
9	-7950
B	-7951
-	-7952
H	-7953
x	-7954
P	-7955
R	-7956
D	-7957
F	-7958
)	-7959
(	-7960
W	-7961
N	-7962
L	-7963
G	-7964
3	-7965
5	-7966
8	-7967
J	-7968
O	-7969
E	-7970
4	-7971
6	-7972
7	-7973
z	-7974
j	-7975
q	-7976
U	-7977
K	-7978
V	-7979
;	-7980
–	-7981
:	-7982
Y	-7983
/	-7984
—	-7985
Z	-7986
%	-7987
$	-7988
[	-7989
]	-7990
é	-7991
Q	-7992
X	-7993
&	-7994
!	-7995
