<pad>	0
<unk>	0
<s>	0
</s>	0
▁t	-0
he	-1
▁a	-2
in	-3
▁the	-4
er	-5
on	-6
re	-7
▁s	-8
▁o	-9
▁w	-10
ed	-11
nd	-12
at	-13
or	-14
it	-15
▁c	-16
▁f	-17
en	-18
is	-19
▁of	-20
es	-21
▁b	-22
▁in	-23
ar	-24
an	-25
al	-26
▁and	-27
▁p	-28
ing	-29
as	-30
▁to	-31
▁m	-32
ro	-33
ic	-34
▁d	-35
▁h	-36
ion	-37
ou	-38
le	-39
▁T	-40
▁re	-41
▁=	-42
▁"	-43
▁th	-44
ent	-45
▁A	-46
il	-47
▁S	-48
st	-49
▁l	-50
▁1	-51
om	-52
▁e	-53
▁n	-54
am	-55
el	-56
▁C	-57
▁was	-58
ad	-59
ac	-60
▁The	-61
▁on	-62
▁be	-63
ur	-64
ly	-65
▁'	-66
▁M	-67
▁g	-68
▁I	-69
▁for	-70
iv	-71
▁-	-72
ol	-73
ter	-74
im	-75
id	-76
▁B	-77
ir	-78
▁as	-79
ct	-80
ig	-81
th	-82
ow	-83
ith	-84
▁st	-85
us	-86
▁H	-87
ay	-88
▁that	-89
▁with	-90
▁2	-91
her	-92
ot	-93
ce	-94
ver	-95
ut	-96
ation	-97
et	-98
▁is	-99
▁P	-100
ch	-101
▁wh	-102
▁by	-103
▁R	-104
▁al	-105
▁(	-106
un	-107
▁con	-108
▁F	-109
em	-110
▁D	-111
ul	-112
▁at	-113
▁W	-114
and	-115
▁it	-116
ain	-117
rom	-118
os	-119
▁an	-120
▁19	-121
▁N	-122
ers	-123
▁he	-124
▁G	-125
est	-126
ag	-127
▁L	-128
av	-129
00	-130
▁se	-131
um	-132
▁de	-133
▁J	-134
▁his	-135
▁r	-136
od	-137
▁from	-138
ri	-139
▁O	-140
▁com	-141
pe	-142
▁E	-143
ist	-144
▁pro	-145
if	-146
ere	-147
ld	-148
ort	-149
ies	-150
▁v	-151
res	-152
▁were	-153
ore	-154
▁su	-155
ill	-156
▁In	-157
ap	-158
ew	-159
ong	-160
op	-161
igh	-162
ich	-163
ate	-164
art	-165
all	-166
▁or	-167
ard	-168
ak	-169
▁ch	-170
ber	-171
ame	-172
ab	-173
▁ex	-174
gh	-175
ud	-176
se	-177
▁pl	-178
ated	-179
ant	-180
ity	-181
▁are	-182
rou	-183
oc	-184
ive	-185
ess	-186
qu	-187
▁sh	-188
▁had	-189
▁k	-190
ack	-191
▁which	-192
red	-193
▁U	-194
▁y	-195
▁le	-196
ov	-197
pt	-198
▁K	-199
our	-200
ment	-201
ast	-202
▁not	-203
ip	-204
rit	-205
▁St	-206
ear	-207
ord	-208
▁tr	-209
ally	-210
ge	-211
ther	-212
ian	-213
ost	-214
ave	-215
ine	-216
ight	-217
▁u	-218
oun	-219
ell	-220
ish	-221
cl	-222
pp	-223
ary	-224
▁Ch	-225
ust	-226
irst	-227
ia	-228
▁3	-229
▁200	-230
te	-231
▁comp	-232
▁their	-233
▁but	-234
cc	-235
so	-236
ction	-237
fter	-238
▁first	-239
ous	-240
ould	-241
▁its	-242
▁un	-243
ure	-244
ra	-245
ide	-246
▁cont	-247
▁whe	-248
▁ar	-249
ue	-250
▁–	-251
ical	-252
ome	-253
wo	-254
og	-255
hed	-256
ial	-257
ie	-258
▁her	-259
ition	-260
▁also	-261
▁int	-262
ub	-263
▁20	-264
own	-265
▁cl	-266
▁V	-267
ru	-268
ater	-269
out	-270
ign	-271
▁us	-272
orm	-273
ork	-274
per	-275
▁ab	-276
▁ad	-277
ff	-278
ok	-279
▁have	-280
age	-281
ire	-282
▁He	-283
ass	-284
▁one	-285
▁has	-286
▁rec	-287
low	-288
ime	-289
▁been	-290
▁ro	-291
mer	-292
du	-293
▁two	-294
▁res	-295
▁per	-296
ond	-297
▁Th	-298
ree	-299
ence	-300
uring	-301
ough	-302
▁who	-303
pl	-304
land	-305
▁this	-306
ile	-307
are	-308
▁bec	-309
ult	-310
ry	-311
▁".	-312
ory	-313
ance	-314
ect	-315
▁It	-316
ans	-317
▁sc	-318
▁18	-319
▁bo	-320
▁play	-321
clud	-322
▁they	-323
▁5	-324
▁year	-325
▁4	-326
ade	-327
▁ag	-328
▁part	-329
ations	-330
▁Al	-331
▁des	-332
ount	-333
▁man	-334
▁other	-335
▁dis	-336
ric	-337
▁te	-338
ely	-339
ach	-340
▁after	-341
act	-342
▁j	-343
ound	-344
▁201	-345
▁ser	-346
▁over	-347
over	-348
▁off	-349
ang	-350
▁sp	-351
ions	-352
▁en	-353
▁includ	-354
ite	-355
urn	-356
▁im	-357
ace	-358
ice	-359
),	-360
iz	-361
ib	-362
wn	-363
▁out	-364
▁up	-365
ke	-366
ress	-367
ark	-368
▁time	-369
nder	-370
▁into	-371
▁Y	-372
▁ne	-373
▁fin	-374
rough	-375
▁pre	-376
▁ev	-377
ced	-378
round	-379
port	-380
we	-381
▁On	-382
▁",	-383
▁would	-384
ces	-385
▁more	-386
▁she	-387
▁comm	-388
▁spe	-389
ted	-390
ason	-391
▁att	-392
ward	-393
▁all	-394
one	-395
ren	-396
ose	-397
ail	-398
▁him	-399
ited	-400
amp	-401
▁we	-402
ied	-403
tern	-404
ens	-405
ased	-406
oin	-407
▁cent	-408
▁Un	-409
rib	-410
▁work	-411
ents	-412
▁Re	-413
ild	-414
ood	-415
ase	-416
ix	-417
ings	-418
▁me	-419
les	-420
▁Se	-421
man	-422
ts	-423
▁fe	-424
▁them	-425
).	-426
able	-427
ious	-428
▁when	-429
▁bet	-430
ake	-431
ors	-432
▁sec	-433
▁song	-434
ates	-435
als	-436
vel	-437
▁ear	-438
iss	-439
▁rem	-440
ubl	-441
old	-442
form	-443
▁6	-444
▁An	-445
▁kn	-446
▁most	-447
▁during	-448
fer	-449
gan	-450
aus	-451
ath	-452
▁only	-453
▁new	-454
ilm	-455
▁7	-456
▁game	-457
ved	-458
oy	-459
ered	-460
ember	-461
ve	-462
orth	-463
ollow	-464
ween	-465
reat	-466
▁As	-467
outh	-468
way	-469
▁rel	-470
▁can	-471
ters	-472
▁about	-473
▁(1	-474
▁again	-475
▁season	-476
▁Ar	-477
▁three	-478
▁than	-479
▁cons	-480
ick	-481
ug	-482
▁En	-483
▁between	-484
aw	-485
▁Mar	-486
▁record	-487
ral	-488
att	-489
ons	-490
▁some	-491
ational	-492
cted	-493
▁char	-494
▁under	-495
ular	-496
▁8	-497
fore	-498
ind	-499
▁through	-500
ict	-501
ft	-502
hip	-503
iew	-504
▁col	-505
▁00	-506
▁num	-507
ision	-508
▁199	-509
▁produ	-510
▁while	-511
▁writ	-512
▁pos	-513
▁Com	-514
▁rele	-515
▁De	-516
▁ver	-517
▁later	-518
▁film	-519
ames	-520
▁9	-521
▁end	-522
▁inter	-523
ished	-524
▁ap	-525
▁pe	-526
▁made	-527
ey	-528
▁form	-529
ning	-530
▁pr	-531
▁reg	-532
▁ass	-533
▁fl	-534
orld	-535
▁so	-536
▁where	-537
ever	-538
▁mov	-539
meric	-540
▁spec	-541
ury	-542
▁Americ	-543
▁New	-544
▁lar	-545
▁ac	-546
▁ret	-547
bum	-548
ron	-549
▁follow	-550
ener	-551
▁bu	-552
▁app	-553
..	-554
▁def	-555
▁second	-556
ived	-557
▁no	-558
▁four	-559
aid	-560
▁qu	-561
▁mus	-562
ock	-563
0,	-564
▁used	-565
▁acc	-566
▁sub	-567
olog	-568
▁such	-569
▁inc	-570
▁act	-571
▁day	-572
ike	-573
▁This	-574
rop	-575
▁At	-576
ars	-577
ific	-578
▁publ	-579
▁am	-580
ual	-581
hes	-582
▁ind	-583
▁call	-584
▁album	-585
▁Le	-586
▁before	-587
▁do	-588
▁appe	-589
ob	-590
ily	-591
oh	-592
▁being	-593
ank	-594
any	-595
▁gr	-596
▁years	-597
▁co	-598
▁supp	-599
▁there	-600
owever	-601
ck	-602
▁Eng	-603
ating	-604
hen	-605
▁found	-606
▁ele	-607
▁set	-608
ife	-609
▁ep	-610
iel	-611
▁000	-612
ane	-613
▁high	-614
ics	-615
orn	-616
▁sy	-617
▁ent	-618
other	-619
ird	-620
▁sur	-621
ained	-622
iver	-623
▁series	-624
igin	-625
▁number	-626
pen	-627
ause	-628
end	-629
ten	-630
ince	-631
▁loc	-632
ll	-633
ros	-634
ph	-635
▁dec	-636
velop	-637
ode	-638
▁pres	-639
▁sever	-640
ities	-641
cept	-642
▁both	-643
ines	-644
▁epis	-645
▁Brit	-646
▁then	-647
▁well	-648
▁against	-649
son	-650
▁became	-651
ject	-652
▁—	-653
ised	-654
▁known	-655
▁/	-656
▁add	-657
▁charac	-658
▁perform	-659
▁po	-660
▁desc	-661
▁including	-662
▁go	-663
▁cap	-664
▁sing	-665
ton	-666
▁bl	-667
▁dire	-668
aj	-669
urch	-670
ale	-671
pr	-672
▁back	-673
▁many	-674
▁pop	-675
▁0	-676
though	-677
ident	-678
▁main	-679
▁Joh	-680
▁inv	-681
▁stud	-682
its	-683
▁Sh	-684
▁long	-685
▁United	-686
ise	-687
ures	-688
ather	-689
row	-690
▁trans	-691
▁origin	-692
io	-693
▁century	-694
iet	-695
▁12	-696
ement	-697
▁mon	-698
▁team	-699
▁After	-700
▁Br	-701
ober	-702
ool	-703
▁show	-704
▁John	-705
▁develop	-706
ann	-707
▁est	-708
uch	-709
▁min	-710
ek	-711
ield	-712
ert	-713
▁Sc	-714
▁em	-715
ower	-716
ier	-717
elf	-718
air	-719
▁16	-720
ute	-721
▁198	-722
▁several	-723
▁cre	-724
▁lead	-725
▁She	-726
▁began	-727
,,	-728
ful	-729
ared	-730
ivers	-731
5,	-732
▁mill	-733
▁contin	-734
▁dif	-735
overn	-736
▁sign	-737
▁194	-738
ually	-739
ram	-740
view	-741
▁sm	-742
ired	-743
ative	-744
up	-745
▁may	-746
▁ship	-747
▁comple	-748
▁br	-749
led	-750
▁could	-751
▁early	-752
▁crit	-753
▁did	-754
ern	-755
▁episode	-756
ross	-757
ains	-758
til	-759
▁ob	-760
▁10	-761
▁art	-762
▁hist	-763
▁near	-764
▁pol	-765
▁called	-766
▁describ	-767
emb	-768
▁bel	-769
ued	-770
▁rece	-771
ople	-772
▁Ind	-773
▁run	-774
une	-775
▁ter	-776
iam	-777
imes	-778
▁196	-779
ments	-780
▁dep	-781
ins	-782
▁17	-783
▁along	-784
ccess	-785
▁said	-786
ven	-787
roup	-788
ley	-789
▁feat	-790
▁American	-791
▁Wh	-792
▁bro	-793
▁down	-794
▁197	-795
▁these	-796
▁Is	-797
aking	-798
▁inst	-799
der	-800
▁dist	-801
▁mil	-802
▁11	-803
▁May	-804
gest	-805
▁Aust	-806
▁disc	-807
▁though	-808
▁British	-809
▁Ger	-810
▁oper	-811
▁until	-812
yl	-813
▁start	-814
▁Z	-815
anc	-816
▁city	-817
oot	-818
ove	-819
▁same	-820
3,	-821
ting	-822
rap	-823
ty	-824
ured	-825
▁inf	-826
▁prev	-827
▁released	-828
▁exp	-829
▁gener	-830
ange	-831
els	-832
ized	-833
▁own	-834
▁return	-835
amed	-836
▁any	-837
ially	-838
▁They	-839
ided	-840
▁war	-841
▁land	-842
▁prov	-843
▁music	-844
▁design	-845
▁km	-846
▁War	-847
▁rep	-848
▁imp	-849
▁million	-850
ajor	-851
▁use	-852
▁area	-853
tend	-854
▁because	-855
▁fam	-856
▁car	-857
▁air	-858
▁(2	-859
ugust	-860
au	-861
az	-862
oman	-863
▁Con	-864
▁success	-865
▁August	-866
osed	-867
▁mat	-868
▁like	-869
▁occ	-870
ep	-871
ink	-872
▁sim	-873
▁open	-874
▁const	-875
ook	-876
erson	-877
▁Fr	-878
▁people	-879
▁count	-880
enn	-881
▁eff	-882
ull	-883
hy	-884
stem	-885
▁ins	-886
▁pass	-887
ium	-888
chool	-889
1,	-890
▁offic	-891
ible	-892
xt	-893
▁Chr	-894
▁support	-895
▁six	-896
my	-897
▁However	-898
▁15	-899
▁small	-900
▁around	-901
▁win	-902
▁%	-903
▁Be	-904
4,	-905
▁Bl	-906
▁adv	-907
▁dam	-908
▁north	-909
▁group	-910
▁str	-911
ah	-912
ptember	-913
▁each	-914
▁poin	-915
arl	-916
▁consid	-917
ues	-918
▁met	-919
▁following	-920
ouse	-921
▁character	-922
ony	-923
ists	-924
wards	-925
▁life	-926
ms	-927
erv	-928
▁Pl	-929
▁World	-930
uc	-931
▁Ju	-932
▁head	-933
aining	-934
▁contro	-935
▁attack	-936
▁govern	-937
▁five	-938
▁Austral	-939
▁September	-940
9,	-941
ient	-942
▁ed	-943
▁result	-944
ales	-945
▁195	-946
ording	-947
▁var	-948
▁Comm	-949
▁will	-950
▁large	-951
ole	-952
oss	-953
▁mod	-954
ution	-955
▁ever	-956
uth	-957
ets	-958
▁Te	-959
▁ann	-960
▁report	-961
▁gu	-962
▁Her	-963
▁All	-964
▁conc	-965
ural	-966
ague	-967
▁Col	-968
▁Cl	-969
lish	-970
▁book	-971
6,	-972
rote	-973
▁Me	-974
▁193	-975
▁June	-976
und	-977
▁191	-978
aving	-979
aced	-980
▁Eu	-981
▁North	-982
▁tit	-983
ash	-984
▁For	-985
ik	-986
dom	-987
▁States	-988
▁since	-989
ble	-990
▁prom	-991
▁German	-992
▁received	-993
ped	-994
▁final	-995
▁major	-996
ilt	-997
med	-998
▁name	-999
▁II	-1000
▁south	-1001
8,	-1002
ately	-1003
ivision	-1004
pect	-1005
▁system	-1006
▁public	-1007
▁care	-1008
▁state	-1009
▁what	-1010
▁Ad	-1011
▁partic	-1012
ives	-1013
▁Jan	-1014
▁hel	-1015
▁last	-1016
▁direct	-1017
uary	-1018
▁Oct	-1019
▁ext	-1020
▁King	-1021
tle	-1022
▁dr	-1023
ored	-1024
▁described	-1025
2,	-1026
7,	-1027
hel	-1028
▁appear	-1029
▁line	-1030
▁rest	-1031
▁week	-1032
▁South	-1033
cess	-1034
▁batt	-1035
▁October	-1036
▁Christ	-1037
▁took	-1038
▁incre	-1039
▁class	-1040
▁US	-1041
▁Car	-1042
ropical	-1043
aged	-1044
▁build	-1045
▁world	-1046
gin	-1047
▁Fe	-1048
▁[	-1049
▁Can	-1050
ages	-1051
▁wrote	-1052
▁late	-1053
▁York	-1054
empt	-1055
iving	-1056
ional	-1057
▁played	-1058
▁$	-1059
▁won	-1060
▁Nov	-1061
▁July	-1062
▁stru	-1063
ology	-1064
▁child	-1065
aim	-1066
ideo	-1067
▁much	-1068
▁During	-1069
▁Tr	-1070
ody	-1071
ified	-1072
0.	-1073
pril	-1074
▁serv	-1075
min	-1076
▁due	-1077
▁allow	-1078
▁single	-1079
ats	-1080
▁species	-1081
iod	-1082
▁camp	-1083
▁differ	-1084
▁vers	-1085
▁death	-1086
▁short	-1087
▁Gu	-1088
▁port	-1089
▁just	-1090
▁mar	-1091
▁April	-1092
▁included	-1093
▁another	-1094
▁ty	-1095
ball	-1096
ility	-1097
ively	-1098
▁storm	-1099
▁Euro	-1100
get	-1101
▁poss	-1102
▁old	-1103
▁gun	-1104
ission	-1105
▁within	-1106
▁left	-1107
▁list	-1108
▁even	-1109
▁England	-1110
ism	-1111
omin	-1112
▁position	-1113
▁January	-1114
ants	-1115
▁arr	-1116
▁conf	-1117
▁estab	-1118
▁prog	-1119
▁based	-1120
▁attempt	-1121
▁vis	-1122
▁now	-1123
ax	-1124
▁if	-1125
▁named	-1126
by	-1127
▁very	-1128
▁third	-1129
▁13	-1130
akes	-1131
▁top	-1132
▁games	-1133
ont	-1134
▁belie	-1135
ctions	-1136
▁track	-1137
ple	-1138
ner	-1139
▁ref	-1140
ital	-1141
▁family	-1142
▁previous	-1143
ina	-1144
▁power	-1145
▁And	-1146
▁March	-1147
▁period	-1148
▁although	-1149
ilar	-1150
▁Mus	-1151
▁tri	-1152
▁way	-1153
▁best	-1154
▁event	-1155
mber	-1156
▁lit	-1157
▁home	-1158
▁appro	-1159
▁school	-1160
▁resp	-1161
▁Gr	-1162
▁government	-1163
▁His	-1164
▁Europe	-1165
▁review	-1166
ances	-1167
▁water	-1168
ograp	-1169
▁Ge	-1170
▁Ro	-1171
ently	-1172
▁expl	-1173
cember	-1174
▁Q	-1175
▁men	-1176
▁November	-1177
▁those	-1178
urric	-1179
▁December	-1180
ret	-1181
▁Pro	-1182
avy	-1183
ger	-1184
▁By	-1185
raft	-1186
▁constru	-1187
ract	-1188
▁turn	-1189
▁place	-1190
ience	-1191
...	-1192
▁hum	-1193
▁There	-1194
ulation	-1195
▁sl	-1196
ards	-1197
ians	-1198
urther	-1199
▁great	-1200
▁organ	-1201
▁bre	-1202
ature	-1203
ides	-1204
▁City	-1205
▁built	-1206
▁prote	-1207
▁story	-1208
pend	-1209
ached	-1210
▁kill	-1211
▁When	-1212
▁month	-1213
▁command	-1214
ched	-1215
▁colle	-1216
▁(19	-1217
▁192	-1218
▁sent	-1219
4.	-1220
hest	-1221
ript	-1222
itary	-1223
▁make	-1224
▁original	-1225
▁hand	-1226
▁person	-1227
iversity	-1228
▁opp	-1229
eder	-1230
▁med	-1231
▁requ	-1232
▁video	-1233
▁auth	-1234
3.	-1235
ention	-1236
▁National	-1237
oci	-1238
▁hal	-1239
▁present	-1240
aur	-1241
▁ph	-1242
▁mark	-1243
▁sug	-1244
por	-1245
▁club	-1246
ences	-1247
riend	-1248
iven	-1249
elt	-1250
ham	-1251
ene	-1252
▁eng	-1253
▁view	-1254
5.	-1255
ically	-1256
aster	-1257
self	-1258
▁100	-1259
▁moved	-1260
▁capt	-1261
▁addition	-1262
▁Mc	-1263
▁led	-1264
▁role	-1265
▁stand	-1266
▁came	-1267
▁River	-1268
▁still	-1269
▁local	-1270
ense	-1271
▁leg	-1272
▁repl	-1273
gy	-1274
rench	-1275
be	-1276
aff	-1277
▁iss	-1278
▁history	-1279
ival	-1280
▁caus	-1281
▁cour	-1282
▁dest	-1283
▁often	-1284
▁We	-1285
ison	-1286
▁common	-1287
▁effect	-1288
aken	-1289
▁Man	-1290
▁dem	-1291
1.	-1292
▁few	-1293
ery	-1294
▁Pr	-1295
▁next	-1296
ady	-1297
▁trad	-1298
▁considered	-1299
ae	-1300
▁player	-1301
eng	-1302
ories	-1303
urricane	-1304
▁suggest	-1305
lev	-1306
▁Bo	-1307
▁star	-1308
▁exper	-1309
▁Fl	-1310
▁career	-1311
6.	-1312
▁my	-1313
side	-1314
astern	-1315
▁recorded	-1316
ops	-1317
▁side	-1318
▁similar	-1319
uss	-1320
▁One	-1321
▁right	-1322
▁No	-1323
ined	-1324
rown	-1325
▁import	-1326
▁cr	-1327
ling	-1328
▁init	-1329
que	-1330
▁real	-1331
▁claim	-1332
▁company	-1333
let	-1334
▁French	-1335
▁English	-1336
▁deb	-1337
▁continued	-1338
▁cover	-1339
ai	-1340
▁Or	-1341
▁Pe	-1342
idge	-1343
▁published	-1344
arn	-1345
▁you	-1346
▁take	-1347
▁mid	-1348
▁sold	-1349
▁songs	-1350
▁bas	-1351
▁without	-1352
▁different	-1353
ternational	-1354
rew	-1355
▁ant	-1356
▁town	-1357
▁Ph	-1358
▁say	-1359
▁held	-1360
▁wind	-1361
ior	-1362
uted	-1363
▁Acc	-1364
atter	-1365
arch	-1366
ness	-1367
ister	-1368
▁refer	-1369
▁With	-1370
▁memb	-1371
▁level	-1372
lu	-1373
▁Sp	-1374
▁tot	-1375
▁among	-1376
ne	-1377
▁tem	-1378
▁Comp	-1379
▁14	-1380
▁road	-1381
▁arch	-1382
▁polit	-1383
ged	-1384
▁defe	-1385
▁former	-1386
▁Batt	-1387
▁field	-1388
▁written	-1389
8.	-1390
thing	-1391
▁every	-1392
resent	-1393
▁plan	-1394
bs	-1395
ps	-1396
2.	-1397
alk	-1398
▁release	-1399
ves	-1400
▁tw	-1401
estern	-1402
▁Division	-1403
▁fun	-1404
▁half	-1405
▁become	-1406
9.	-1407
ead	-1408
▁es	-1409
▁mag	-1410
iment	-1411
▁Port	-1412
tended	-1413
ampions	-1414
▁further	-1415
▁According	-1416
ensive	-1417
▁commun	-1418
▁Although	-1419
7.	-1420
▁av	-1421
▁church	-1422
▁however	-1423
▁days	-1424
▁strong	-1425
▁Will	-1426
▁State	-1427
yle	-1428
▁find	-1429
▁version	-1430
itar	-1431
lear	-1432
▁join	-1433
▁west	-1434
bru	-1435
ried	-1436
roy	-1437
▁25	-1438
▁east	-1439
▁title	-1440
br	-1441
ott	-1442
▁compet	-1443
pite	-1444
▁military	-1445
▁low	-1446
▁par	-1447
▁Canad	-1448
mp	-1449
▁del	-1450
par	-1451
rodu	-1452
▁Count	-1453
▁order	-1454
▁Church	-1455
▁particular	-1456
▁beh	-1457
▁prop	-1458
▁author	-1459
▁control	-1460
bruary	-1461
▁League	-1462
▁&	-1463
aly	-1464
▁Roman	-1465
▁Min	-1466
▁times	-1467
thern	-1468
▁Song	-1469
outhern	-1470
fric	-1471
▁foot	-1472
▁gave	-1473
▁sit	-1474
▁members	-1475
▁reported	-1476
▁1,	-1477
▁band	-1478
▁vict	-1479
ots	-1480
▁chang	-1481
▁February	-1482
raw	-1483
ylan	-1484
▁fore	-1485
▁nort	-1486
▁produced	-1487
ches	-1488
▁Per	-1489
▁less	-1490
▁prof	-1491
▁Dylan	-1492
▁Gener	-1493
levision	-1494
line	-1495
▁total	-1496
ices	-1497
▁el	-1498
augh	-1499
ailed	-1500
▁stat	-1501
urs	-1502
▁Ab	-1503
▁popular	-1504
▁production	-1505
aces	-1506
iety	-1507
▁decl	-1508
ception	-1509
▁fre	-1510
▁Geor	-1511
ront	-1512
▁Old	-1513
▁Park	-1514
▁tropical	-1515
hern	-1516
oung	-1517
▁project	-1518
▁nov	-1519
▁forces	-1520
itions	-1521
▁point	-1522
▁children	-1523
▁sol	-1524
▁West	-1525
▁cult	-1526
pec	-1527
▁cur	-1528
▁obs	-1529
▁critic	-1530
▁include	-1531
▁Bar	-1532
▁having	-1533
apan	-1534
reen	-1535
inc	-1536
▁influ	-1537
▁invol	-1538
▁histor	-1539
ler	-1540
▁lost	-1541
▁given	-1542
sh	-1543
▁Par	-1544
ering	-1545
▁want	-1546
▁()	-1547
ression	-1548
▁country	-1549
▁Ass	-1550
▁signific	-1551
▁represent	-1552
▁fr	-1553
▁fire	-1554
ize	-1555
▁manag	-1556
omen	-1557
▁Japan	-1558
ape	-1559
chn	-1560
omet	-1561
osp	-1562
▁seen	-1563
▁site	-1564
play	-1565
▁Des	-1566
▁program	-1567
vers	-1568
▁far	-1569
▁stated	-1570
▁comb	-1571
▁eight	-1572
▁never	-1573
▁press	-1574
▁establ	-1575
▁Sim	-1576
▁det	-1577
alion	-1578
▁Afric	-1579
▁should	-1580
▁body	-1581
▁While	-1582
▁match	-1583
▁making	-1584
▁aff	-1585
ither	-1586
ploy	-1587
▁fact	-1588
▁returned	-1589
▁30	-1590
reet	-1591
rent	-1592
▁pat	-1593
▁Cent	-1594
▁Miss	-1595
craft	-1596
ising	-1597
▁Am	-1598
▁Ed	-1599
▁ord	-1600
enc	-1601
ours	-1602
▁fem	-1603
▁These	-1604
▁America	-1605
▁General	-1606
▁post	-1607
▁ships	-1608
▁University	-1609
sequ	-1610
▁how	-1611
▁earl	-1612
▁island	-1613
▁established	-1614
▁sound	-1615
▁announ	-1616
▁population	-1617
▁Pol	-1618
▁struct	-1619
▁reached	-1620
bo	-1621
▁X	-1622
▁chart	-1623
me	-1624
▁ft	-1625
▁Dav	-1626
ably	-1627
▁Ear	-1628
▁away	-1629
▁noted	-1630
ampionship	-1631
ades	-1632
▁Ire	-1633
▁Ireland	-1634
most	-1635
▁soc	-1636
igade	-1637
▁too	-1638
▁across	-1639
▁friend	-1640
▁thought	-1641
▁developed	-1642
▁throughout	-1643
ope	-1644
▁god	-1645
▁ground	-1646
▁Ste	-1647
▁light	-1648
fic	-1649
▁Ha	-1650
▁Jack	-1651
▁introdu	-1652
ondon	-1653
ground	-1654
▁seven	-1655
▁Air	-1656
▁div	-1657
▁gen	-1658
▁using	-1659
▁himself	-1660
▁good	-1661
▁London	-1662
▁development	-1663
▁la	-1664
▁190	-1665
▁hig	-1666
ument	-1667
▁Feder	-1668
▁destroy	-1669
▁Ev	-1670
aint	-1671
used	-1672
▁equ	-1673
▁lim	-1674
▁felt	-1675
▁significant	-1676
▁William	-1677
yn	-1678
ctor	-1679
ological	-1680
▁important	-1681
▁performed	-1682
ford	-1683
idence	-1684
ese	-1685
work	-1686
▁pra	-1687
▁writing	-1688
▁cast	-1689
▁Australia	-1690
arr	-1691
ords	-1692
▁miles	-1693
▁television	-1694
int	-1695
▁cou	-1696
▁father	-1697
▁Ne	-1698
atic	-1699
▁ide	-1700
▁areas	-1701
▁human	-1702
▁various	-1703
▁interest	-1704
oon	-1705
ivil	-1706
imately	-1707
ones	-1708
ream	-1709
▁tour	-1710
▁black	-1711
▁night	-1712
reek	-1713
▁Atl	-1714
utes	-1715
▁full	-1716
▁look	-1717
▁went	-1718
aren	-1719
▁wat	-1720
▁prot	-1721
▁Black	-1722
▁activ	-1723
▁does	-1724
▁successful	-1725
▁rad	-1726
▁typ	-1727
▁events	-1728
▁Mich	-1729
▁need	-1730
▁white	-1731
ief	-1732
▁law	-1733
ket	-1734
aign	-1735
▁Char	-1736
▁players	-1737
▁started	-1738
aul	-1739
ges	-1740
▁Reg	-1741
▁Rich	-1742
▁ten	-1743
▁Road	-1744
▁discover	-1745
ox	-1746
wh	-1747
itive	-1748
▁feet	-1749
▁formed	-1750
▁cor	-1751
▁range	-1752
tain	-1753
▁conv	-1754
▁performance	-1755
▁mm	-1756
▁poem	-1757
▁style	-1758
▁relations	-1759
▁Roy	-1760
▁ball	-1761
▁Rober	-1762
▁house	-1763
▁caused	-1764
▁building	-1765
.,	-1766
▁mix	-1767
antic	-1768
▁force	-1769
ung	-1770
▁age	-1771
▁cat	-1772
▁read	-1773
▁James	-1774
▁County	-1775
▁put	-1776
na	-1777
ald	-1778
▁trav	-1779
ration	-1780
▁techn	-1781
ster	-1782
▁prim	-1783
▁modern	-1784
con	-1785
alth	-1786
▁vill	-1787
▁Mount	-1788
af	-1789
ael	-1790
▁El	-1791
▁cy	-1792
▁You	-1793
▁official	-1794
▁Pal	-1795
ublic	-1796
▁entire	-1797
▁created	-1798
ec	-1799
isc	-1800
ush	-1801
▁ke	-1802
▁able	-1803
▁suff	-1804
▁novel	-1805
ogn	-1806
▁political	-1807
▁characters	-1808
ico	-1809
ourn	-1810
▁Su	-1811
▁To	-1812
▁get	-1813
▁sum	-1814
▁died	-1815
▁coast	-1816
▁others	-1817
▁construction	-1818
ask	-1819
▁relig	-1820
▁bird	-1821
oll	-1822
omb	-1823
abor	-1824
aves	-1825
▁occur	-1826
ring	-1827
▁pit	-1828
▁pri	-1829
▁son	-1830
iness	-1831
▁High	-1832
▁begin	-1833
▁’	-1834
▁cert	-1835
amb	-1836
ying	-1837
ressed	-1838
▁Mag	-1839
ample	-1840
▁remained	-1841
▁Gl	-1842
▁Town	-1843
▁once	-1844
▁located	-1845
▁Ang	-1846
epend	-1847
isted	-1848
iting	-1849
▁surv	-1850
▁becom	-1851
▁mount	-1852
ination	-1853
▁promot	-1854
day	-1855
▁lik	-1856
▁ste	-1857
asing	-1858
ficult	-1859
▁works	-1860
▁battle	-1861
▁scored	-1862
▁difficult	-1863
fall	-1864
▁tro	-1865
▁produc	-1866
▁see	-1867
ected	-1868
▁Care	-1869
▁meet	-1870
▁announced	-1871
▁completed	-1872
▁tradition	-1873
▁1.	-1874
▁Cor	-1875
▁rank	-1876
▁campaign	-1877
uck	-1878
▁21	-1879
▁Hist	-1880
▁stars	-1881
▁region	-1882
▁Kingdom	-1883
▁Australian	-1884
▁189	-1885
▁Som	-1886
▁fig	-1887
▁guns	-1888
▁hold	-1889
▁Island	-1890
▁national	-1891
ator	-1892
▁Sec	-1893
▁red	-1894
▁redu	-1895
com	-1896
hem	-1897
rie	-1898
▁24	-1899
▁rock	-1900
▁process	-1901
app	-1902
▁sk	-1903
iers	-1904
▁goal	-1905
▁help	-1906
▁fight	-1907
irc	-1908
▁Cal	-1909
▁fav	-1910
▁little	-1911
▁22	-1912
ivid	-1913
▁grow	-1914
▁added	-1915
▁Company	-1916
here	-1917
▁tre	-1918
itted	-1919
▁pred	-1920
rought	-1921
▁gl	-1922
rest	-1923
▁let	-1924
▁least	-1925
▁instead	-1926
▁followed	-1927
ounc	-1928
▁Cup	-1929
▁fac	-1930
▁val	-1931
ament	-1932
▁peak	-1933
▁appeared	-1934
▁Mor	-1935
▁Rec	-1936
▁know	-1937
▁cross	-1938
▁front	-1939
▁killed	-1940
▁50	-1941
leet	-1942
quad	-1943
▁rev	-1944
▁months	-1945
ways	-1946
elling	-1947
▁comment	-1948
reg	-1949
▁Army	-1950
▁wife	-1951
▁southern	-1952
▁Ol	-1953
▁cas	-1954
▁loss	-1955
▁er	-1956
enth	-1957
oice	-1958
ries	-1959
ality	-1960
enced	-1961
off	-1962
▁23	-1963
orse	-1964
▁Bill	-1965
▁Grand	-1966
▁associ	-1967
▁originally	-1968
▁Ham	-1969
▁agre	-1970
▁ident	-1971
the	-1972
▁Ke	-1973
angu	-1974
▁fif	-1975
▁relationship	-1976
▁nuc	-1977
▁critics	-1978
gr	-1979
▁mass	-1980
▁accom	-1981
▁women	-1982
▁France	-1983
▁mother	-1984
▁eastern	-1985
▁features	-1986
▁hurricane	-1987
acy	-1988
lect	-1989
▁bus	-1990
▁Music	-1991
▁eventually	-1992
ray	-1993
field	-1994
▁Some	-1995
▁David	-1996
▁26	-1997
▁anim	-1998
idd	-1999
▁aud	-2000
▁Other	-2001
▁broad	-2002
▁route	-2003
▁taken	-2004
▁young	-2005
▁recogn	-2006
▁cond	-2007
▁stri	-2008
▁fourth	-2009
▁served	-2010
▁Two	-2011
▁cell	-2012
▁live	-2013
▁appoin	-2014
▁bar	-2015
emy	-2016
▁award	-2017
▁damage	-2018
▁profess	-2019
ully	-2020
▁heavy	-2021
▁sw	-2022
ique	-2023
antry	-2024
▁base	-2025
▁estim	-2026
▁decided	-2027
ota	-2028
▁Ex	-2029
inal	-2030
▁sex	-2031
▁aver	-2032
▁lack	-2033
arliam	-2034
▁proble	-2035
▁voc	-2036
▁condom	-2037
olution	-2038
▁commer	-2039
▁either	-2040
▁Sw	-2041
aper	-2042
▁mor	-2043
azine	-2044
osaur	-2045
gether	-2046
▁believed	-2047
▁together	-2048
chie	-2049
▁separ	-2050
▁behind	-2051
▁arg	-2052
ought	-2053
▁playing	-2054
▁super	-2055
▁individ	-2056
▁ve	-2057
igned	-2058
▁impro	-2059
arliament	-2060
ille	-2061
▁Love	-2062
ouncil	-2063
▁Carey	-2064
▁creat	-2065
ization	-2066
▁example	-2067
▁special	-2068
▁clos	-2069
▁close	-2070
▁move	-2071
▁accept	-2072
▁quar	-2073
ements	-2074
▁Robert	-2075
▁leading	-2076
hys	-2077
cial	-2078
▁Mon	-2079
▁ask	-2080
▁burn	-2081
▁almost	-2082
▁service	-2083
aching	-2084
▁mater	-2085
▁round	-2086
▁Federer	-2087
▁towards	-2088
▁elements	-2089
▁generally	-2090
now	-2091
▁Mex	-2092
▁arm	-2093
▁fall	-2094
▁langu	-2095
▁European	-2096
urb	-2097
▁sour	-2098
▁Royal	-2099
▁weeks	-2100
▁brought	-2101
▁Battalion	-2102
mar	-2103
▁God	-2104
▁miss	-2105
iction	-2106
▁Brigade	-2107
▁finished	-2108
rict	-2109
▁circ	-2110
▁laun	-2111
▁ce	-2112
▁hy	-2113
▁ra	-2114
ceed	-2115
▁non	-2116
▁saw	-2117
icated	-2118
▁Wales	-2119
▁study	-2120
▁featured	-2121
▁International	-2122
▁Ir	-2123
▁Ser	-2124
▁dou	-2125
▁host	-2126
▁aircraft	-2127
▁2,	-2128
illa	-2129
▁opened	-2130
▁regular	-2131
▁Ber	-2132
▁enc	-2133
▁draw	-2134
▁respect	-2135
▁2.	-2136
ests	-2137
▁vol	-2138
▁Flor	-2139
▁Viet	-2140
iation	-2141
ida	-2142
ned	-2143
▁Cr	-2144
read	-2145
▁188	-2146
▁coll	-2147
▁rese	-2148
▁elect	-2149
▁general	-2150
▁contract	-2151
iron	-2152
▁185	-2153
etwork	-2154
▁points	-2155
▁directed	-2156
hic	-2157
val	-2158
▁Part	-2159
▁meas	-2160
▁action	-2161
▁central	-2162
▁provided	-2163
▁28	-2164
ston	-2165
▁Hen	-2166
ordan	-2167
▁fund	-2168
▁upon	-2169
▁White	-2170
▁inform	-2171
▁highway	-2172
ze	-2173
▁Sy	-2174
▁Game	-2175
▁wall	-2176
ography	-2177
▁director	-2178
▁appearance	-2179
▁Act	-2180
▁Follow	-2181
▁earlier	-2182
eum	-2183
umb	-2184
▁wid	-2185
▁From	-2186
▁Jordan	-2187
▁Championship	-2188
iol	-2189
▁mi	-2190
ency	-2191
odes	-2192
▁yard	-2193
▁flood	-2194
medi	-2195
▁Pres	-2196
▁king	-2197
▁sequ	-2198
▁female	-2199
▁indust	-2200
irl	-2201
oid	-2202
▁Har	-2203
▁Play	-2204
▁rather	-2205
▁troops	-2206
▁largest	-2207
▁victory	-2208
▁Following	-2209
oo	-2210
bit	-2211
ino	-2212
▁Bro	-2213
oring	-2214
▁born	-2215
▁reve	-2216
▁employ	-2217
▁current	-2218
▁manager	-2219
▁subsequ	-2220
▁operations	-2221
▁Du	-2222
ming	-2223
▁East	-2224
▁cost	-2225
▁achie	-2226
▁Atlantic	-2227
mb	-2228
stit	-2229
▁Jew	-2230
▁Hero	-2231
▁mean	-2232
▁House	-2233
▁wanted	-2234
▁opening	-2235
ude	-2236
▁beg	-2237
▁ren	-2238
▁Thom	-2239
▁condu	-2240
cher	-2241
uter	-2242
▁Rep	-2243
▁evidence	-2244
eler	-2245
orts	-2246
▁Day	-2247
▁dev	-2248
ounter	-2249
▁river	-2250
▁reason	-2251
▁northern	-2252
▁Christian	-2253
cast	-2254
iber	-2255
ouri	-2256
west	-2257
▁Red	-2258
▁cut	-2259
▁exc	-2260
▁insp	-2261
▁stage	-2262
▁yards	-2263
▁George	-2264
▁member	-2265
ength	-2266
▁crew	-2267
anding	-2268
▁Street	-2269
▁Florida	-2270
▁allowed	-2271
▁possible	-2272
▁particularly	-2273
▁bi	-2274
▁Mad	-2275
▁foc	-2276
▁Mary	-2277
▁stren	-2278
▁saying	-2279
▁outside	-2280
cript	-2281
ellow	-2282
sel	-2283
▁27	-2284
▁40	-2285
▁500	-2286
▁Med	-2287
▁hit	-2288
▁prob	-2289
▁hours	-2290
anch	-2291
▁ill	-2292
erous	-2293
▁Rock	-2294
▁case	-2295
▁whom	-2296
atural	-2297
ential	-2298
▁nomin	-2299
▁engine	-2300
eal	-2301
conom	-2302
▁Oliv	-2303
▁exist	-2304
▁worked	-2305
ania	-2306
ators	-2307
▁Most	-2308
▁fort	-2309
▁deter	-2310
▁pract	-2311
▁regard	-2312
▁streng	-2313
▁account	-2314
atin	-2315
cent	-2316
▁mot	-2317
▁territ	-2318
▁respons	-2319
less	-2320
▁Bra	-2321
▁length	-2322
▁working	-2323
▁Missouri	-2324
ores	-2325
▁reb	-2326
board	-2327
▁news	-2328
artment	-2329
▁material	-2330
ama	-2331
▁My	-2332
ened	-2333
▁Wal	-2334
▁bur	-2335
▁gold	-2336
▁poor	-2337
osition	-2338
▁designed	-2339
ata	-2340
▁186	-2341
▁neg	-2342
▁rul	-2343
▁free	-2344
▁love	-2345
▁seem	-2346
▁(3	-2347
ault	-2348
▁Bay	-2349
▁Tech	-2350
▁mach	-2351
▁stay	-2352
▁praised	-2353
for	-2354
uel	-2355
ump	-2356
▁Od	-2357
thod	-2358
ights	-2359
ishing	-2360
▁Indian	-2361
▁forced	-2362
ander	-2363
▁(200	-2364
▁avail	-2365
▁remains	-2366
▁Phil	-2367
▁bill	-2368
▁deal	-2369
▁think	-2370
▁winds	-2371
▁Co	-2372
▁Gal	-2373
▁cop	-2374
▁Best	-2375
▁goals	-2376
▁quick	-2377
▁treat	-2378
▁station	-2379
aps	-2380
▁di	-2381
heast	-2382
▁football	-2383
▁increased	-2384
lo	-2385
ago	-2386
▁Wil	-2387
▁past	-2388
▁replaced	-2389
▁previously	-2390
gg	-2391
gypt	-2392
▁gre	-2393
▁Paul	-2394
▁soon	-2395
▁Egypt	-2396
▁above	-2397
▁invest	-2398
ica	-2399
ius	-2400
ule	-2401
vert	-2402
▁But	-2403
▁First	-2404
▁£	-2405
▁Cap	-2406
▁civil	-2407
▁Despite	-2408
▁business	-2409
▁Mark	-2410
▁ly	-2411
▁Bus	-2412
ession	-2413
ributed	-2414
▁threat	-2415
▁writer	-2416
▁interview	-2417
xas	-2418
irth	-2419
vest	-2420
▁hon	-2421
▁mer	-2422
asion	-2423
erved	-2424
▁viol	-2425
▁units	-2426
▁commercial	-2427
ana	-2428
hens	-2429
ties	-2430
▁esc	-2431
▁mph	-2432
anned	-2433
▁clear	-2434
▁Richard	-2435
▁quarter	-2436
▁°	-2437
▁Henry	-2438
▁joined	-2439
▁Michael	-2440
▁highest	-2441
▁estimated	-2442
▁Kh	-2443
utive	-2444
▁pain	-2445
▁situ	-2446
▁surf	-2447
▁trib	-2448
▁placed	-2449
▁involved	-2450
▁z	-2451
ara	-2452
▁lo	-2453
▁San	-2454
▁2010	-2455
▁must	-2456
▁Times	-2457
▁Oldham	-2458
▁signed	-2459
▁claimed	-2460
▁discuss	-2461
BC	-2462
ye	-2463
iter	-2464
▁Dep	-2465
▁Que	-2466
▁Vir	-2467
▁Hill	-2468
ometimes	-2469
▁President	-2470
▁suggested	-2471
▁3.	-2472
▁court	-2473
▁react	-2474
▁intens	-2475
▁specific	-2476
clus	-2477
▁2008	-2478
▁priv	-2479
▁Brown	-2480
▁parts	-2481
▁league	-2482
▁proper	-2483
▁western	-2484
tt	-2485
oms	-2486
▁35	-2487
istic	-2488
▁Carol	-2489
▁Later	-2490
▁itself	-2491
▁object	-2492
▁average	-2493
▁Tor	-2494
▁pers	-2495
▁shot	-2496
▁contr	-2497
▁change	-2498
▁taking	-2499
▁Olivier	-2500
▁3,	-2501
▁Dr	-2502
▁Whe	-2503
osing	-2504
thlet	-2505
▁2009	-2506
▁come	-2507
▁cycl	-2508
▁Vietn	-2509
▁scene	-2510
▁Govern	-2511
▁available	-2512
▁introduced	-2513
wood	-2514
▁187	-2515
▁term	-2516
▁Canada	-2517
▁Mexico	-2518
▁village	-2519
▁transport	-2520
olic	-2521
ving	-2522
▁McC	-2523
▁inj	-2524
▁heav	-2525
▁hous	-2526
▁India	-2527
▁School	-2528
▁transfer	-2529
▁recording	-2530
ita	-2531
achel	-2532
ington	-2533
lected	-2534
ximately	-2535
nes	-2536
▁31	-2537
▁Im	-2538
onst	-2539
quar	-2540
▁Val	-2541
▁Var	-2542
▁pen	-2543
ready	-2544
▁Cong	-2545
▁race	-2546
porary	-2547
▁Irish	-2548
ibility	-2549
▁travel	-2550
▁brother	-2551
bor	-2552
▁don	-2553
▁fly	-2554
▁Hall	-2555
▁slow	-2556
▁told	-2557
▁break	-2558
▁shows	-2559
▁whose	-2560
▁Britain	-2561
▁damaged	-2562
▁network	-2563
▁Japanese	-2564
▁religious	-2565
lic	-2566
abit	-2567
band	-2568
acing	-2569
▁stop	-2570
pected	-2571
▁remov	-2572
▁Pac	-2573
rated	-2574
▁Card	-2575
▁That	-2576
▁exec	-2577
▁names	-2578
▁turned	-2579
▁subject	-2580
▁increasing	-2581
II	-2582
▁Many	-2583
▁give	-2584
▁mult	-2585
▁rail	-2586
▁Scient	-2587
▁Thomas	-2588
▁defend	-2589
▁Republic	-2590
▁Sm	-2591
oney	-2592
▁Sun	-2593
▁Zeal	-2594
▁feel	-2595
▁size	-2596
▁complet	-2597
▁structure	-2598
ett	-2599
▁op	-2600
▁pie	-2601
elled	-2602
▁date	-2603
▁diss	-2604
▁educ	-2605
▁hard	-2606
▁phys	-2607
▁nearly	-2608
▁despite	-2609
▁surround	-2610
▁appointed	-2611
▁community	-2612
AF	-2613
head	-2614
▁183	-2615
▁Hel	-2616
▁pur	-2617
iding	-2618
▁nine	-2619
▁Great	-2620
ruction	-2621
▁Guitar	-2622
▁econom	-2623
▁passed	-2624
pecially	-2625
▁certain	-2626
▁independ	-2627
▁international	-2628
ronic	-2629
▁Arab	-2630
▁grad	-2631
▁Union	-2632
▁going	-2633
▁withd	-2634
▁social	-2635
▁establish	-2636
▁initially	-2637
ume	-2638
▁rap	-2639
inese	-2640
▁might	-2641
▁archae	-2642
▁assist	-2643
▁failed	-2644
▁Zealand	-2645
▁already	-2646
▁display	-2647
anna	-2648
▁Mac	-2649
▁type	-2650
▁Early	-2651
▁occup	-2652
▁score	-2653
▁immedi	-2654
▁states	-2655
▁capital	-2656
▁winning	-2657
▁training	-2658
iff	-2659
▁Ac	-2660
▁doc	-2661
arily	-2662
▁Gold	-2663
▁Colle	-2664
▁debut	-2665
▁lines	-2666
▁liter	-2667
▁forest	-2668
rem	-2669
▁Em	-2670
aled	-2671
uture	-2672
▁2006	-2673
▁chap	-2674
▁test	-2675
▁wood	-2676
▁daugh	-2677
▁studio	-2678
▁Pacific	-2679
▁language	-2680
▁Hurricane	-2681
rick	-2682
▁tow	-2683
▁Ever	-2684
▁conn	-2685
▁food	-2686
hedral	-2687
▁minor	-2688
▁spent	-2689
▁arrived	-2690
▁ordered	-2691
▁includes	-2692
pper	-2693
▁Film	-2694
▁army	-2695
▁male	-2696
▁issue	-2697
▁visit	-2698
▁enough	-2699
▁Canadian	-2700
▁particip	-2701
▁probably	-2702
▁remaining	-2703
▁Ag	-2704
onse	-2705
▁Jin	-2706
▁mem	-2707
odies	-2708
▁fail	-2709
▁Super	-2710
▁Wheeler	-2711
▁forward	-2712
▁according	-2713
ays	-2714
▁NY	-2715
▁Sl	-2716
▁Cro	-2717
▁Mos	-2718
▁mixed	-2719
▁Awards	-2720
▁Chinese	-2721
▁History	-2722
▁reviews	-2723
▁complete	-2724
▁required	-2725
aries	-2726
atory	-2727
▁Cath	-2728
▁Navy	-2729
ulated	-2730
▁latter	-2731
fect	-2732
▁abs	-2733
▁pot	-2734
▁rain	-2735
ilities	-2736
▁Associ	-2737
▁center	-2738
▁remain	-2739
▁especially	-2740
tr	-2741
hib	-2742
ula	-2743
ulf	-2744
urt	-2745
▁Os	-2746
▁cru	-2747
▁block	-2748
ference	-2749
▁Africa	-2750
eth	-2751
▁("	-2752
ateg	-2753
▁Law	-2754
▁anti	-2755
tation	-2756
▁Angel	-2757
▁decision	-2758
▁beginning	-2759
ste	-2760
▁0.	-2761
▁UK	-2762
chol	-2763
enes	-2764
▁Res	-2765
▁Rose	-2766
▁Peter	-2767
▁changes	-2768
▁limited	-2769
▁additional	-2770
to	-2771
nel	-2772
rian	-2773
▁Don	-2774
▁2007	-2775
▁Sing	-2776
▁2009,	-2777
▁indic	-2778
▁journ	-2779
▁lower	-2780
▁Virgin	-2781
▁response	-2782
pan	-2783
ites	-2784
▁key	-2785
▁ended	-2786
▁better	-2787
▁larger	-2788
▁running	-2789
▁Regiment	-2790
▁positive	-2791
▁students	-2792
▁president	-2793
itz	-2794
▁184	-2795
▁Jer	-2796
▁Not	-2797
▁Rou	-2798
▁dead	-2799
▁woman	-2800
▁Rachel	-2801
▁usually	-2802
▁magazine	-2803
▁Mo	-2804
rics	-2805
▁Nort	-2806
▁notes	-2807
▁touch	-2808
quadron	-2809
▁police	-2810
▁mention	-2811
▁pressure	-2812
▁supported	-2813
▁depression	-2814
aval	-2815
lymp	-2816
▁Soc	-2817
▁den	-2818
▁Mont	-2819
▁wide	-2820
▁Award	-2821
▁Olymp	-2822
▁birds	-2823
▁amount	-2824
gl	-2825
edy	-2826
enty	-2827
▁(),	-2828
▁Art	-2829
▁poet	-2830
▁quest	-2831
▁prevent	-2832
▁Billboard	-2833
ases	-2834
▁cal	-2835
▁Penn	-2836
▁Stud	-2837
▁2008,	-2838
▁2010,	-2839
▁Creek	-2840
▁related	-2841
aph	-2842
back	-2843
▁Ver	-2844
▁fifth	-2845
▁shown	-2846
▁space	-2847
▁Charles	-2848
▁provide	-2849
▁defeated	-2850
co	-2851
go	-2852
leg	-2853
▁5,	-2854
▁hom	-2855
stant	-2856
▁face	-2857
uments	-2858
▁future	-2859
ih	-2860
arm	-2861
men	-2862
▁TV	-2863
aker	-2864
ands	-2865
▁staff	-2866
▁temper	-2867
▁feature	-2868
▁discovered	-2869
rd	-2870
▁Pri	-2871
▁anc	-2872
▁Fort	-2873
▁prior	-2874
▁becoming	-2875
▁sometimes	-2876
ids	-2877
uals	-2878
▁aut	-2879
ee	-2880
ifa	-2881
irt	-2882
owl	-2883
▁cm	-2884
▁syn	-2885
▁2011	-2886
▁doll	-2887
▁exam	-2888
mitted	-2889
▁Scott	-2890
▁birth	-2891
▁Western	-2892
▁section	-2893
▁smaller	-2894
▁approximately	-2895
onc	-2896
gely	-2897
inct	-2898
riage	-2899
▁disp	-2900
▁idea	-2901
idents	-2902
▁frequ	-2903
▁groups	-2904
▁screen	-2905
▁intended	-2906
▁Scientology	-2907
unk	-2908
▁App	-2909
aring	-2910
▁metres	-2911
▁conclud	-2912
gu	-2913
aby	-2914
ney	-2915
agon	-2916
▁Hot	-2917
ishop	-2918
quare	-2919
stein	-2920
selves	-2921
▁Haifa	-2922
▁fleet	-2923
▁likely	-2924
▁percent	-2925
▁surface	-2926
▁captured	-2927
▁research	-2928
▁themselves	-2929
aut	-2930
rief	-2931
▁Inf	-2932
▁Off	-2933
▁fir	-2934
ching	-2935
▁word	-2936
▁Since	-2937
▁domin	-2938
▁office	-2939
▁largely	-2940
▁minutes	-2941
▁musical	-2942
▁problems	-2943
▁Association	-2944
▁professional	-2945
down	-2946
enon	-2947
rael	-2948
▁III	-2949
▁Ter	-2950
orial	-2951
▁Year	-2952
▁flow	-2953
▁media	-2954
▁entered	-2955
alt	-2956
omm	-2957
▁Tom	-2958
iforn	-2959
▁Frank	-2960
▁Under	-2961
▁makes	-2962
▁contem	-2963
▁moving	-2964
sec	-2965
ners	-2966
▁sem	-2967
under	-2968
▁learn	-2969
▁mostly	-2970
quarters	-2971
▁contains	-2972
▁broadcast	-2973
▁constructed	-2974
den	-2975
gar	-2976
oul	-2977
ples	-2978
▁10,	-2979
▁cer	-2980
▁emb	-2981
▁ens	-2982
▁Star	-2983
▁keep	-2984
▁link	-2985
▁radio	-2986
▁summer	-2987
▁referred	-2988
▁Parliament	-2989
uf	-2990
▁La	-2991
ises	-2992
pped	-2993
▁Tur	-2994
▁der	-2995
▁2012	-2996
▁pair	-2997
▁money	-2998
▁effects	-2999
uk	-3000
ios	-3001
▁36	-3002
cean	-3003
ergy	-3004
itte	-3005
▁sea	-3006
▁cele	-3007
isions	-3008
▁Light	-3009
▁grant	-3010
▁voice	-3011
▁Israel	-3012
▁nature	-3013
▁observ	-3014
▁ranked	-3015
▁Council	-3016
▁stories	-3017
▁majority	-3018
bers	-3019
▁Sov	-3020
▁lay	-3021
anies	-3022
▁adop	-3023
▁self	-3024
▁paren	-3025
▁Jewish	-3026
▁arrang	-3027
▁create	-3028
▁listed	-3029
▁Californ	-3030
▁experience	-3031
▁FI	-3032
▁Je	-3033
uing	-3034
▁Ott	-3035
eding	-3036
ville	-3037
▁Route	-3038
▁Portug	-3039
▁leaving	-3040
▁critical	-3041
▁Chic	-3042
▁guitar	-3043
▁primary	-3044
lor	-3045
bert	-3046
ires	-3047
▁How	-3048
▁Met	-3049
▁dro	-3050
urity	-3051
▁Wood	-3052
▁gods	-3053
▁thus	-3054
minist	-3055
▁favor	-3056
▁lived	-3057
▁schol	-3058
▁agreed	-3059
▁always	-3060
▁lyrics	-3061
▁Another	-3062
▁location	-3063
of	-3064
iest	-3065
teen	-3066
▁Fin	-3067
▁lab	-3068
▁pay	-3069
imate	-3070
owler	-3071
▁Oper	-3072
▁Russ	-3073
▁runs	-3074
▁Earth	-3075
▁controll	-3076
▁launched	-3077
▁officers	-3078
tar	-3079
▁60	-3080
ping	-3081
reak	-3082
▁coin	-3083
▁rare	-3084
▁sett	-3085
▁brief	-3086
▁colon	-3087
▁compl	-3088
▁films	-3089
▁teams	-3090
▁friends	-3091
▁quickly	-3092
ylv	-3093
arts	-3094
aven	-3095
pool	-3096
▁(18	-3097
▁Serv	-3098
change	-3099
hester	-3100
veston	-3101
▁meant	-3102
▁minute	-3103
▁culture	-3104
▁episodes	-3105
▁occurred	-3106
▁proposed	-3107
▁Galveston	-3108
urg	-3109
▁(4	-3110
▁prem	-3111
▁equip	-3112
osaurus	-3113
▁access	-3114
▁settle	-3115
▁attract	-3116
▁whether	-3117
▁Catholic	-3118
▁assigned	-3119
▁increase	-3120
▁California	-3121
key	-3122
oke	-3123
oor	-3124
ror	-3125
▁If	-3126
affic	-3127
▁adap	-3128
▁fans	-3129
▁forms	-3130
atively	-3131
▁defeat	-3132
▁appears	-3133
▁changed	-3134
▁consist	-3135
▁traffic	-3136
ification	-3137
▁destroyed	-3138
zy	-3139
imum	-3140
▁Bey	-3141
▁Hol	-3142
▁sat	-3143
▁vot	-3144
▁Camp	-3145
▁tons	-3146
illery	-3147
▁Saint	-3148
ability	-3149
ospital	-3150
▁longer	-3151
▁Chicago	-3152
asy	-3153
kan	-3154
▁Mr	-3155
▁Up	-3156
▁Ale	-3157
▁job	-3158
▁Brad	-3159
▁theme	-3160
▁concern	-3161
▁soldiers	-3162
▁commission	-3163
vey	-3164
aded	-3165
onym	-3166
▁Nix	-3167
▁2011,	-3168
▁bound	-3169
▁earth	-3170
▁focus	-3171
▁leave	-3172
▁reach	-3173
▁trade	-3174
▁script	-3175
▁Central	-3176
▁carried	-3177
▁competition	-3178
sis	-3179
▁29	-3180
iano	-3181
ruit	-3182
▁Haw	-3183
▁mom	-3184
alled	-3185
andon	-3186
▁girl	-3187
undred	-3188
▁celebr	-3189
▁numbers	-3190
▁private	-3191
▁Northern	-3192
▁daughter	-3193
▁conducted	-3194
▁Nic	-3195
▁hop	-3196
▁Over	-3197
▁natural	-3198
▁records	-3199
▁underst	-3200
▁subsequently	-3201
bery	-3202
▁Lou	-3203
▁ran	-3204
▁sil	-3205
ortun	-3206
▁Ross	-3207
▁deep	-3208
▁2007,	-3209
▁Alice	-3210
▁Croat	-3211
▁Latin	-3212
▁analy	-3213
▁cause	-3214
▁newsp	-3215
▁plans	-3216
▁tourn	-3217
▁consider	-3218
▁fighting	-3219
iva	-3220
oir	-3221
▁unc	-3222
▁Scot	-3223
▁bord	-3224
▁Enter	-3225
▁shoot	-3226
▁takes	-3227
▁Second	-3228
▁industry	-3229
▁commented	-3230
▁influence	-3231
zz	-3232
▁Dj	-3233
▁cle	-3234
▁ded	-3235
itect	-3236
ption	-3237
▁bomb	-3238
▁Villa	-3239
▁asked	-3240
▁finally	-3241
▁meaning	-3242
ari	-3243
oly	-3244
▁38	-3245
▁Qu	-3246
ruct	-3247
▁Tay	-3248
▁deg	-3249
▁imm	-3250
▁kil	-3251
▁Form	-3252
▁emer	-3253
tained	-3254
usband	-3255
▁Liver	-3256
▁bring	-3257
▁whole	-3258
stitute	-3259
▁Battle	-3260
▁Polish	-3261
▁ending	-3262
▁method	-3263
▁concert	-3264
▁overall	-3265
▁serious	-3266
▁election	-3267
▁Liverpool	-3268
hou	-3269
▁Its	-3270
▁Mey	-3271
▁done	-3272
▁Alkan	-3273
▁Nixon	-3274
▁Sever	-3275
▁unable	-3276
▁awarded	-3277
▁greater	-3278
▁married	-3279
▁positions	-3280
gen	-3281
not	-3282
▁45	-3283
▁Ma	-3284
▁300	-3285
▁inn	-3286
aches	-3287
anced	-3288
inent	-3289
▁Ital	-3290
▁compared	-3291
sen	-3292
umn	-3293
▁")	-3294
▁BC	-3295
ills	-3296
▁Mer	-3297
▁che	-3298
▁got	-3299
▁our	-3300
▁Fore	-3301
▁cred	-3302
▁dram	-3303
▁2013,	-3304
▁thick	-3305
▁centre	-3306
▁earned	-3307
▁flight	-3308
▁Christm	-3309
▁buildings	-3310
unt	-3311
aily	-3312
gian	-3313
▁big	-3314
▁env	-3315
▁sus	-3316
▁tar	-3317
▁yet	-3318
erset	-3319
▁2013	-3320
▁Tour	-3321
▁Three	-3322
▁party	-3323
▁rapid	-3324
▁upper	-3325
▁begins	-3326
▁double	-3327
▁issued	-3328
▁counter	-3329
▁Somerset	-3330
▁personal	-3331
▁standard	-3332
AS	-3333
▁80	-3334
well	-3335
▁400	-3336
▁Pat	-3337
▁box	-3338
▁log	-3339
ittee	-3340
▁Cour	-3341
▁Mart	-3342
▁acqu	-3343
▁kind	-3344
▁Busch	-3345
▁Texas	-3346
▁purch	-3347
▁terms	-3348
▁throw	-3349
▁living	-3350
▁directly	-3351
dle	-3352
ails	-3353
amer	-3354
▁Bel	-3355
▁Mil	-3356
▁ult	-3357
▁1970	-3358
▁Lady	-3359
▁hero	-3360
▁books	-3361
▁nucle	-3362
▁Mosley	-3363
▁Taylor	-3364
▁health	-3365
▁marked	-3366
▁market	-3367
▁scenes	-3368
▁status	-3369
▁marriage	-3370
▁movement	-3371
anks	-3372
▁Str	-3373
anish	-3374
▁Tenn	-3375
▁helped	-3376
▁slight	-3377
▁Several	-3378
▁concept	-3379
▁+	-3380
▁Sk	-3381
umed	-3382
▁dom	-3383
▁1960	-3384
▁1990	-3385
▁Back	-3386
▁Lake	-3387
▁tell	-3388
▁sched	-3389
▁Fowler	-3390
▁batter	-3391
▁experi	-3392
▁African	-3393
▁attacks	-3394
▁planned	-3395
▁portray	-3396
▁schools	-3397
▁Tropical	-3398
▁starting	-3399
▁suffered	-3400
▁Christmas	-3401
▁information	-3402
▁traditional	-3403
▁4.	-3404
▁Go	-3405
itor	-3406
▁dig	-3407
▁1980	-3408
▁speed	-3409
▁figure	-3410
▁inspired	-3411
▁associated	-3412
▁performances	-3413
ma	-3414
▁Tre	-3415
▁jud	-3416
▁und	-3417
itude	-3418
▁(199	-3419
istics	-3420
▁closed	-3421
▁giving	-3422
▁source	-3423
▁abandon	-3424
▁condoms	-3425
▁husband	-3426
▁leaders	-3427
▁Infantry	-3428
▁division	-3429
▁presented	-3430
2)	-3431
▁x	-3432
▁Tw	-3433
▁Pit	-3434
▁mur	-3435
▁via	-3436
athan	-3437
▁Foot	-3438
▁dark	-3439
▁Party	-3440
▁raised	-3441
▁initial	-3442
▁greatest	-3443
▁presence	-3444
awn	-3445
▁(5	-3446
▁Sam	-3447
embly	-3448
▁Arch	-3449
▁Vict	-3450
▁room	-3451
▁unit	-3452
▁uses	-3453
▁wound	-3454
▁nearby	-3455
▁machine	-3456
▁writers	-3457
▁Carolina	-3458
▁Virginia	-3459
▁continue	-3460
▁determin	-3461
▁document	-3462
▁education	-3463
ks	-3464
ón	-3465
ken	-3466
▁4,	-3467
▁Jo	-3468
iami	-3469
iant	-3470
iser	-3471
▁uns	-3472
aught	-3473
▁dism	-3474
▁Cross	-3475
▁image	-3476
▁Soviet	-3477
▁cyclone	-3478
▁collection	-3479
olk	-3480
raf	-3481
cing	-3482
incip	-3483
▁plot	-3484
▁rein	-3485
▁weap	-3486
▁Paris	-3487
▁chall	-3488
itation	-3489
▁Series	-3490
▁annual	-3491
▁College	-3492
▁Command	-3493
▁complex	-3494
▁hundred	-3495
▁Rosebery	-3496
▁services	-3497
atre	-3498
erve	-3499
eway	-3500
▁Bob	-3501
▁Boy	-3502
▁Live	-3503
▁norm	-3504
▁polic	-3505
oration	-3506
ylvania	-3507
▁bodies	-3508
▁really	-3509
▁covered	-3510
▁figures	-3511
▁extended	-3512
▁numerous	-3513
▁producer	-3514
▁cathedral	-3515
▁territory	-3516
joy	-3517
mon	-3518
oncé	-3519
▁Ant	-3520
▁Ben	-3521
▁Jam	-3522
▁tor	-3523
aging	-3524
icted	-3525
▁Just	-3526
▁fell	-3527
▁park	-3528
▁path	-3529
▁Penns	-3530
▁Storm	-3531
▁enjoy	-3532
▁Museum	-3533
▁depend	-3534
▁things	-3535
▁composed	-3536
▁proteins	-3537
adm	-3538
essa	-3539
etic	-3540
▁Six	-3541
▁sev	-3542
anded	-3543
ously	-3544
rical	-3545
▁2005	-3546
▁Jane	-3547
▁Open	-3548
▁Miami	-3549
▁vocals	-3550
▁waters	-3551
▁operation	-3552
anz	-3553
ift	-3554
▁Club	-3555
▁prep	-3556
▁Queen	-3557
▁Their	-3558
estival	-3559
▁impact	-3560
▁Germany	-3561
▁Nations	-3562
▁Through	-3563
▁morning	-3564
▁request	-3565
▁attacked	-3566
▁attempts	-3567
▁investig	-3568
▁strength	-3569
▁commander	-3570
▁companies	-3571
NA	-3572
bar	-3573
lim	-3574
▁75	-3575
▁metal	-3576
▁confir	-3577
▁financ	-3578
▁highly	-3579
▁reject	-3580
▁Beyoncé	-3581
▁Service	-3582
▁something	-3583
▁individual	-3584
ses	-3585
anas	-3586
erbe	-3587
▁Cer	-3588
▁Inn	-3589
▁era	-3590
ademy	-3591
uries	-3592
▁dise	-3593
▁talk	-3594
admium	-3595
▁Prince	-3596
▁aspect	-3597
▁necess	-3598
▁interse	-3599
▁removed	-3600
▁allowing	-3601
▁distance	-3602
▁powerful	-3603
▁situation	-3604
ny	-3605
apo	-3606
ipp	-3607
ibly	-3608
▁Rob	-3609
▁pil	-3610
vement	-3611
▁habit	-3612
▁stone	-3613
▁artist	-3614
▁except	-3615
▁inside	-3616
▁needed	-3617
▁peaked	-3618
▁advance	-3619
▁offered	-3620
▁recover	-3621
▁studies	-3622
▁variety	-3623
▁Squadron	-3624
▁interact	-3625
▁selected	-3626
▁immediately	-3627
TV	-3628
olf	-3629
chan	-3630
pted	-3631
▁Ill	-3632
▁hot	-3633
ether	-3634
track	-3635
▁2004	-3636
▁rate	-3637
▁Games	-3638
▁Somal	-3639
▁Water	-3640
▁incor	-3641
▁attend	-3642
▁copies	-3643
▁nuclear	-3644
▁Scotland	-3645
▁artillery	-3646
▁attempted	-3647
▁countries	-3648
▁Pennsylvania	-3649
▁headquarters	-3650
01	-3651
cer	-3652
rol	-3653
▁Sur	-3654
▁saf	-3655
adium	-3656
▁kick	-3657
▁purp	-3658
▁coach	-3659
▁hands	-3660
▁means	-3661
▁casual	-3662
▁native	-3663
▁search	-3664
ribution	-3665
▁Jackson	-3666
▁scoring	-3667
▁architect	-3668
▁responsible	-3669
een	-3670
rey	-3671
like	-3672
pole	-3673
▁Los	-3674
▁Out	-3675
lands	-3676
▁Both	-3677
▁mole	-3678
▁purs	-3679
▁symb	-3680
lement	-3681
▁2006,	-3682
▁higher	-3683
▁tracks	-3684
▁widely	-3685
▁princip	-3686
▁touchdown	-3687
▁Department	-3688
ha	-3689
ria	-3690
▁(6	-3691
cend	-3692
▁Hum	-3693
andid	-3694
imony	-3695
ports	-3696
▁Jose	-3697
▁rule	-3698
▁sets	-3699
▁text	-3700
orship	-3701
▁2012,	-3702
▁Corps	-3703
▁Inter	-3704
▁advant	-3705
▁course	-3706
▁sexual	-3707
▁transl	-3708
▁heavily	-3709
▁Anderson	-3710
▁Football	-3711
▁observed	-3712
▁describes	-3713
▁controvers	-3714
▁appearances	-3715
▁respectively	-3716
oud	-3717
anta	-3718
reme	-3719
▁Nor	-3720
▁amb	-3721
▁Crit	-3722
▁pick	-3723
▁spir	-3724
▁Braat	-3725
▁genus	-3726
▁middle	-3727
▁relief	-3728
▁meeting	-3729
▁reduced	-3730
▁ang	-3731
▁boy	-3732
▁Alex	-3733
▁plat	-3734
icient	-3735
▁adult	-3736
▁xenon	-3737
▁intern	-3738
▁secret	-3739
▁matches	-3740
▁administ	-3741
▁audience	-3742
▁resulted	-3743
▁concluded	-3744
ils	-3745
iny	-3746
lict	-3747
ship	-3748
▁Are	-3749
▁sal	-3750
cause	-3751
▁1950	-3752
▁Like	-3753
▁Time	-3754
▁phot	-3755
▁true	-3756
nesota	-3757
▁Major	-3758
▁below	-3759
▁lands	-3760
▁Victor	-3761
▁active	-3762
▁singer	-3763
▁activity	-3764
▁activities	-3765
▁completely	-3766
aen	-3767
car	-3768
cts	-3769
iqu	-3770
▁AI	-3771
▁Dan	-3772
akapo	-3773
inkel	-3774
▁Franc	-3775
▁piano	-3776
▁sixth	-3777
▁stating	-3778
▁opportun	-3779
▁revealed	-3780
▁Minnesota	-3781
▁contemporary	-3782
ga	-3783
▁6,	-3784
send	-3785
▁Sea	-3786
▁Tem	-3787
▁ess	-3788
isher	-3789
▁hour	-3790
atives	-3791
ricket	-3792
▁China	-3793
▁trees	-3794
▁levels	-3795
▁quality	-3796
▁refused	-3797
▁Townsend	-3798
▁declared	-3799
ems	-3800
gal	-3801
ocr	-3802
▁pu	-3803
rowd	-3804
▁bad	-3805
anger	-3806
annel	-3807
iated	-3808
▁fill	-3809
▁Colon	-3810
▁graph	-3811
ication	-3812
ologist	-3813
▁Center	-3814
▁Because	-3815
▁Spanish	-3816
▁constit	-3817
▁managed	-3818
▁question	-3819
▁separate	-3820
ex	-3821
ify	-3822
aped	-3823
▁Del	-3824
▁Sir	-3825
ining	-3826
peror	-3827
▁Long	-3828
▁Midd	-3829
erbeer	-3830
▁Chris	-3831
▁Force	-3832
▁Hawai	-3833
▁blood	-3834
▁carry	-3835
▁model	-3836
▁shell	-3837
▁recent	-3838
▁Walpole	-3839
▁parents	-3840
▁Southern	-3841
▁approach	-3842
▁contrast	-3843
inkelstein	-3844
▁background	-3845
▁historical	-3846
▁university	-3847
oph	-3848
▁Li	-3849
ares	-3850
nown	-3851
▁(0.	-3852
▁30,	-3853
athus	-3854
▁Smith	-3855
▁instit	-3856
▁multip	-3857
▁Italian	-3858
▁Ottoman	-3859
▁actions	-3860
▁descript	-3861
▁expected	-3862
▁conditions	-3863
ev	-3864
▁70	-3865
▁90	-3866
alty	-3867
oint	-3868
rawn	-3869
utch	-3870
▁(1.	-3871
▁Bet	-3872
▁ris	-3873
▁tax	-3874
force	-3875
ounds	-3876
▁Mill	-3877
▁blue	-3878
▁drum	-3879
▁entr	-3880
▁paper	-3881
▁peace	-3882
▁plays	-3883
▁Nicole	-3884
▁houses	-3885
▁weaken	-3886
▁assault	-3887
▁becomes	-3888
▁efforts	-3889
▁Meyerbeer	-3890
▁attention	-3891
▁reception	-3892
▁Finkelstein	-3893
cle	-3894
hew	-3895
ican	-3896
▁rhy	-3897
▁wit	-3898
▁Cast	-3899
▁emot	-3900
▁iron	-3901
▁webs	-3902
▁wing	-3903
▁Shiva	-3904
▁Tessa	-3905
▁grand	-3906
▁offer	-3907
▁compos	-3908
▁nation	-3909
▁specim	-3910
▁strugg	-3911
▁residents	-3912
isl	-3913
▁7,	-3914
ging	-3915
rate	-3916
▁Emp	-3917
▁Sol	-3918
▁lot	-3919
shire	-3920
ufact	-3921
▁magn	-3922
▁narr	-3923
▁sense	-3924
▁vehic	-3925
▁consec	-3926
▁issues	-3927
ervation	-3928
▁Society	-3929
▁calling	-3930
▁Braathens	-3931
▁typically	-3932
▁soundtrack	-3933
bed	-3934
eds	-3935
ware	-3936
▁roy	-3937
▁2000	-3938
▁hair	-3939
▁task	-3940
▁Court	-3941
▁brown	-3942
▁roles	-3943
▁today	-3944
▁write	-3945
▁cannot	-3946
▁struck	-3947
▁demonst	-3948
▁seasons	-3949
▁accepted	-3950
▁achieved	-3951
▁featuring	-3952
ado	-3953
icip	-3954
▁Dam	-3955
▁Jim	-3956
▁Lit	-3957
▁Yue	-3958
▁lif	-3959
▁pow	-3960
arent	-3961
▁Hait	-3962
▁Wild	-3963
▁bene	-3964
▁resc	-3965
▁subs	-3966
▁wear	-3967
▁famil	-3968
▁instr	-3969
▁vocal	-3970
▁athlet	-3971
▁mainly	-3972
▁recomm	-3973
▁titles	-3974
▁Highway	-3975
▁protein	-3976
▁viewers	-3977
▁practice	-3978
FA	-3979
ply	-3980
▁ge	-3981
aine	-3982
hood	-3983
imin	-3984
rial	-3985
road	-3986
writ	-3987
▁182	-3988
▁Dem	-3989
▁Nes	-3990
appen	-3991
ellig	-3992
▁beat	-3993
▁corn	-3994
▁elev	-3995
onents	-3996
▁avoid	-3997
▁crowd	-3998
▁thous	-3999
▁Illino	-4000
▁scient	-4001
▁Johnson	-4002
▁Vietnam	-4003
▁fiction	-4004
▁respond	-4005
▁actually	-4006
▁Government	-4007
uese	-4008
venue	-4009
▁Balt	-4010
▁Blue	-4011
▁Dire	-4012
▁board	-4013
▁types	-4014
essions	-4015
▁combat	-4016
▁spread	-4017
▁twenty	-4018
▁Academy	-4019
▁Thunder	-4020
▁sequence	-4021
▁slightly	-4022
▁Of	-4023
▁du	-4024
anes	-4025
ding	-4026
hold	-4027
▁Fey	-4028
▁Gar	-4029
▁Rev	-4030
▁nin	-4031
acher	-4032
itual	-4033
▁News	-4034
▁chem	-4035
▁Civil	-4036
▁owned	-4037
▁plant	-4038
▁sales	-4039
▁scale	-4040
▁sport	-4041
▁inches	-4042
▁rights	-4043
▁sister	-4044
ulations	-4045
▁Captain	-4046
▁concent	-4047
▁elected	-4048
▁expressed	-4049
▁northeast	-4050
▁offensive	-4051
MS	-4052
ād	-4053
▁5.	-4054
Mont	-4055
▁Ram	-4056
▁Tod	-4057
estic	-4058
▁1930	-4059
▁Adam	-4060
▁scul	-4061
ceeded	-4062
ograph	-4063
▁Charl	-4064
▁Group	-4065
▁neigh	-4066
▁words	-4067
▁Columb	-4068
▁Review	-4069
▁showed	-4070
cription	-4071
▁affected	-4072
▁infantry	-4073
▁Portuguese	-4074
uit	-4075
▁Er	-4076
▁lb	-4077
bury	-4078
eter	-4079
▁max	-4080
ledge	-4081
light	-4082
ushed	-4083
▁Land	-4084
▁sout	-4085
▁Horse	-4086
▁Louis	-4087
▁rough	-4088
▁Engine	-4089
▁altern	-4090
▁window	-4091
▁ability	-4092
▁officer	-4093
▁combined	-4094
▁battalion	-4095
▁primarily	-4096
);	-4097
nh	-4098
aha	-4099
▁-,	-4100
▁Ty	-4101
elsh	-4102
ingu	-4103
room	-4104
▁Mog	-4105
▁pun	-4106
▁spl	-4107
▁suc	-4108
anasi	-4109
arrow	-4110
house	-4111
intin	-4112
umber	-4113
▁Zhou	-4114
▁prec	-4115
▁rear	-4116
▁sust	-4117
▁walk	-4118
▁Spain	-4119
▁horse	-4120
onymous	-4121
▁Empire	-4122
▁Though	-4123
▁Tintin	-4124
▁county	-4125
▁themes	-4126
▁Varanasi	-4127
▁cultural	-4128
▁incorpor	-4129
▁progress	-4130
▁casualties	-4131
AA	-4132
BA	-4133
mun	-4134
bitt	-4135
emic	-4136
▁Jul	-4137
▁Cont	-4138
▁Dist	-4139
▁Young	-4140
▁excav	-4141
▁murder	-4142
▁remark	-4143
ironment	-4144
▁Angeles	-4145
▁ancient	-4146
▁produce	-4147
▁earliest	-4148
▁mountain	-4149
▁continues	-4150
▁newspaper	-4151
▁recommend	-4152
tic	-4153
vin	-4154
▁Kr	-4155
omer	-4156
oses	-4157
pedo	-4158
▁Mal	-4159
▁hol	-4160
▁inh	-4161
known	-4162
while	-4163
▁Conf	-4164
▁says	-4165
▁Ceres	-4166
▁actor	-4167
▁fruit	-4168
▁fully	-4169
▁Commun	-4170
▁Little	-4171
▁Secret	-4172
▁titled	-4173
aenathus	-4174
▁Nesbitt	-4175
▁Olympic	-4176
▁Records	-4177
▁adopted	-4178
▁artists	-4179
▁distinct	-4180
▁flooding	-4181
▁manufact	-4182
▁mentioned	-4183
▁resulting	-4184
▁influenced	-4185
▁authorities	-4186
▁championship	-4187
▁Add	-4188
▁dyn	-4189
arnia	-4190
enant	-4191
▁2001	-4192
▁2003	-4193
▁Book	-4194
utions	-4195
▁Green	-4196
▁basis	-4197
▁cerem	-4198
▁DuMont	-4199
▁Sarnia	-4200
▁square	-4201
▁disease	-4202
▁mission	-4203
▁reports	-4204
▁Odaenathus	-4205
▁represented	-4206
▁33	-4207
ovic	-4208
▁Eva	-4209
▁Home	-4210
▁Turn	-4211
▁repe	-4212
▁Perón	-4213
▁alone	-4214
▁tower	-4215
▁coming	-4216
▁toward	-4217
▁defense	-4218
▁letters	-4219
anchester	-4220
▁advantage	-4221
▁tournament	-4222
imb	-4223
nds	-4224
▁Om	-4225
bird	-4226
▁181	-4227
▁Bol	-4228
▁Def	-4229
▁Sal	-4230
▁har	-4231
▁qual	-4232
▁Apple	-4233
▁Trans	-4234
▁armed	-4235
▁exhib	-4236
▁reign	-4237
▁sides	-4238
▁Andrew	-4239
▁Origin	-4240
▁bridge	-4241
▁encour	-4242
▁kakapo	-4243
▁torpedo	-4244
▁workers	-4245
▁Illinois	-4246
▁apparent	-4247
▁occasion	-4248
▁withdraw	-4249
▁northwest	-4250
▁relatively	-4251
▁Thunderbird	-4252
mir	-4253
▁32	-4254
▁fa	-4255
born	-4256
helm	-4257
ocks	-4258
orus	-4259
▁(201	-4260
▁Burn	-4261
▁Post	-4262
▁nest	-4263
▁2007.	-4264
▁Mogad	-4265
▁grass	-4266
▁legal	-4267
▁tried	-4268
▁losing	-4269
▁mechan	-4270
▁narrow	-4271
▁termin	-4272
▁cadmium	-4273
▁capture	-4274
▁contain	-4275
▁founded	-4276
▁attended	-4277
▁alongside	-4278
▁direction	-4279
▁organized	-4280
▁transferred	-4281
lin	-4282
▁Av	-4283
osen	-4284
eller	-4285
▁Four	-4286
▁Fred	-4287
▁mess	-4288
▁mile	-4289
▁Clark	-4290
▁Ocean	-4291
▁royal	-4292
▁acting	-4293
▁effort	-4294
▁perman	-4295
▁proved	-4296
▁yellow	-4297
▁contact	-4298
▁edition	-4299
▁measure	-4300
▁require	-4301
ashington	-4302
▁physical	-4303
▁officials	-4304
▁officially	-4305
▁individuals	-4306
▁surrounding	-4307
▁47	-4308
ogue	-4309
▁Dou	-4310
▁Rad	-4311
▁Way	-4312
▁eye	-4313
abama	-4314
right	-4315
usion	-4316
▁Spec	-4317
▁edge	-4318
▁emph	-4319
▁prin	-4320
▁rang	-4321
▁thir	-4322
ricult	-4323
▁Omaha	-4324
▁Produ	-4325
▁lives	-4326
▁Middle	-4327
▁candid	-4328
▁couple	-4329
▁energy	-4330
▁illust	-4331
▁Alabama	-4332
▁conflict	-4333
▁rainfall	-4334
▁dedicated	-4335
▁Washington	-4336
ien	-4337
wen	-4338
adel	-4339
▁Arg	-4340
▁Mean	-4341
ension	-4342
▁doing	-4343
▁starl	-4344
▁prepar	-4345
▁follows	-4346
▁shortly	-4347
▁Reception	-4348
▁financial	-4349
▁intensity	-4350
mit	-4351
ols	-4352
uff	-4353
▁ir	-4354
ishu	-4355
mond	-4356
oper	-4357
rane	-4358
▁Jos	-4359
▁Sch	-4360
▁ven	-4361
ading	-4362
prise	-4363
▁paid	-4364
▁youn	-4365
▁your	-4366
▁Helms	-4367
▁faced	-4368
▁older	-4369
▁shape	-4370
▁images	-4371
▁simply	-4372
▁winter	-4373
▁divided	-4374
▁pattern	-4375
▁society	-4376
▁sources	-4377
▁Manchester	-4378
ML	-4379
▁6.	-4380
▁vo	-4381
lied	-4382
▁aid	-4383
▁hun	-4384
▁ple	-4385
▁rat	-4386
orses	-4387
▁Carl	-4388
▁Lord	-4389
▁kept	-4390
▁onto	-4391
▁raid	-4392
▁step	-4393
▁Innis	-4394
▁behav	-4395
▁Histor	-4396
▁border	-4397
▁comedy	-4398
▁dissip	-4399
▁emphas	-4400
▁places	-4401
▁journal	-4402
▁portion	-4403
▁function	-4404
▁possibly	-4405
▁Mogadishu	-4406
▁potential	-4407
▁determined	-4408
rat	-4409
use	-4410
▁44	-4411
▁25,	-4412
ental	-4413
imore	-4414
▁2015	-4415
▁Cons	-4416
▁Fant	-4417
▁Fleet	-4418
▁chief	-4419
▁piece	-4420
▁Edward	-4421
▁advert	-4422
▁albums	-4423
▁argued	-4424
▁broken	-4425
▁charge	-4426
▁cities	-4427
▁Wilhelm	-4428
▁maximum	-4429
▁protect	-4430
▁univers	-4431
▁Commission	-4432
50	-4433
ada	-4434
ugby	-4435
▁15,	-4436
▁Bre	-4437
▁thr	-4438
▁Kent	-4439
▁folk	-4440
▁grew	-4441
▁mind	-4442
▁wild	-4443
ihanna	-4444
▁2015,	-4445
▁PlayS	-4446
▁color	-4447
▁depth	-4448
▁heart	-4449
▁movie	-4450
▁sites	-4451
▁Argent	-4452
▁Joseph	-4453
▁McCall	-4454
▁content	-4455
▁Assembly	-4456
▁domestic	-4457
▁projects	-4458
▁suggests	-4459
▁authority	-4460
▁designated	-4461
▁PlayStation	-4462
rid	-4463
▁42	-4464
iled	-4465
lies	-4466
onna	-4467
▁Max	-4468
▁dut	-4469
▁wor	-4470
claim	-4471
▁wave	-4472
▁weak	-4473
▁Journ	-4474
▁feder	-4475
acement	-4476
lection	-4477
▁Hamels	-4478
▁Valley	-4479
▁belong	-4480
▁depart	-4481
▁gained	-4482
▁legisl	-4483
▁letter	-4484
▁prison	-4485
▁sculpt	-4486
▁schedul	-4487
▁science	-4488
▁website	-4489
▁entrance	-4490
▁criticized	-4491
▁management	-4492
▁structures	-4493
▁ultimately	-4494
je	-4495
▁NC	-4496
edar	-4497
▁().	-4498
▁fit	-4499
▁sac	-4500
ening	-4501
ented	-4502
▁Week	-4503
▁doub	-4504
▁neut	-4505
▁roll	-4506
▁vess	-4507
▁extra	-4508
▁homes	-4509
▁paint	-4510
▁share	-4511
▁twice	-4512
▁Common	-4513
▁Palest	-4514
▁museum	-4515
▁target	-4516
▁causing	-4517
▁debuted	-4518
▁results	-4519
▁formation	-4520
▁containing	-4521
edk	-4522
wide	-4523
▁Hal	-4524
▁Jup	-4525
▁Tru	-4526
▁agg	-4527
white	-4528
▁Writ	-4529
▁opin	-4530
edkare	-4531
enture	-4532
▁artic	-4533
▁label	-4534
▁chosen	-4535
▁Rihanna	-4536
▁defence	-4537
▁foreign	-4538
▁Constant	-4539
▁Djedkare	-4540
▁Independ	-4541
▁hospital	-4542
▁defensive	-4543
VD	-4544
ani	-4545
mes	-4546
▁kg	-4547
acks	-4548
asty	-4549
bour	-4550
resh	-4551
umes	-4552
▁Cra	-4553
▁DVD	-4554
▁Fer	-4555
▁Lew	-4556
▁Van	-4557
▁Bowl	-4558
▁Mass	-4559
▁core	-4560
▁frag	-4561
▁inch	-4562
▁mouth	-4563
▁Torres	-4564
▁animal	-4565
▁buried	-4566
▁battles	-4567
▁brigade	-4568
▁dismiss	-4569
▁granted	-4570
▁growing	-4571
▁rejected	-4572
▁security	-4573
▁standing	-4574
▁Baltimore	-4575
▁abandoned	-4576
▁prominent	-4577
▁reference	-4578
▁consecutive	-4579
60	-4580
▁52	-4581
▁8,	-4582
▁9,	-4583
▁MD	-4584
▁Rh	-4585
▁SR	-4586
▁Sar	-4587
▁Sen	-4588
▁Ven	-4589
inary	-4590
stone	-4591
▁Gall	-4592
▁Once	-4593
▁2009.	-4594
▁cells	-4595
▁claims	-4596
▁colony	-4597
▁deploy	-4598
▁orders	-4599
▁visited	-4600
▁therefore	-4601
▁organization	-4602
Le	-4603
met	-4604
▁(9	-4605
igan	-4606
mark	-4607
phia	-4608
roll	-4609
▁Ann	-4610
▁Fam	-4611
▁Hib	-4612
▁Sil	-4613
▁rom	-4614
nding	-4615
▁risk	-4616
▁seek	-4617
▁spot	-4618
▁2014,	-4619
▁Night	-4620
▁broke	-4621
mission	-4622
▁master	-4623
▁temple	-4624
adelphia	-4625
▁Airport	-4626
▁Eastern	-4627
▁Jupiter	-4628
▁regions	-4629
▁seconds	-4630
▁singles	-4631
▁student	-4632
▁wounded	-4633
▁Applewhite	-4634
▁independent	-4635
30	-4636
▁(,	-4637
▁Lo	-4638
ancy	-4639
iana	-4640
▁Cam	-4641
▁Lis	-4642
▁Pop	-4643
▁adj	-4644
▁fix	-4645
▁mel	-4646
▁Chap	-4647
▁Horn	-4648
▁Prem	-4649
▁solo	-4650
ertain	-4651
isters	-4652
▁Greek	-4653
▁Short	-4654
▁ahead	-4655
▁cases	-4656
▁enemy	-4657
▁enter	-4658
▁miner	-4659
▁seems	-4660
▁Forest	-4661
▁collect	-4662
▁versions	-4663
▁Institute	-4664
▁equipment	-4665
▁nominated	-4666
▁Background	-4667
▁identified	-4668
▁temperature	-4669
ech	-4670
ims	-4671
▁Ap	-4672
▁Hu	-4673
▁BBC	-4674
▁bott	-4675
▁aired	-4676
▁newly	-4677
▁Before	-4678
▁campus	-4679
▁height	-4680
▁moment	-4681
▁unique	-4682
▁Further	-4683
▁element	-4684
▁opposed	-4685
▁problem	-4686
▁Egyptian	-4687
▁collabor	-4688
▁intellig	-4689
▁condition	-4690
▁knowledge	-4691
▁returning	-4692
▁supporting	-4693
AFE	-4694
ety	-4695
▁wa	-4696
more	-4697
rete	-4698
uous	-4699
▁Big	-4700
▁Bir	-4701
▁Due	-4702
▁fle	-4703
▁tur	-4704
astic	-4705
atops	-4706
▁Each	-4707
▁SAFE	-4708
▁fear	-4709
▁jump	-4710
ocated	-4711
▁2008.	-4712
▁Child	-4713
▁dress	-4714
▁fired	-4715
▁males	-4716
▁Indust	-4717
▁conver	-4718
▁interp	-4719
▁planet	-4720
▁weight	-4721
▁Croatia	-4722
▁connect	-4723
▁looking	-4724
▁teacher	-4725
▁unknown	-4726
▁analysis	-4727
▁operated	-4728
▁reaching	-4729
▁increasingly	-4730
▁FA	-4731
iate	-4732
iles	-4733
▁Att	-4734
▁Tri	-4735
▁shr	-4736
▁tun	-4737
▁1940	-4738
▁2002	-4739
▁Good	-4740
▁Kore	-4741
▁here	-4742
asters	-4743
▁burns	-4744
▁defin	-4745
▁ideas	-4746
▁theory	-4747
▁writes	-4748
▁Cardiff	-4749
▁believe	-4750
▁council	-4751
▁accompan	-4752
▁breeding	-4753
▁confirmed	-4754
▁explained	-4755
▁historian	-4756
▁literature	-4757
▁settlement	-4758
▁environment	-4759
bon	-4760
ibr	-4761
igg	-4762
▁76	-4763
▁ox	-4764
hips	-4765
mosp	-4766
▁Lar	-4767
▁bud	-4768
▁oil	-4769
ortal	-4770
▁Dest	-4771
▁Lock	-4772
▁More	-4773
▁phil	-4774
▁Welsh	-4775
▁alter	-4776
▁molec	-4777
▁remix	-4778
▁arrest	-4779
▁atmosp	-4780
▁herself	-4781
▁perfect	-4782
▁singing	-4783
▁systems	-4784
▁Scottish	-4785
▁advanced	-4786
▁property	-4787
▁scholars	-4788
▁stations	-4789
▁consisted	-4790
▁controlled	-4791
▁Philadelphia	-4792
RA	-4793
yes	-4794
▁Ox	-4795
appy	-4796
▁Only	-4797
▁Swed	-4798
▁fast	-4799
alions	-4800
▁Keats	-4801
▁Public	-4802
▁growth	-4803
▁pieces	-4804
▁Mounted	-4805
▁cricket	-4806
▁dropped	-4807
▁failure	-4808
▁females	-4809
▁kilomet	-4810
▁economic	-4811
▁Entertain	-4812
▁Meanwhile	-4813
▁maintained	-4814
▁parliament	-4815
tav	-4816
▁Es	-4817
▁Po	-4818
▁Us	-4819
odon	-4820
▁Bon	-4821
▁Pre	-4822
▁fox	-4823
▁pan	-4824
istry	-4825
lines	-4826
▁Even	-4827
▁Mike	-4828
▁sens	-4829
▁Class	-4830
▁Dutch	-4831
▁Never	-4832
▁compr	-4833
isation	-4834
▁Barrow	-4835
▁awards	-4836
▁compar	-4837
▁filmed	-4838
▁happen	-4839
▁injury	-4840
▁strike	-4841
▁deities	-4842
▁freeway	-4843
▁killing	-4844
▁pitched	-4845
▁Addition	-4846
▁commonly	-4847
▁creation	-4848
▁landfall	-4849
sw	-4850
agan	-4851
airs	-4852
oted	-4853
▁600	-4854
▁Bas	-4855
▁Jur	-4856
▁Pet	-4857
▁Sum	-4858
▁try	-4859
aling	-4860
ighth	-4861
orter	-4862
urban	-4863
▁Norm	-4864
▁Field	-4865
▁boats	-4866
▁conne	-4867
▁exped	-4868
▁honor	-4869
▁serve	-4870
▁speak	-4871
▁value	-4872
▁belief	-4873
▁horses	-4874
▁resemb	-4875
▁actress	-4876
▁battery	-4877
▁mounted	-4878
▁rapidly	-4879
▁retired	-4880
▁weapons	-4881
▁Congress	-4882
▁Williams	-4883
▁promoted	-4884
▁Operation	-4885
4)	-4886
lers	-4887
pass	-4888
▁Arm	-4889
▁Ban	-4890
▁Mat	-4891
ieval	-4892
▁2016	-4893
▁Morr	-4894
▁semi	-4895
▁stra	-4896
stream	-4897
▁2010.	-4898
▁Album	-4899
▁premi	-4900
▁Nathan	-4901
▁cougar	-4902
▁extend	-4903
▁passes	-4904
▁passing	-4905
▁selling	-4906
▁weather	-4907
▁Minister	-4908
▁creating	-4909
▁invasion	-4910
▁multiple	-4911
▁religion	-4912
▁straight	-4913
▁Americans	-4914
▁connected	-4915
▁promotion	-4916
▁recognized	-4917
▁description	-4918
▁publication	-4919
▁significantly	-4920
oty	-4921
▁";	-4922
haps	-4923
itch	-4924
▁"),	-4925
▁Abu	-4926
▁Jon	-4927
▁ast	-4928
▁bid	-4929
oured	-4930
▁Andy	-4931
▁bats	-4932
▁data	-4933
▁imag	-4934
▁pict	-4935
ampion	-4936
▁Guard	-4937
▁chose	-4938
▁walls	-4939
arrison	-4940
▁column	-4941
▁famous	-4942
▁humans	-4943
▁matter	-4944
▁sought	-4945
▁volume	-4946
▁aspects	-4947
▁deliver	-4948
▁federal	-4949
▁protest	-4950
▁seventh	-4951
▁prepared	-4952
▁necessary	-4953
▁producers	-4954
▁scheduled	-4955
▁Conference	-4956
▁popularity	-4957
gn	-4958
ano	-4959
▁',	-4960
crib	-4961
icks	-4962
uild	-4963
▁Sor	-4964
asure	-4965
ordon	-4966
▁cust	-4967
▁laid	-4968
▁rise	-4969
▁sand	-4970
heless	-4971
render	-4972
▁Final	-4973
▁flank	-4974
▁guest	-4975
▁spect	-4976
agement	-4977
▁flying	-4978
▁leader	-4979
▁starts	-4980
▁Develop	-4981
▁convers	-4982
▁landing	-4983
▁restaur	-4984
▁agricult	-4985
▁regarded	-4986
▁sustained	-4987
3)	-4988
,,,	-4989
apt	-4990
eer	-4991
ees	-4992
▁48	-4993
ella	-4994
ieut	-4995
▁HMS	-4996
▁tim	-4997
amese	-4998
ersey	-4999
izing	-5000
ulate	-5001
▁Bost	-5002
▁Gulf	-5003
▁Hart	-5004
▁fung	-5005
▁tact	-5006
▁Among	-5007
▁Italy	-5008
▁Steve	-5009
▁dated	-5010
▁delay	-5011
▁rival	-5012
clusion	-5013
▁castle	-5014
▁fought	-5015
▁philos	-5016
ographer	-5017
▁nucleus	-5018
▁Michigan	-5019
▁employed	-5020
▁families	-5021
▁reaction	-5022
ads	-5023
isy	-5024
uge	-5025
▁39	-5026
appe	-5027
▁Rog	-5028
ambod	-5029
inity	-5030
▁Jeff	-5031
▁Line	-5032
▁Slam	-5033
▁arms	-5034
▁ends	-5035
▁virt	-5036
ansion	-5037
▁Haven	-5038
▁beaut	-5039
▁drive	-5040
▁phase	-5041
▁strik	-5042
▁train	-5043
▁Cambod	-5044
▁budget	-5045
▁rating	-5046
▁supply	-5047
heastern	-5048
▁contained	-5049
▁Vietnamese	-5050
▁facilities	-5051
▁frequently	-5052
▁underground	-5053
▁Thunderbirds	-5054
cy	-5055
che	-5056
omy	-5057
▁37	-5058
▁Ul	-5059
▁180	-5060
▁700	-5061
▁Pho	-5062
▁Sat	-5063
iring	-5064
stead	-5065
▁bank	-5066
▁drop	-5067
▁save	-5068
▁tree	-5069
insula	-5070
itable	-5071
▁clean	-5072
▁finds	-5073
▁gradu	-5074
▁trial	-5075
▁Athlet	-5076
▁actors	-5077
▁allows	-5078
▁bottom	-5079
▁degree	-5080
▁reform	-5081
▁spring	-5082
▁Festival	-5083
▁negative	-5084
▁collected	-5085
▁currently	-5086
▁contributed	-5087
▁(7	-5088
▁Gi	-5089
amic	-5090
aved	-5091
illo	-5092
then	-5093
▁Che	-5094
▁Naz	-5095
▁sen	-5096
olved	-5097
onent	-5098
orney	-5099
▁Girl	-5100
▁fict	-5101
▁unus	-5102
▁cited	-5103
▁fresh	-5104
▁outer	-5105
▁Friend	-5106
▁Oxford	-5107
▁shaped	-5108
▁silver	-5109
standing	-5110
▁Between	-5111
▁Premier	-5112
▁Studios	-5113
▁animals	-5114
ieutenant	-5115
▁computer	-5116
▁entirely	-5117
▁improved	-5118
▁effective	-5119
▁executive	-5120
▁Revolution	-5121
▁subsequent	-5122
asc	-5123
alle	-5124
rain	-5125
yond	-5126
▁12,	-5127
▁Den	-5128
▁End	-5129
▁Sha	-5130
▁bow	-5131
▁mob	-5132
▁Stan	-5133
▁Work	-5134
▁gain	-5135
angers	-5136
ashion	-5137
ushing	-5138
▁2011.	-5139
▁Coast	-5140
▁Crazy	-5141
▁Lewis	-5142
▁Video	-5143
▁draft	-5144
▁gives	-5145
▁opera	-5146
▁Boston	-5147
▁Gordon	-5148
▁Muslim	-5149
▁beyond	-5150
▁express	-5151
▁medical	-5152
▁recently	-5153
▁extensive	-5154
▁gradually	-5155
▁kilometres	-5156
▁Entertainment	-5157
ki	-5158
azz	-5159
cel	-5160
see	-5161
thur	-5162
▁Les	-5163
▁Pen	-5164
▁egg	-5165
ansas	-5166
ocked	-5167
▁Gard	-5168
▁Jain	-5169
iments	-5170
ropium	-5171
▁2005,	-5172
▁Boise	-5173
▁Today	-5174
▁dates	-5175
▁Turner	-5176
▁finals	-5177
▁severe	-5178
▁simple	-5179
▁stages	-5180
▁finding	-5181
▁notable	-5182
▁reflect	-5183
▁antimony	-5184
▁expanded	-5185
▁programs	-5186
rong	-5187
unte	-5188
▁(3.	-5189
▁20,	-5190
▁Jes	-5191
▁Obs	-5192
▁bit	-5193
▁ham	-5194
ishes	-5195
▁Rail	-5196
▁boat	-5197
▁tail	-5198
▁Mario	-5199
▁camer	-5200
▁comes	-5201
▁corre	-5202
▁items	-5203
▁occas	-5204
▁System	-5205
▁serving	-5206
▁occupied	-5207
▁centuries	-5208
▁secondary	-5209
▁composition	-5210
de	-5211
ero	-5212
oys	-5213
sea	-5214
udd	-5215
ánh	-5216
āda	-5217
▁mo	-5218
berg	-5219
weet	-5220
▁Leg	-5221
▁mig	-5222
▁wed	-5223
rence	-5224
▁Cold	-5225
▁Sund	-5226
▁Turk	-5227
▁Upon	-5228
▁farm	-5229
▁sole	-5230
ancing	-5231
unicip	-5232
urches	-5233
▁Khánh	-5234
▁chair	-5235
▁daily	-5236
▁floor	-5237
▁naval	-5238
iations	-5239
unction	-5240
▁Democr	-5241
▁Martin	-5242
▁People	-5243
▁deaths	-5244
▁losses	-5245
▁slowly	-5246
▁decades	-5247
▁Magazine	-5248
▁Commander	-5249
▁criticism	-5250
▁treatment	-5251
▁experienced	-5252
▁commissioned	-5253
▁successfully	-5254
bl	-5255
hat	-5256
icc	-5257
kin	-5258
uli	-5259
ura	-5260
▁7.	-5261
▁RA	-5262
▁So	-5263
anny	-5264
inem	-5265
▁13,	-5266
▁fur	-5267
▁row	-5268
▁(198	-5269
▁2014	-5270
▁Anth	-5271
▁Chel	-5272
▁Cole	-5273
▁Greg	-5274
▁Juan	-5275
▁Jurc	-5276
▁Rome	-5277
▁dial	-5278
▁didn	-5279
▁mush	-5280
▁myth	-5281
▁trou	-5282
▁Songs	-5283
▁Stone	-5284
▁faith	-5285
▁squad	-5286
▁Avenue	-5287
▁policy	-5288
▁engaged	-5289
▁sentence	-5290
▁fictional	-5291
▁purchased	-5292
▁independence	-5293
TC	-5294
▁34	-5295
▁Id	-5296
▁ec	-5297
hess	-5298
iced	-5299
yson	-5300
▁(12	-5301
▁Cre	-5302
▁Der	-5303
▁unp	-5304
aming	-5305
▁coal	-5306
▁cool	-5307
▁Evita	-5308
▁Jamal	-5309
▁begun	-5310
▁negot	-5311
ategory	-5312
▁Bridge	-5313
▁chorus	-5314
▁prefer	-5315
▁propos	-5316
▁visual	-5317
▁captain	-5318
▁reasons	-5319
▁District	-5320
▁challeng	-5321
▁concrete	-5322
▁declined	-5323
▁personnel	-5324
▁southwest	-5325
▁worldwide	-5326
▁Throughout	-5327
▁,	-5328
lys	-5329
fort	-5330
▁14,	-5331
▁150	-5332
▁179	-5333
▁Bru	-5334
▁Kir	-5335
▁NBA	-5336
▁eas	-5337
▁fat	-5338
ublin	-5339
▁Bart	-5340
▁Isab	-5341
▁Matt	-5342
▁Vill	-5343
▁flag	-5344
perial	-5345
▁Crown	-5346
▁Domin	-5347
▁beach	-5348
▁drawn	-5349
▁roads	-5350
▁Dublin	-5351
▁escape	-5352
▁exclus	-5353
▁sports	-5354
ccessful	-5355
▁Science	-5356
▁briefly	-5357
▁organiz	-5358
▁Tennyson	-5359
▁protagon	-5360
▁importance	-5361
▁Ka	-5362
▁Kn	-5363
aret	-5364
▁800	-5365
▁Alf	-5366
▁Cub	-5367
▁Fox	-5368
▁arc	-5369
▁hyd	-5370
chers	-5371
▁Also	-5372
▁Head	-5373
▁calc	-5374
▁firm	-5375
▁tend	-5376
▁unsu	-5377
iences	-5378
lywood	-5379
▁2006.	-5380
▁MacLe	-5381
▁hired	-5382
borough	-5383
▁Daniel	-5384
▁Simone	-5385
▁concer	-5386
▁elimin	-5387
▁favour	-5388
▁street	-5389
▁Russian	-5390
▁arrival	-5391
▁billion	-5392
▁enjoyed	-5393
▁longest	-5394
▁nothing	-5395
▁witness	-5396
▁worship	-5397
▁incident	-5398
▁paintings	-5399
▁responded	-5400
▁foundation	-5401
▁accompanied	-5402
▁possibility	-5403
▁participated	-5404
acu	-5405
iro	-5406
▁Op	-5407
▁Ry	-5408
izes	-5409
▁26,	-5410
▁Igu	-5411
▁Liu	-5412
▁flu	-5413
▁gas	-5414
▁pul	-5415
▁Barb	-5416
▁Kang	-5417
▁bass	-5418
▁glob	-5419
▁note	-5420
▁2003,	-5421
▁Chart	-5422
▁Liber	-5423
▁guard	-5424
▁heard	-5425
▁labor	-5426
▁moves	-5427
▁stret	-5428
▁theat	-5429
▁wides	-5430
▁Temple	-5431
▁applic	-5432
▁decade	-5433
▁oldest	-5434
▁owners	-5435
▁senior	-5436
▁chapter	-5437
▁Governor	-5438
▁platform	-5439
▁agreement	-5440
▁Production	-5441
▁developing	-5442
ls	-5443
rum	-5444
▁Do	-5445
▁Hy	-5446
▁Ll	-5447
alls	-5448
apes	-5449
ayer	-5450
rang	-5451
▁18,	-5452
▁Dun	-5453
▁Key	-5454
▁Ret	-5455
▁Ron	-5456
▁hor	-5457
▁nor	-5458
iable	-5459
iance	-5460
pread	-5461
quake	-5462
▁1920	-5463
▁Area	-5464
▁Band	-5465
▁Five	-5466
▁Prov	-5467
▁Ulys	-5468
▁acad	-5469
▁mist	-5470
▁remn	-5471
▁skin	-5472
▁tall	-5473
▁trip	-5474
▁vert	-5475
▁2004,	-5476
▁Admir	-5477
▁Brian	-5478
▁Dougl	-5479
▁Chains	-5480
▁choice	-5481
▁dollar	-5482
▁lasted	-5483
▁normal	-5484
▁poetry	-5485
▁Instead	-5486
▁Ulysses	-5487
▁roughly	-5488
▁setting	-5489
▁Francisc	-5490
▁accident	-5491
▁athletes	-5492
▁consists	-5493
▁violence	-5494
▁dominated	-5495
▁existence	-5496
▁regarding	-5497
▁technology	-5498
▁Development	-5499
▁combination	-5500
▁populations	-5501
▁Cy	-5502
▁sn	-5503
adow	-5504
ager	-5505
iday	-5506
resp	-5507
usal	-5508
▁Aer	-5509
▁Ali	-5510
▁Ell	-5511
▁Isl	-5512
▁Mem	-5513
▁Mic	-5514
▁Mod	-5515
▁eth	-5516
antly	-5517
chest	-5518
lying	-5519
▁1995	-5520
▁Baby	-5521
▁Prot	-5522
▁isol	-5523
▁neck	-5524
▁2012.	-5525
▁Board	-5526
▁acres	-5527
▁calls	-5528
▁clubs	-5529
▁comic	-5530
▁adding	-5531
▁resear	-5532
▁reserv	-5533
▁Project	-5534
▁Theatre	-5535
▁Turkish	-5536
▁applied	-5537
▁closely	-5538
▁college	-5539
▁filming	-5540
▁habitat	-5541
▁existing	-5542
▁weakened	-5543
▁committee	-5544
▁performing	-5545
▁association	-5546
▁competitions	-5547
▁unsuccessful	-5548
eda	-5549
set	-5550
▁49	-5551
▁64	-5552
▁8.	-5553
aser	-5554
come	-5555
▁(1,	-5556
▁164	-5557
▁23,	-5558
▁Mur	-5559
▁Sus	-5560
▁aer	-5561
isers	-5562
▁Team	-5563
▁Iguan	-5564
▁Phill	-5565
▁altar	-5566
▁benef	-5567
▁decre	-5568
▁green	-5569
▁spons	-5570
▁tells	-5571
▁appeal	-5572
▁serves	-5573
▁submar	-5574
▁undert	-5575
▁MacLeod	-5576
▁capable	-5577
▁details	-5578
▁greatly	-5579
▁learned	-5580
▁neither	-5581
▁purpose	-5582
▁transit	-5583
▁ceremony	-5584
▁distingu	-5585
▁painting	-5586
▁provides	-5587
▁reinforce	-5588
▁battalions	-5589
▁opportunity	-5590
▁occasionally	-5591
▁administration	-5592
▁archaeological	-5593
era	-5594
iot	-5595
vis	-5596
▁UN	-5597
aver	-5598
bean	-5599
opes	-5600
▁Mov	-5601
istan	-5602
pring	-5603
▁Braz	-5604
▁Marl	-5605
▁ones	-5606
▁seat	-5607
▁sort	-5608
ection	-5609
ibbean	-5610
▁dance	-5611
▁overl	-5612
▁pilot	-5613
▁thing	-5614
▁towns	-5615
▁Bishop	-5616
▁bought	-5617
▁editor	-5618
▁fellow	-5619
▁headed	-5620
▁survey	-5621
▁Douglas	-5622
▁contrib	-5623
▁descend	-5624
▁innings	-5625
▁invited	-5626
▁paralle	-5627
▁reconst	-5628
▁speaking	-5629
▁supposed	-5630
▁Anonymous	-5631
▁Caribbean	-5632
▁encounter	-5633
▁receiving	-5634
▁storyline	-5635
▁technique	-5636
▁dissipated	-5637
▁sufficient	-5638
ía	-5639
ato	-5640
erc	-5641
win	-5642
▁CD	-5643
▁GA	-5644
▁Lu	-5645
▁ut	-5646
aton	-5647
ules	-5648
▁21,	-5649
▁AML	-5650
▁Men	-5651
▁seg	-5652
▁som	-5653
▁ton	-5654
ichol	-5655
inner	-5656
▁Asia	-5657
▁Dota	-5658
▁Life	-5659
▁door	-5660
▁drew	-5661
▁goes	-5662
▁Aston	-5663
▁Georg	-5664
▁Maria	-5665
▁drama	-5666
ountain	-5667
pective	-5668
▁astron	-5669
▁basket	-5670
▁branch	-5671
▁depict	-5672
▁filled	-5673
▁symbol	-5674
▁viewed	-5675
ographic	-5676
▁accompl	-5677
▁derived	-5678
▁fashion	-5679
▁islands	-5680
▁massive	-5681
▁perhaps	-5682
▁receive	-5683
▁stopped	-5684
▁typical	-5685
▁Cardinal	-5686
▁Mountain	-5687
▁anything	-5688
▁churches	-5689
▁survived	-5690
▁vehicles	-5691
▁classified	-5692
▁widespread	-5693
▁Constantine	-5694
hu	-5695
amy	-5696
ruli	-5697
▁Age	-5698
▁Gab	-5699
▁MTV	-5700
▁Rol	-5701
▁aim	-5702
▁why	-5703
arian	-5704
usted	-5705
uting	-5706
▁Leon	-5707
▁plum	-5708
▁ring	-5709
▁sail	-5710
ibrary	-5711
▁About	-5712
▁Maeda	-5713
▁Perry	-5714
▁truth	-5715
ructure	-5716
▁Family	-5717
▁Hibari	-5718
▁assass	-5719
▁motion	-5720
▁safety	-5721
▁trying	-5722
ications	-5723
▁Hornung	-5724
▁authors	-5725
▁digital	-5726
▁flights	-5727
▁missing	-5728
▁acquired	-5729
▁district	-5730
▁repeated	-5731
▁settlers	-5732
▁converted	-5733
▁household	-5734
▁southeast	-5735
▁protection	-5736
ala	-5737
ati	-5738
ips	-5739
pty	-5740
▁51	-5741
▁Ur	-5742
▁eu	-5743
▁ha	-5744
agle	-5745
gend	-5746
rait	-5747
thes	-5748
▁Ari	-5749
▁Ing	-5750
▁Ode	-5751
▁Rod	-5752
▁Tra	-5753
▁USA	-5754
▁Wat	-5755
essed	-5756
idges	-5757
iston	-5758
▁Bond	-5759
▁Bull	-5760
▁Kenn	-5761
▁Stev	-5762
▁Stew	-5763
▁What	-5764
▁roof	-5765
glades	-5766
▁2005.	-5767
▁Brook	-5768
▁Const	-5769
▁Qedar	-5770
▁evacu	-5771
▁turns	-5772
issance	-5773
respond	-5774
utation	-5775
▁Golden	-5776
▁Romani	-5777
▁Summer	-5778
▁finish	-5779
▁routes	-5780
entially	-5781
▁Anthony	-5782
▁Chelsea	-5783
▁Shortly	-5784
▁Stadium	-5785
▁focused	-5786
▁funding	-5787
▁holding	-5788
▁opinion	-5789
▁watched	-5790
▁wedding	-5791
▁arranged	-5792
▁baseball	-5793
▁depicted	-5794
▁planning	-5795
▁substant	-5796
▁locations	-5797
▁permanent	-5798
▁succeeded	-5799
▁atmosphere	-5800
▁experiment	-5801
VN	-5802
eed	-5803
inn	-5804
tty	-5805
▁65	-5806
iege	-5807
pson	-5808
▁120	-5809
▁177	-5810
▁Fre	-5811
▁Jud	-5812
▁Moz	-5813
▁Rio	-5814
▁Row	-5815
▁bul	-5816
▁cho	-5817
▁ign	-5818
▁rif	-5819
acity	-5820
▁Oslo	-5821
▁acid	-5822
▁bowl	-5823
▁fuel	-5824
▁knew	-5825
▁poly	-5826
bridge	-5827
▁Allied	-5828
▁Brazil	-5829
▁chance	-5830
▁shared	-5831
▁Fantasy	-5832
▁creator	-5833
▁decline	-5834
▁penalty	-5835
▁reality	-5836
▁spacing	-5837
▁resident	-5838
ifications	-5839
▁providing	-5840
▁Lieutenant	-5841
GN	-5842
▁#	-5843
uan	-5844
▁9.	-5845
▁Oh	-5846
iece	-5847
indu	-5848
okes	-5849
▁(11	-5850
▁ERA	-5851
▁IGN	-5852
▁mic	-5853
▁opt	-5854
idden	-5855
▁1998	-5856
▁Step	-5857
▁crop	-5858
▁grav	-5859
▁indu	-5860
▁laws	-5861
▁rich	-5862
▁ways	-5863
▁wins	-5864
ivered	-5865
▁Haiti	-5866
▁Hindu	-5867
▁Phoen	-5868
▁Simon	-5869
▁Venus	-5870
▁glass	-5871
▁heads	-5872
▁initi	-5873
▁inner	-5874
▁pregn	-5875
stances	-5876
uilding	-5877
▁Freder	-5878
▁assemb	-5879
▁dating	-5880
▁airport	-5881
▁charter	-5882
▁defined	-5883
▁supplies	-5884
▁Iguanodon	-5885
▁Secretary	-5886
▁delivered	-5887
▁separated	-5888
▁thousands	-5889
▁correspond	-5890
▁Additionally	-5891
BS	-5892
RE	-5893
ux	-5894
cki	-5895
isf	-5896
▁NH	-5897
agre	-5898
anda	-5899
outs	-5900
rons	-5901
rupt	-5902
▁Luc	-5903
▁Run	-5904
▁cit	-5905
▁dub	-5906
▁ice	-5907
▁rac	-5908
▁000.	-5909
▁100,	-5910
▁Arts	-5911
▁eyes	-5912
▁jack	-5913
▁rose	-5914
estone	-5915
inated	-5916
▁Gully	-5917
▁Homer	-5918
▁Radio	-5919
▁exact	-5920
▁rural	-5921
▁split	-5922
▁Sunday	-5923
▁explos	-5924
▁extrem	-5925
▁inspir	-5926
▁regime	-5927
▁secure	-5928
▁Friends	-5929
▁Rangers	-5930
▁Similar	-5931
▁Stevens	-5932
▁turning	-5933
▁Morrison	-5934
▁indicate	-5935
▁teaching	-5936
▁Committee	-5937
▁certified	-5938
▁commanded	-5939
▁remainder	-5940
▁Everglades	-5941
▁earthquake	-5942
▁instrument	-5943
▁opposition	-5944
▁Australians	-5945
gé	-5946
ky	-5947
sy	-5948
awa	-5949
ela	-5950
mod	-5951
rab	-5952
rug	-5953
▁Ly	-5954
itan	-5955
pany	-5956
▁19,	-5957
▁Gre	-5958
▁UTC	-5959
▁dog	-5960
▁eld	-5961
▁hat	-5962
jillo	-5963
▁Pers	-5964
▁drug	-5965
▁wick	-5966
▁Dream	-5967
▁Jones	-5968
▁aware	-5969
▁noisy	-5970
▁quite	-5971
▁urban	-5972
igation	-5973
▁Archae	-5974
▁affect	-5975
▁colour	-5976
▁courts	-5977
▁occurs	-5978
▁powers	-5979
▁valley	-5980
ologists	-5981
▁address	-5982
▁economy	-5983
▁emperor	-5984
▁journey	-5985
▁Columbia	-5986
▁Critical	-5987
▁Trujillo	-5988
▁attached	-5989
▁Alexander	-5990
▁highlight	-5991
▁surrender	-5992
▁technical	-5993
▁assistance	-5994
▁references	-5995
▁revolution	-5996
▁establishment	-5997
lik	-5998
▁Bh	-5999
aked	-6000
ippi	-6001
▁11,	-6002
▁Ast	-6003
▁Cle	-6004
▁Han	-6005
▁Sap	-6006
▁Tim	-6007
▁dry	-6008
▁lin	-6009
▁pet	-6010
apers	-6011
ilton	-6012
named	-6013
▁000,	-6014
▁Bern	-6015
▁Gang	-6016
▁Holy	-6017
▁Lenn	-6018
▁Patt	-6019
▁tied	-6020
ewhere	-6021
ighter	-6022
▁leads	-6023
▁table	-6024
▁views	-6025
inosaur	-6026
issippi	-6027
ivalent	-6028
ressive	-6029
▁Marine	-6030
▁Native	-6031
▁Office	-6032
▁denied	-6033
▁leaves	-6034
▁resist	-6035
▁surviv	-6036
▁adapted	-6037
▁disturb	-6038
▁methods	-6039
▁renamed	-6040
▁studied	-6041
▁Bradford	-6042
▁Director	-6043
▁Georgian	-6044
▁Maryland	-6045
▁interior	-6046
▁missions	-6047
▁shooting	-6048
▁Hollywood	-6049
▁finishing	-6050
▁producing	-6051
▁successor	-6052
▁reputation	-6053
▁strengthen	-6054
▁Mississippi	-6055
▁distribution	-6056
III	-6057
sey	-6058
var	-6059
▁'.	-6060
andy	-6061
ardo	-6062
bles	-6063
ider	-6064
rier	-6065
ture	-6066
▁").	-6067
▁27,	-6068
▁28,	-6069
▁Kil	-6070
▁rob	-6071
▁rub	-6072
▁sle	-6073
▁sud	-6074
agues	-6075
▁Alan	-6076
▁Down	-6077
▁Gram	-6078
▁Wind	-6079
▁lane	-6080
▁prey	-6081
ifying	-6082
▁Broad	-6083
▁Roxas	-6084
▁camps	-6085
▁crime	-6086
▁entry	-6087
▁immig	-6088
▁worst	-6089
uration	-6090
▁Arthur	-6091
▁Within	-6092
▁Chronic	-6093
▁getting	-6094
▁offense	-6095
▁Engineer	-6096
▁credited	-6097
▁entering	-6098
▁gameplay	-6099
▁maintain	-6100
▁politics	-6101
▁dismissed	-6102
▁portrayed	-6103
▁protected	-6104
▁Activision	-6105
OT	-6106
SB	-6107
hi	-6108
osa	-6109
▁73	-6110
ells	-6111
enge	-6112
▁Adv	-6113
▁Edu	-6114
▁Hon	-6115
▁Mul	-6116
▁Rel	-6117
▁von	-6118
ropri	-6119
▁"...	-6120
▁1999	-6121
▁kits	-6122
▁puzz	-6123
cribed	-6124
▁Ridge	-6125
▁basin	-6126
▁crown	-6127
▁exerc	-6128
▁holds	-6129
▁knots	-6130
▁Howard	-6131
▁Samuel	-6132
▁charts	-6133
▁downlo	-6134
▁franch	-6135
▁noting	-6136
▁novels	-6137
▁stones	-6138
▁charges	-6139
▁classes	-6140
▁dollars	-6141
▁monarch	-6142
▁replace	-6143
▁capacity	-6144
▁monument	-6145
▁discussed	-6146
▁intelligence	-6147
▁introduction	-6148
CA	-6149
ao	-6150
oba	-6151
ador	-6152
elve	-6153
ette	-6154
town	-6155
▁112	-6156
▁176	-6157
▁29,	-6158
▁DNA	-6159
▁Hug	-6160
▁cab	-6161
▁die	-6162
▁lic	-6163
▁pal	-6164
▁upd	-6165
▁vic	-6166
attle	-6167
ecess	-6168
icial	-6169
ivity	-6170
opher	-6171
senal	-6172
unket	-6173
▁Pope	-6174
▁Stef	-6175
▁mort	-6176
▁vary	-6177
ameter	-6178
offman	-6179
orters	-6180
ources	-6181
▁2004.	-6182
▁Sound	-6183
▁agent	-6184
▁pound	-6185
▁ruled	-6186
▁rules	-6187
▁Walter	-6188
▁Weekly	-6189
▁fields	-6190
▁offers	-6191
▁sector	-6192
▁vision	-6193
▁Calvert	-6194
▁Plunket	-6195
▁coastal	-6196
▁younger	-6197
▁Industry	-6198
▁Isabella	-6199
▁accounts	-6200
▁electric	-6201
▁historic	-6202
▁mushroom	-6203
▁predecess	-6204
▁publisher	-6205
▁statement	-6206
▁attributed	-6207
▁consisting	-6208
▁describing	-6209
▁generation	-6210
▁interested	-6211
▁characteristics	-6212
.)	-6213
can	-6214
eor	-6215
evo	-6216
ipl	-6217
ube	-6218
erog	-6219
iful	-6220
kins	-6221
mans	-6222
▁16,	-6223
▁17,	-6224
▁Bur	-6225
▁Dar	-6226
▁Far	-6227
▁Jac	-6228
▁NBC	-6229
▁Vol	-6230
ajevo	-6231
erted	-6232
itors	-6233
▁Hard	-6234
▁Wall	-6235
▁Yank	-6236
▁arts	-6237
▁baby	-6238
▁soil	-6239
▁tomb	-6240
▁zone	-6241
intend	-6242
orough	-6243
▁2013.	-6244
▁Daily	-6245
▁Marsh	-6246
▁apart	-6247
▁basic	-6248
▁cinem	-6249
▁conte	-6250
▁moder	-6251
▁ninth	-6252
▁worth	-6253
▁Jersey	-6254
▁caught	-6255
▁desire	-6256
▁plants	-6257
▁retire	-6258
▁tribes	-6259
angerous	-6260
▁Charlie	-6261
▁article	-6262
▁forests	-6263
▁someone	-6264
formation	-6265
▁Sarajevo	-6266
▁Victoria	-6267
▁Yankovic	-6268
▁medieval	-6269
▁appearing	-6270
▁discovery	-6271
▁emotional	-6272
▁exception	-6273
▁difficulty	-6274
▁everything	-6275
▁recognition	-6276
▁considerable	-6277
cop	-6278
ote	-6279
▁(8	-6280
▁53	-6281
▁57	-6282
▁97	-6283
host	-6284
know	-6285
orer	-6286
rien	-6287
▁Gil	-6288
▁Top	-6289
▁enl	-6290
▁pup	-6291
ients	-6292
itled	-6293
othes	-6294
▁Earl	-6295
▁Init	-6296
▁bond	-6297
▁doct	-6298
▁shel	-6299
coming	-6300
graded	-6301
igades	-6302
▁Danny	-6303
▁Press	-6304
▁conve	-6305
▁hotel	-6306
▁kings	-6307
▁pitch	-6308
▁rhyth	-6309
▁shore	-6310
▁steam	-6311
▁store	-6312
▁Around	-6313
▁Resear	-6314
▁Somali	-6315
▁Strand	-6316
▁expect	-6317
▁landed	-6318
▁manner	-6319
▁rarely	-6320
▁sudden	-6321
▁taught	-6322
▁thirty	-6323
▁wooden	-6324
▁Destiny	-6325
▁Rolling	-6326
▁channel	-6327
▁contest	-6328
▁disappe	-6329
▁evening	-6330
▁Clarkson	-6331
▁colonial	-6332
▁opponents	-6333
▁nomination	-6334
▁restaurant	-6335
▁involvement	-6336
▁replacement	-6337
6)	-6338
ym	-6339
ena	-6340
nest	-6341
pton	-6342
▁(2.	-6343
▁24,	-6344
▁Abb	-6345
ateur	-6346
itage	-6347
▁Bono	-6348
▁Fame	-6349
▁Flow	-6350
▁Less	-6351
▁Lisa	-6352
▁fair	-6353
▁hope	-6354
▁impr	-6355
▁mine	-6356
cation	-6357
usalem	-6358
▁Campb	-6359
▁Order	-6360
▁accur	-6361
▁poems	-6362
▁Mozamb	-6363
▁chapel	-6364
▁divine	-6365
▁fungus	-6366
▁picked	-6367
▁wealth	-6368
▁Colonel	-6369
▁Singles	-6370
▁consequ	-6371
▁secured	-6372
▁believes	-6373
▁Francisco	-6374
▁Frederick	-6375
▁Jerusalem	-6376
▁Recording	-6377
▁Television	-6378
▁communities	-6379
▁controversy	-6380
▁recommended	-6381
▁intersection	-6382
LI	-6383
▁×	-6384
ava	-6385
rin	-6386
▁41	-6387
▁Ho	-6388
▁Ye	-6389
▁od	-6390
▁ru	-6391
ifna	-6392
rets	-6393
▁130	-6394
▁22,	-6395
▁Det	-6396
▁Ray	-6397
▁Sub	-6398
▁Tel	-6399
▁fan	-6400
▁lov	-6401
eenth	-6402
psons	-6403
reets	-6404
▁Duke	-6405
▁Eliz	-6406
▁Fish	-6407
▁Hell	-6408
▁legs	-6409
▁pros	-6410
▁soft	-6411
ingale	-6412
ultane	-6413
▁2003.	-6414
▁Anton	-6415
▁Jifna	-6416
▁Lords	-6417
▁Santa	-6418
▁Wilde	-6419
▁faces	-6420
▁joint	-6421
▁releg	-6422
rations	-6423
theless	-6424
▁Castle	-6425
▁Master	-6426
▁launch	-6427
▁missed	-6428
unicipal	-6429
▁appoint	-6430
▁drawing	-6431
▁scholar	-6432
▁signing	-6433
▁volunte	-6434
▁whereas	-6435
▁Hamilton	-6436
▁Military	-6437
▁Simpsons	-6438
▁concerns	-6439
▁Argentina	-6440
▁extremely	-6441
▁principal	-6442
▁specimens	-6443
▁standards	-6444
▁leadership	-6445
▁organizations	-6446
ys	-6447
ān	-6448
The	-6449
uma	-6450
▁81	-6451
▁Bi	-6452
▁Mu	-6453
▁Ré	-6454
aire	-6455
aska	-6456
athe	-6457
avia	-6458
nell	-6459
▁Dis	-6460
▁Dom	-6461
▁Jay	-6462
▁Joe	-6463
▁Lee	-6464
▁Rif	-6465
▁van	-6466
Brien	-6467
alent	-6468
amber	-6469
osure	-6470
ureau	-6471
▁Skye	-6472
▁Walk	-6473
▁Wars	-6474
▁card	-6475
▁jazz	-6476
atures	-6477
ceived	-6478
engers	-6479
ranean	-6480
wealth	-6481
▁Adams	-6482
▁Prime	-6483
▁teeth	-6484
▁tries	-6485
▁youth	-6486
▁commit	-6487
▁speech	-6488
▁stream	-6489
▁treaty	-6490
▁Stephen	-6491
▁Writing	-6492
▁emerged	-6493
▁existed	-6494
▁parties	-6495
▁session	-6496
▁showing	-6497
▁Olympics	-6498
▁diameter	-6499
▁europium	-6500
▁partners	-6501
▁approached	-6502
▁conference	-6503
▁connection	-6504
▁surrounded	-6505
▁threatened	-6506
▁distributed	-6507
▁specifically	-6508
▁relationships	-6509
7)	-6510
add	-6511
▁54	-6512
▁96	-6513
▁Wi	-6514
edom	-6515
ooth	-6516
real	-6517
wise	-6518
▁Cop	-6519
▁Yan	-6520
▁gal	-6521
acent	-6522
ideos	-6523
istol	-6524
ombat	-6525
▁(197	-6526
▁Plot	-6527
▁pack	-6528
▁page	-6529
▁Banai	-6530
▁Track	-6531
▁alien	-6532
▁hoped	-6533
▁wants	-6534
▁wrong	-6535
▁Carter	-6536
▁Forces	-6537
▁Modern	-6538
▁disapp	-6539
▁discip	-6540
▁facing	-6541
▁firing	-6542
▁seeing	-6543
▁Roberts	-6544
▁conduct	-6545
▁crossed	-6546
▁product	-6547
▁railway	-6548
▁ratings	-6549
▁strateg	-6550
▁synthes	-6551
▁unusual	-6552
▁chemical	-6553
▁favorite	-6554
▁isolated	-6555
▁Transport	-6556
▁immediate	-6557
▁regularly	-6558
▁Depression	-6559
▁expedition	-6560
▁historians	-6561
▁alternative	-6562
▁documentary	-6563
▁institutions	-6564
ez	-6565
ét	-6566
gie	-6567
ipe	-6568
▁Ca	-6569
oked	-6570
usad	-6571
ívar	-6572
▁Mot	-6573
▁bes	-6574
▁sym	-6575
abeth	-6576
inals	-6577
which	-6578
▁Fire	-6579
▁Here	-6580
▁Snow	-6581
▁cold	-6582
▁hill	-6583
▁leuk	-6584
▁soul	-6585
▁stem	-6586
▁warm	-6587
▁Beach	-6588
▁Hergé	-6589
▁demol	-6590
▁motor	-6591
▁owner	-6592
▁scrap	-6593
▁shark	-6594
▁solid	-6595
▁veget	-6596
entions	-6597
ossible	-6598
▁Kilmer	-6599
▁Nether	-6600
▁Norman	-6601
▁Spring	-6602
▁Unlike	-6603
▁bright	-6604
▁detail	-6605
▁duties	-6606
▁inland	-6607
▁sequel	-6608
iversary	-6609
▁Bolívar	-6610
▁assumed	-6611
▁message	-6612
▁pointed	-6613
▁admitted	-6614
▁breaking	-6615
▁changing	-6616
▁examples	-6617
▁literary	-6618
▁protests	-6619
▁regional	-6620
▁reviewer	-6621
▁strongly	-6622
▁expansion	-6623
▁franchise	-6624
▁languages	-6625
▁watershed	-6626
▁destroyers	-6627
▁Independent	-6628
▁anniversary	-6629
▁designation	-6630
▁protagonist	-6631
dal	-6632
gas	-6633
ibl	-6634
▁DA	-6635
atus	-6636
imet	-6637
owie	-6638
▁10.	-6639
▁BCE	-6640
▁Kel	-6641
▁Nap	-6642
▁lbw	-6643
▁ske	-6644
▁tra	-6645
after	-6646
ingly	-6647
ledon	-6648
onica	-6649
osite	-6650
union	-6651
▁Cory	-6652
▁Iron	-6653
▁Wimb	-6654
▁eggs	-6655
▁fish	-6656
▁harm	-6657
▁outf	-6658
friend	-6659
▁Roger	-6660
▁absor	-6661
▁genre	-6662
▁indig	-6663
▁marks	-6664
▁meets	-6665
▁overw	-6666
ogether	-6667
▁ancest	-6668
▁circum	-6669
▁consum	-6670
▁easily	-6671
▁eighth	-6672
▁overse	-6673
▁rescue	-6674
▁winner	-6675
▁Georgia	-6676
▁Goffman	-6677
▁Janeiro	-6678
▁Saprang	-6679
▁airline	-6680
▁improve	-6681
▁orchest	-6682
▁retreat	-6683
▁stadium	-6684
▁treated	-6685
▁wearing	-6686
▁Research	-6687
▁academic	-6688
▁approved	-6689
▁bringing	-6690
▁detailed	-6691
▁minister	-6692
▁specimen	-6693
▁Wimbledon	-6694
▁attracted	-6695
▁indicated	-6696
▁intention	-6697
▁completion	-6698
▁department	-6699
▁engineering	-6700
20	-6701
9)	-6702
adu	-6703
arp	-6704
aug	-6705
aws	-6706
och	-6707
war	-6708
▁56	-6709
▁ML	-6710
▁ur	-6711
body	-6712
iour	-6713
▁(4.	-6714
▁Cat	-6715
▁Dev	-6716
▁Kat	-6717
▁emp	-6718
▁lap	-6719
▁sun	-6720
▁tie	-6721
allow	-6722
ensus	-6723
ockey	-6724
oking	-6725
orous	-6726
pping	-6727
▁1900	-6728
▁1991	-6729
▁Marc	-6730
▁coup	-6731
aments	-6732
▁2015.	-6733
▁Burns	-6734
▁Chief	-6735
▁citiz	-6736
▁coord	-6737
▁happy	-6738
▁trail	-6739
istered	-6740
▁Albert	-6741
▁Hearts	-6742
▁Lawton	-6743
▁Lennon	-6744
▁Square	-6745
▁acknow	-6746
▁gather	-6747
▁looked	-6748
▁Somalia	-6749
▁accused	-6750
▁feeling	-6751
▁partial	-6752
▁reading	-6753
▁settled	-6754
▁adjacent	-6755
▁champion	-6756
▁civilian	-6757
▁sections	-6758
▁terminus	-6759
▁traveled	-6760
▁Cambridge	-6761
▁assistant	-6762
▁challenge	-6763
▁practices	-6764
▁surviving	-6765
▁attempting	-6766
▁encouraged	-6767
▁effectively	-6768
▁territories	-6769
▁constitution	-6770
▁−	-6771
amm	-6772
ban	-6773
bur	-6774
nie	-6775
ona	-6776
▁Si	-6777
▁Wy	-6778
▁Fel	-6779
▁Mid	-6780
▁Sav	-6781
▁bal	-6782
▁fer	-6783
▁mut	-6784
break	-6785
ewhat	-6786
ician	-6787
▁1996	-6788
▁Bank	-6789
▁Base	-6790
▁Garc	-6791
▁Jean	-6792
▁aged	-6793
▁dock	-6794
▁evil	-6795
▁grey	-6796
▁sell	-6797
illing	-6798
▁Human	-6799
▁Jesus	-6800
▁Third	-6801
▁armor	-6802
▁crest	-6803
▁decor	-6804
▁races	-6805
▁recre	-6806
▁shots	-6807
▁Gerard	-6808
▁Kombat	-6809
▁Mortal	-6810
▁Rhodes	-6811
▁carbon	-6812
▁convoy	-6813
▁muscar	-6814
▁preced	-6815
▁seemed	-6816
▁stands	-6817
▁streak	-6818
▁towers	-6819
▁underw	-6820
▁videos	-6821
▁Admiral	-6822
▁Formula	-6823
▁Montana	-6824
▁extreme	-6825
▁inhabit	-6826
▁visible	-6827
▁identity	-6828
▁obtained	-6829
▁recalled	-6830
▁romantic	-6831
▁somewhat	-6832
▁starling	-6833
▁candidate	-6834
▁compounds	-6835
▁recovered	-6836
▁Richardson	-6837
▁possession	-6838
▁scientific	-6839
▁arrangement	-6840
▁inspiration	-6841
▁interchange	-6842
▁Commonwealth	-6843
▁agricultural	-6844
8)	-6845
thy	-6846
▁%.	-6847
▁ib	-6848
ekān	-6849
isis	-6850
uilt	-6851
umps	-6852
▁175	-6853
▁Ros	-6854
▁Win	-6855
▁san	-6856
achus	-6857
ennis	-6858
ivals	-6859
using	-6860
vious	-6861
▁Fern	-6862
▁Hung	-6863
▁Ryan	-6864
▁Test	-6865
▁Trib	-6866
▁acts	-6867
▁fled	-6868
▁hear	-6869
▁hits	-6870
▁nick	-6871
▁shif	-6872
▁thin	-6873
▁tone	-6874
▁1996,	-6875
▁Every	-6876
▁Keamy	-6877
▁Power	-6878
▁Tower	-6879
▁catch	-6880
▁cloud	-6881
▁equal	-6882
▁funds	-6883
▁maint	-6884
▁multi	-6885
▁ocean	-6886
▁teach	-6887
▁verse	-6888
▁Fraser	-6889
▁Poland	-6890
▁Territ	-6891
▁convin	-6892
▁estate	-6893
▁hosted	-6894
▁linked	-6895
▁reduce	-6896
▁select	-6897
▁spaces	-6898
▁Aniston	-6899
▁Germans	-6900
▁Islands	-6901
▁Journal	-6902
▁Station	-6903
▁footage	-6904
▁painted	-6905
▁passage	-6906
▁proceed	-6907
▁theatre	-6908
▁Attorney	-6909
▁brothers	-6910
▁relative	-6911
▁implement	-6912
▁preserved	-6913
▁sculpture	-6914
▁industrial	-6915
1)	-6916
how	-6917
sta	-6918
▁AD	-6919
▁IV	-6920
▁au	-6921
amin	-6922
cape	-6923
dess	-6924
emia	-6925
iary	-6926
illy	-6927
ppet	-6928
rast	-6929
▁Exp	-6930
▁Inc	-6931
▁Jun	-6932
▁bat	-6933
▁ere	-6934
▁flo	-6935
▁hip	-6936
▁map	-6937
▁mis	-6938
▁unf	-6939
abled	-6940
going	-6941
itals	-6942
peare	-6943
ropol	-6944
▁1993	-6945
▁Pine	-6946
▁Rele	-6947
▁Wolf	-6948
▁deck	-6949
▁gall	-6950
▁lear	-6951
▁wars	-6952
pecies	-6953
▁2001,	-6954
▁Color	-6955
▁Hotel	-6956
▁conqu	-6957
▁cycle	-6958
▁displ	-6959
▁siege	-6960
attered	-6961
intendo	-6962
sewhere	-6963
▁Coryth	-6964
▁Shakes	-6965
▁adults	-6966
▁blocks	-6967
▁debate	-6968
▁income	-6969
▁legend	-6970
▁medium	-6971
▁partly	-6972
▁spirit	-6973
▁stayed	-6974
▁twelve	-6975
▁Marines	-6976
▁chronic	-6977
▁correct	-6978
▁Johnston	-6979
▁Nintendo	-6980
▁defended	-6981
▁equipped	-6982
▁learning	-6983
▁opposite	-6984
▁sessions	-6985
▁Peninsula	-6986
▁Plunketts	-6987
▁attacking	-6988
▁concerned	-6989
▁expensive	-6990
▁reviewers	-6991
▁suffering	-6992
▁basketball	-6993
▁continuing	-6994
▁Shakespeare	-6995
▁circulation	-6996
▁destruction	-6997
▁incorporated	-6998
▁Corythosaurus	-6999
▁controversial	-7000
▁responsibility	-7001
4),	-7002
uri	-7003
xts	-7004
▁43	-7005
▁46	-7006
▁85	-7007
▁CE	-7008
▁Pu	-7009
▁ic	-7010
icts	-7011
onic	-7012
rant	-7013
yard	-7014
yles	-7015
▁Anc	-7016
▁Bos	-7017
▁Fei	-7018
▁Lev	-7019
▁Loc	-7020
▁bay	-7021
▁ble	-7022
▁lob	-7023
aware	-7024
organ	-7025
▁1997	-7026
▁Fair	-7027
▁Type	-7028
▁gone	-7029
▁hall	-7030
▁none	-7031
▁pool	-7032
▁pric	-7033
▁spin	-7034
bishop	-7035
formed	-7036
inking	-7037
▁Palmy	-7038
▁depos	-7039
▁inaug	-7040
ificial	-7041
▁Person	-7042
▁lowest	-7043
▁patrol	-7044
▁pushed	-7045
▁rebels	-7046
▁ritual	-7047
▁tailed	-7048
▁driving	-7049
▁falling	-7050
▁kitsune	-7051
▁promote	-7052
▁reserve	-7053
▁victims	-7054
▁willing	-7055
erogative	-7056
stitution	-7057
▁Lawrence	-7058
▁accommod	-7059
▁composer	-7060
▁crossing	-7061
▁measures	-7062
▁meetings	-7063
▁parallel	-7064
▁province	-7065
▁remnants	-7066
▁throwing	-7067
▁initiative	-7068
▁passengers	-7069
▁Marlborough	-7070
▁Construction	-7071
▁observations	-7072
hm	-7073
agn	-7074
oca	-7075
rel	-7076
ycl	-7077
zen	-7078
▁Ec	-7079
agas	-7080
burg	-7081
hews	-7082
inje	-7083
ogen	-7084
▁Bul	-7085
▁Guy	-7086
▁Kar	-7087
arked	-7088
onder	-7089
▁1986	-7090
▁Nick	-7091
▁Owen	-7092
▁Your	-7093
▁ethn	-7094
▁exha	-7095
▁inte	-7096
anning	-7097
iminal	-7098
itated	-7099
orious	-7100
▁Geoff	-7101
▁absol	-7102
▁fixed	-7103
▁gross	-7104
▁hydro	-7105
▁plain	-7106
▁raise	-7107
▁sight	-7108
▁voted	-7109
▁watch	-7110
uscript	-7111
▁García	-7112
▁Palace	-7113
▁Player	-7114
▁Queens	-7115
▁global	-7116
▁patron	-7117
▁praise	-7118
▁Emperor	-7119
▁Stefani	-7120
▁acclaim	-7121
▁batsman	-7122
▁objects	-7123
▁pitcher	-7124
▁proport	-7125
▁returns	-7126
▁vessels	-7127
▁Cambodia	-7128
▁Guardian	-7129
▁Hospital	-7130
▁carrying	-7131
▁comments	-7132
▁defences	-7133
▁governor	-7134
▁retained	-7135
▁songwrit	-7136
▁superior	-7137
▁Elizabeth	-7138
▁biography	-7139
▁classical	-7140
▁occasions	-7141
▁understand	-7142
▁intensified	-7143
▁difficulties	-7144
▁representing	-7145
40	-7146
bie	-7147
▁55	-7148
▁59	-7149
▁ju	-7150
▁ow	-7151
olay	-7152
▁Cru	-7153
▁FIA	-7154
▁Lab	-7155
▁Our	-7156
▁Pul	-7157
▁cry	-7158
▁fal	-7159
▁orn	-7160
▁psy	-7161
▁ray	-7162
▁sam	-7163
etery	-7164
▁1992	-7165
▁Bert	-7166
▁Chen	-7167
▁Cook	-7168
▁Lanc	-7169
▁answ	-7170
▁fine	-7171
▁mart	-7172
▁sees	-7173
▁sulf	-7174
iamond	-7175
▁Organ	-7176
▁Space	-7177
▁Stock	-7178
▁alleg	-7179
▁limit	-7180
▁moral	-7181
▁needs	-7182
▁renew	-7183
emetery	-7184
entures	-7185
terbury	-7186
▁Design	-7187
▁Flight	-7188
▁camera	-7189
▁covers	-7190
▁divers	-7191
▁escort	-7192
▁prohib	-7193
▁serial	-7194
▁Atlanta	-7195
▁Channel	-7196
▁Mediter	-7197
▁Protest	-7198
▁Stanley	-7199
▁collaps	-7200
▁context	-7201
▁goddess	-7202
▁periods	-7203
▁reveals	-7204
▁Phillies	-7205
▁concerts	-7206
▁exchange	-7207
▁purchase	-7208
▁villages	-7209
▁Palestine	-7210
▁accompany	-7211
▁behaviour	-7212
▁committed	-7213
▁defeating	-7214
▁divisions	-7215
▁involving	-7216
▁musicians	-7217
▁narrative	-7218
▁preferred	-7219
▁resources	-7220
▁simultane	-7221
▁survivors	-7222
▁Canterbury	-7223
▁influences	-7224
▁Mediterranean	-7225
ka	-7226
ahl	-7227
esc	-7228
osl	-7229
rig	-7230
uda	-7231
▁61	-7232
▁87	-7233
▁AR	-7234
▁Di	-7235
elli	-7236
fare	-7237
mine	-7238
ophy	-7239
raph	-7240
wich	-7241
▁Hun	-7242
▁USD	-7243
▁ash	-7244
▁clo	-7245
▁cul	-7246
apped	-7247
atech	-7248
▁Link	-7249
▁Raff	-7250
▁else	-7251
▁flat	-7252
▁tick	-7253
athers	-7254
ooking	-7255
▁2002,	-7256
▁Rugby	-7257
▁Story	-7258
▁Sweet	-7259
▁agree	-7260
▁craft	-7261
▁doesn	-7262
▁incom	-7263
▁steel	-7264
resents	-7265
▁Aerith	-7266
▁Pitman	-7267
▁closer	-7268
▁detect	-7269
▁elabor	-7270
▁online	-7271
▁pupils	-7272
▁refers	-7273
▁rhythm	-7274
▁tribut	-7275
▁voiced	-7276
▁Raffles	-7277
▁Special	-7278
▁absence	-7279
▁consult	-7280
▁Athletic	-7281
▁Croatian	-7282
▁arrested	-7283
▁covering	-7284
▁dialogue	-7285
▁feelings	-7286
▁hundreds	-7287
▁products	-7288
▁proposal	-7289
▁visitors	-7290
▁considers	-7291
▁municipal	-7292
▁criticised	-7293
▁represents	-7294
▁legislation	-7295
▁Championships	-7296
OC	-7297
US	-7298
sp	-7299
ár	-7300
2),	-7301
agu	-7302
eke	-7303
err	-7304
esi	-7305
▁-.	-7306
▁69	-7307
▁71	-7308
▁79	-7309
▁WW	-7310
▁et	-7311
graf	-7312
isms	-7313
math	-7314
staš	-7315
with	-7316
▁(17	-7317
▁121	-7318
▁162	-7319
▁Cab	-7320
▁Gib	-7321
▁Mel	-7322
▁Now	-7323
▁dim	-7324
▁hyp	-7325
annah	-7326
iders	-7327
urday	-7328
▁Bass	-7329
▁Corn	-7330
▁Furt	-7331
▁Mega	-7332
▁Real	-7333
▁Wicc	-7334
▁deem	-7335
▁dens	-7336
▁diet	-7337
▁exit	-7338
▁feed	-7339
▁fold	-7340
▁Along	-7341
▁Labor	-7342
▁Prior	-7343
▁Ustaš	-7344
▁amino	-7345
▁brick	-7346
▁surpr	-7347
▁ensure	-7348
▁extent	-7349
▁option	-7350
▁poorly	-7351
▁stable	-7352
▁Furtado	-7353
▁classic	-7354
▁forming	-7355
▁infrast	-7356
▁moments	-7357
▁reconna	-7358
▁trading	-7359
▁Imperial	-7360
▁Markgraf	-7361
▁Saturday	-7362
▁displays	-7363
▁download	-7364
▁internal	-7365
▁normally	-7366
▁Dominican	-7367
▁followers	-7368
▁interpret	-7369
▁operating	-7370
▁stationed	-7371
▁Enterprise	-7372
▁biographer	-7373
▁convection	-7374
▁manuscript	-7375
▁Netherlands	-7376
▁researchers	-7377
▁reconnaissance	-7378
▁reconstruction	-7379
,.	-7380
Ch	-7381
ias	-7382
rif	-7383
▁62	-7384
▁DC	-7385
eman	-7386
eper	-7387
▁14.	-7388
▁Dur	-7389
▁Joy	-7390
▁swe	-7391
iques	-7392
state	-7393
ullen	-7394
▁Bark	-7395
▁FIFA	-7396
▁Krak	-7397
▁Late	-7398
▁Sher	-7399
▁Stop	-7400
▁blow	-7401
▁bone	-7402
▁lose	-7403
▁sunk	-7404
encies	-7405
▁1993,	-7406
▁1999,	-7407
▁Allah	-7408
▁Blood	-7409
▁Media	-7410
▁Techn	-7411
▁creek	-7412
▁lists	-7413
▁orbit	-7414
▁rugby	-7415
▁saves	-7416
▁skull	-7417
▁verte	-7418
▁wings	-7419
vention	-7420
▁Grammy	-7421
▁Korean	-7422
▁Record	-7423
▁Sholay	-7424
▁driven	-7425
▁memory	-7426
▁posted	-7427
▁useful	-7428
▁Mexican	-7429
▁Patrick	-7430
▁intense	-7431
▁streets	-7432
▁annually	-7433
▁appropri	-7434
▁deployed	-7435
▁dramatic	-7436
▁entitled	-7437
▁injuries	-7438
▁modified	-7439
▁muscaria	-7440
▁overwhel	-7441
▁purposes	-7442
▁withdrew	-7443
▁construct	-7444
▁extension	-7445
▁submarine	-7446
▁transition	-7447
▁influential	-7448
▁prerogative	-7449
▁understanding	-7450
ds	-7451
equ	-7452
ora	-7453
ris	-7454
sch	-7455
uls	-7456
▁07	-7457
▁77	-7458
▁98	-7459
axon	-7460
etts	-7461
hist	-7462
icop	-7463
inet	-7464
lete	-7465
mann	-7466
otes	-7467
rell	-7468
rine	-7469
vati	-7470
▁110	-7471
▁DAG	-7472
▁Hob	-7473
▁Hok	-7474
▁Hou	-7475
▁Hud	-7476
▁Kit	-7477
▁Mah	-7478
▁Tig	-7479
▁ago	-7480
▁loy	-7481
▁orb	-7482
▁Bron	-7483
▁Cult	-7484
▁Dark	-7485
▁Free	-7486
▁Marg	-7487
▁cong	-7488
▁hang	-7489
▁pure	-7490
▁repr	-7491
▁tank	-7492
▁Front	-7493
▁Prote	-7494
▁Treat	-7495
▁ammun	-7496
▁choir	-7497
▁clock	-7498
▁doubt	-7499
▁drums	-7500
▁panel	-7501
▁plane	-7502
▁rated	-7503
▁rates	-7504
▁ridge	-7505
▁saved	-7506
▁spoke	-7507
▁tests	-7508
▁tight	-7509
vements	-7510
▁Mother	-7511
▁actual	-7512
▁burned	-7513
▁custom	-7514
▁demand	-7515
▁excess	-7516
▁satisf	-7517
▁Fernand	-7518
▁Israeli	-7519
▁crosses	-7520
▁dynasty	-7521
▁engines	-7522
▁factors	-7523
▁helicop	-7524
▁kingdom	-7525
▁picture	-7526
▁readers	-7527
achusetts	-7528
▁Colorado	-7529
▁Township	-7530
▁chairman	-7531
▁dinosaur	-7532
▁exposure	-7533
▁happened	-7534
▁informed	-7535
▁restrict	-7536
▁severely	-7537
▁shipping	-7538
▁watching	-7539
▁writings	-7540
▁Cathedral	-7541
▁Education	-7542
▁generated	-7543
▁installed	-7544
▁interests	-7545
▁materials	-7546
▁otherwise	-7547
▁ammunition	-7548
▁journalist	-7549
▁originated	-7550
▁suggesting	-7551
▁Massachusetts	-7552
▁circumstances	-7553
5)	-7554
MO	-7555
5),	-7556
▁94	-7557
▁Sa	-7558
acle	-7559
ilst	-7560
oral	-7561
otic	-7562
oven	-7563
▁900	-7564
▁Bed	-7565
ables	-7566
ateau	-7567
gency	-7568
icate	-7569
rants	-7570
▁Cape	-7571
▁Hamp	-7572
▁Kann	-7573
▁belt	-7574
▁cart	-7575
▁earn	-7576
tavāda	-7577
▁Found	-7578
▁Guide	-7579
▁chess	-7580
▁frame	-7581
▁latex	-7582
▁layer	-7583
▁ready	-7584
▁recur	-7585
▁relie	-7586
▁Branch	-7587
▁Having	-7588
▁Maggie	-7589
▁Nichol	-7590
▁Norway	-7591
▁Sports	-7592
▁Ustaše	-7593
▁Wilson	-7594
▁cancer	-7595
▁carved	-7596
▁causes	-7597
▁citing	-7598
▁listen	-7599
▁parish	-7600
▁shells	-7601
▁Federal	-7602
▁Kannada	-7603
▁Réunion	-7604
▁Swedish	-7605
▁bombard	-7606
▁burning	-7607
▁climate	-7608
▁jackrab	-7609
▁mixture	-7610
▁operate	-7611
▁survive	-7612
urricanes	-7613
▁Historic	-7614
▁Ministry	-7615
▁Richmond	-7616
▁behavior	-7617
▁disaster	-7618
▁festival	-7619
▁formally	-7620
▁generals	-7621
▁overseas	-7622
ekāntavāda	-7623
▁administr	-7624
▁departure	-7625
▁essential	-7626
▁movements	-7627
▁partially	-7628
▁starlings	-7629
▁victories	-7630
▁apparently	-7631
▁impossible	-7632
▁resistance	-7633
▁subspecies	-7634
▁instruments	-7635
▁substantial	-7636
▁transportation	-7637
AC	-7638
OK	-7639
ni	-7640
ASA	-7641
aga	-7642
het	-7643
osm	-7644
pes	-7645
utz	-7646
▁PA	-7647
aste	-7648
lets	-7649
life	-7650
pent	-7651
quez	-7652
▁(15	-7653
▁(2,	-7654
▁12.	-7655
▁Ald	-7656
▁Int	-7657
▁Már	-7658
▁NHL	-7659
▁Ton	-7660
▁Yug	-7661
▁phr	-7662
chang	-7663
heera	-7664
iling	-7665
ithic	-7666
raham	-7667
▁1987	-7668
▁Ball	-7669
▁Gwen	-7670
▁Howe	-7671
▁Pass	-7672
▁ille	-7673
▁loan	-7674
▁shut	-7675
▁wasn	-7676
andoba	-7677
forced	-7678
ricted	-7679
teenth	-7680
▁Elect	-7681
▁Patty	-7682
▁Yanke	-7683
▁abund	-7684
▁consc	-7685
▁liber	-7686
▁looks	-7687
▁lover	-7688
▁marry	-7689
▁persu	-7690
▁rooms	-7691
▁spend	-7692
western	-7693
▁Barker	-7694
▁Bureau	-7695
▁Peters	-7696
▁Police	-7697
▁Yugosl	-7698
▁commem	-7699
▁eleven	-7700
▁models	-7701
▁spores	-7702
poration	-7703
▁Masters	-7704
▁Márquez	-7705
▁Parvati	-7706
▁amateur	-7707
▁compete	-7708
▁cruiser	-7709
▁temples	-7710
▁tribute	-7711
▁windows	-7712
▁Khandoba	-7713
▁Portugal	-7714
▁Veronica	-7715
▁instance	-7716
▁resigned	-7717
▁restored	-7718
▁squadron	-7719
▁struggle	-7720
▁thinking	-7721
▁beautiful	-7722
▁dangerous	-7723
▁documents	-7724
▁engineers	-7725
▁premiered	-7726
▁sequences	-7727
▁afterwards	-7728
▁electronic	-7729
▁supporters	-7730
▁techniques	-7731
▁interesting	-7732
▁opportunities	-7733
DH	-7734
Hg	-7735
IA	-7736
fe	-7737
nal	-7738
zac	-7739
▁Jr	-7740
LIMO	-7741
ears	-7742
iped	-7743
leph	-7744
osis	-7745
rene	-7746
roit	-7747
urse	-7748
yria	-7749
▁161	-7750
▁50,	-7751
▁CBS	-7752
▁FRE	-7753
▁Low	-7754
▁Roc	-7755
▁Sis	-7756
▁Tam	-7757
▁eat	-7758
▁tip	-7759
itzer	-7760
otton	-7761
▁Gary	-7762
▁Hind	-7763
▁Lith	-7764
▁Mand	-7765
▁Niel	-7766
▁Soon	-7767
▁Then	-7768
▁gard	-7769
▁inHg	-7770
▁mode	-7771
▁outl	-7772
▁pale	-7773
▁sale	-7774
rorist	-7775
roscop	-7776
uation	-7777
▁Baker	-7778
▁Eaton	-7779
▁Midge	-7780
▁advis	-7781
▁coins	-7782
▁divor	-7783
▁prove	-7784
▁recru	-7785
▁subst	-7786
cluding	-7787
ishment	-7788
▁Miller	-7789
▁Mulder	-7790
▁Philip	-7791
▁Wright	-7792
▁storms	-7793
▁unlike	-7794
▁vessel	-7795
▁weapon	-7796
atechism	-7797
entional	-7798
▁Detroit	-7799
▁FRELIMO	-7800
▁Jurchen	-7801
▁Justice	-7802
▁Phoenix	-7803
▁achieve	-7804
▁bearing	-7805
▁designs	-7806
▁forcing	-7807
▁listing	-7808
▁minimum	-7809
▁offices	-7810
▁memorial	-7811
▁musician	-7812
▁neighbor	-7813
▁predomin	-7814
▁situated	-7815
▁thousand	-7816
▁acknowled	-7817
▁adventure	-7818
▁elsewhere	-7819
▁spiritual	-7820
▁Mozambique	-7821
▁properties	-7822
▁recognised	-7823
▁retirement	-7824
▁experiences	-7825
▁interaction	-7826
▁establishing	-7827
DS	-7828
NL	-7829
oe	-7830
Mal	-7831
aka	-7832
iar	-7833
mel	-7834
▁Ts	-7835
heme	-7836
onto	-7837
rows	-7838
ryce	-7839
▁122	-7840
▁31,	-7841
▁Cob	-7842
▁Raj	-7843
▁Who	-7844
icide	-7845
omura	-7846
order	-7847
▁Bath	-7848
▁Bell	-7849
▁Celt	-7850
▁Last	-7851
▁Pict	-7852
▁Prog	-7853
▁Rest	-7854
▁Vice	-7855
▁conj	-7856
▁copy	-7857
▁fram	-7858
▁frig	-7859
▁heat	-7860
▁obst	-7861
▁rect	-7862
▁shop	-7863
▁sons	-7864
▁tiss	-7865
▁vast	-7866
▁wine	-7867
omatic	-7868
pended	-7869
▁1995,	-7870
▁2000,	-7871
▁Bulls	-7872
▁Girls	-7873
▁Moore	-7874
▁Point	-7875
▁check	-7876
▁costs	-7877
▁giant	-7878
▁merch	-7879
▁psych	-7880
▁Albums	-7881
▁Arabic	-7882
▁Hudson	-7883
▁Russia	-7884
▁Scully	-7885
▁Season	-7886
▁agents	-7887
▁attrib	-7888
▁burial	-7889
▁engage	-7890
▁fallen	-7891
▁format	-7892
▁resign	-7893
▁Coleman	-7894
▁Gilbert	-7895
▁Simpson	-7896
▁Stewart	-7897
▁Toronto	-7898
▁artwork	-7899
▁biggest	-7900
▁cleared	-7901
▁delayed	-7902
▁depicts	-7903
▁founder	-7904
▁holiday	-7905
▁starred	-7906
▁trained	-7907
▁vehicle	-7908
▁counties	-7909
▁criminal	-7910
▁fountain	-7911
▁measured	-7912
▁networks	-7913
▁remarked	-7914
▁remember	-7915
▁westward	-7916
▁convinced	-7917
▁depending	-7918
▁objective	-7919
▁programme	-7920
▁radiation	-7921
▁selection	-7922
▁Management	-7923
▁artificial	-7924
▁excavation	-7925
▁photograph	-7926
▁statistics	-7927
▁institution	-7928
▁characterized	-7929
▁infrastructure	-7930
mn	-7931
cru	-7932
śni	-7933
▁06	-7934
▁88	-7935
amps	-7936
heim	-7937
▁13.	-7938
▁Cec	-7939
▁Ira	-7940
▁Kim	-7941
▁Mrs	-7942
▁Sid	-7943
▁gro	-7944
▁rum	-7945
akota	-7946
ategy	-7947
piece	-7948
uable	-7949
▁1988	-7950
▁1994	-7951
▁Bang	-7952
▁Benn	-7953
▁Budd	-7954
▁Gate	-7955
▁Roth	-7956
▁Such	-7957
▁extr	-7958
▁horn	-7959
▁impl	-7960
▁mamm	-7961
▁mask	-7962
▁safe	-7963
▁vote	-7964
avalry	-7965
▁1970.	-7966
▁2001.	-7967
▁2014.	-7968
▁Barry	-7969
▁Canal	-7970
▁Minor	-7971
▁Robin	-7972
▁Wiśni	-7973
▁crops	-7974
▁devot	-7975
▁dream	-7976
▁tanks	-7977
▁union	-7978
owiecki	-7979
▁Hokies	-7980
▁formal	-7981
▁helmet	-7982
▁instru	-7983
▁render	-7984
▁rivers	-7985
▁skills	-7986
▁styles	-7987
atherine	-7988
▁Journey	-7989
▁Network	-7990
▁Persian	-7991
▁benefit	-7992
▁clearly	-7993
▁closest	-7994
▁decides	-7995
▁housing	-7996
▁hunting	-7997
▁playoff	-7998
▁ranging	-7999
criptions	-8000
▁citizens	-8001
▁claiming	-8002
▁describe	-8003
▁feathers	-8004
▁opponent	-8005
▁Initially	-8006
▁Territory	-8007
▁determine	-8008
▁displayed	-8009
▁predators	-8010
▁reservoir	-8011
▁residence	-8012
▁Originally	-8013
▁differences	-8014
▁predecessor	-8015
▁restoration	-8016
▁Nevertheless	-8017
▁Wiśniowiecki	-8018
▁conservation	-8019
▁reinforcements	-8020
kh	-8021
SBN	-8022
aku	-8023
rec	-8024
ruz	-8025
sex	-8026
who	-8027
▁72	-8028
abil	-8029
rees	-8030
ucky	-8031
unes	-8032
▁Nad	-8033
▁adm	-8034
▁err	-8035
▁jun	-8036
▁sed	-8037
aints	-8038
iform	-8039
leged	-8040
orrow	-8041
oyage	-8042
rates	-8043
shore	-8044
where	-8045
▁1984	-8046
▁dipl	-8047
▁enth	-8048
▁prol	-8049
▁sung	-8050
▁teen	-8051
▁toll	-8052
Malley	-8053
rating	-8054
rosaur	-8055
urrent	-8056
▁Death	-8057
▁Eagle	-8058
▁Kelly	-8059
▁Turks	-8060
▁badly	-8061
▁cargo	-8062
▁crake	-8063
▁funer	-8064
▁grown	-8065
▁slide	-8066
▁teamm	-8067
▁wrest	-8068
assador	-8069
iveness	-8070
▁Chapel	-8071
▁Legacy	-8072
▁Magdal	-8073
▁Silver	-8074
▁Warren	-8075
▁argues	-8076
▁arrive	-8077
▁cooper	-8078
▁ranges	-8079
▁ruling	-8080
▁throne	-8081
▁tunnel	-8082
▁Express	-8083
▁Perfect	-8084
▁Stories	-8085
▁alleged	-8086
▁degrees	-8087
▁grounds	-8088
▁install	-8089
▁ranking	-8090
▁Category	-8091
▁Confeder	-8092
▁Memorial	-8093
▁announce	-8094
▁astronom	-8095
▁attained	-8096
▁imprison	-8097
▁moderate	-8098
▁promised	-8099
▁prompted	-8100
▁railroad	-8101
▁regiment	-8102
▁Communist	-8103
▁Victorian	-8104
▁audiences	-8105
▁childhood	-8106
▁defending	-8107
▁elections	-8108
▁magnitude	-8109
▁temporary	-8110
▁Protestant	-8111
▁Republican	-8112
▁adaptation	-8113
▁restricted	-8114
▁scientists	-8115
▁thereafter	-8116
▁commandment	-8117
▁exclusively	-8118
▁inscription	-8119
▁perspective	-8120
▁preparation	-8121
▁Organization	-8122
▁representative	-8123
CC	-8124
zi	-8125
EFA	-8126
aun	-8127
boy	-8128
itt	-8129
lie	-8130
owa	-8131
pus	-8132
put	-8133
yer	-8134
▁95	-8135
also	-8136
gery	-8137
icit	-8138
ishn	-8139
onia	-8140
oren	-8141
otal	-8142
uses	-8143
▁(16	-8144
▁Ash	-8145
▁Div	-8146
▁Dyn	-8147
▁Sle	-8148
▁Vul	-8149
▁bed	-8150
▁enh	-8151
▁nav	-8152
▁sad	-8153
▁sky	-8154
▁vac	-8155
alymp	-8156
illed	-8157
inery	-8158
inger	-8159
night	-8160
oming	-8161
yline	-8162
▁(196	-8163
▁1947	-8164
▁Comb	-8165
▁Plat	-8166
▁Show	-8167
▁Stal	-8168
▁UEFA	-8169
▁Valk	-8170
▁bear	-8171
▁bulk	-8172
▁clim	-8173
▁easy	-8174
▁huge	-8175
▁moon	-8176
▁myst	-8177
▁twin	-8178
▁util	-8179
action	-8180
rupted	-8181
ternal	-8182
▁1941,	-8183
▁Anzac	-8184
▁Event	-8185
▁Rocky	-8186
▁Until	-8187
▁bands	-8188
▁bones	-8189
▁caves	-8190
▁decay	-8191
▁deity	-8192
▁deleg	-8193
▁gates	-8194
▁prime	-8195
▁Brooks	-8196
▁Chagas	-8197
▁Kansas	-8198
▁Leslie	-8199
▁anyone	-8200
▁consol	-8201
▁corner	-8202
▁deemed	-8203
▁desert	-8204
▁ethnic	-8205
▁exists	-8206
▁poison	-8207
▁Mathews	-8208
▁amounts	-8209
▁charged	-8210
▁erected	-8211
▁handled	-8212
▁injured	-8213
▁possess	-8214
▁reprodu	-8215
▁resumed	-8216
▁sisters	-8217
▁theater	-8218
sequently	-8219
▁Paralymp	-8220
▁Valkyria	-8221
▁boundary	-8222
▁colonies	-8223
▁compound	-8224
▁everyone	-8225
▁explains	-8226
▁outbreak	-8227
▁relation	-8228
▁northward	-8229
▁Outstanding	-8230
▁advertising	-8231
▁inhabitants	-8232
▁architecture	-8233
▁strengthened	-8234
SA	-8235
▁“	-8236
3),	-8237
ola	-8238
rog	-8239
uez	-8240
▁aw	-8241
apse	-8242
burn	-8243
olen	-8244
osom	-8245
wald	-8246
warf	-8247
▁00,	-8248
▁160	-8249
▁28.	-8250
▁Ark	-8251
▁Beh	-8252
▁McL	-8253
▁rib	-8254
▁wet	-8255
eline	-8256
emies	-8257
ifies	-8258
omtav	-8259
otype	-8260
plete	-8261
▁Abby	-8262
▁Djok	-8263
▁Emmy	-8264
▁Gray	-8265
▁Hope	-8266
▁Iraq	-8267
▁Jenn	-8268
▁Much	-8269
▁Nash	-8270
▁Thus	-8271
▁Trek	-8272
▁anth	-8273
▁bell	-8274
▁bind	-8275
▁cake	-8276
▁canc	-8277
▁cars	-8278
▁draf	-8279
▁fant	-8280
▁fate	-8281
▁inse	-8282
▁lake	-8283
▁rend	-8284
▁ster	-8285
▁tack	-8286
▁turb	-8287
apping	-8288
weight	-8289
▁Allen	-8290
▁Magad	-8291
▁breed	-8292
▁dwarf	-8293
▁judge	-8294
▁manga	-8295
▁nurse	-8296
▁rever	-8297
▁rifle	-8298
▁steep	-8299
▁texts	-8300
▁Bertin	-8301
▁Cheval	-8302
▁Rifles	-8303
▁Treaty	-8304
▁banned	-8305
▁condem	-8306
▁driver	-8307
▁enters	-8308
▁priest	-8309
▁pursue	-8310
▁Arsenal	-8311
▁Asomtav	-8312
▁Nielsen	-8313
▁Railway	-8314
▁Yankees	-8315
▁demands	-8316
▁exposed	-8317
▁notably	-8318
▁partner	-8319
▁profile	-8320
▁tactics	-8321
▁turrets	-8322
▁warning	-8323
▁Djokovic	-8324
▁designer	-8325
▁dominant	-8326
▁executed	-8327
▁garrison	-8328
▁graphics	-8329
▁landings	-8330
▁strategy	-8331
▁Catechism	-8332
▁Waterfall	-8333
▁fundament	-8334
▁monuments	-8335
▁prevented	-8336
▁scattered	-8337
▁Democratic	-8338
▁Magadheera	-8339
▁celebrated	-8340
▁difference	-8341
▁recordings	-8342
▁substitute	-8343
▁Asomtavruli	-8344
▁application	-8345
▁distinctive	-8346
▁excavations	-8347
▁productions	-8348
▁settlements	-8349
▁demonstrated	-8350
▁inscriptions	-8351
▁distinguished	-8352
EC	-8353
NC	-8354
ij	-8355
gov	-8356
oli	-8357
oux	-8358
rus	-8359
uen	-8360
ugh	-8361
▁99	-8362
▁Ve	-8363
arte	-8364
avel	-8365
icia	-8366
iggs	-8367
imal	-8368
noon	-8369
rior	-8370
udes	-8371
▁(10	-8372
▁250	-8373
▁Gun	-8374
▁Hor	-8375
▁McG	-8376
▁fee	-8377
chell	-8378
fully	-8379
inian	-8380
mouth	-8381
otten	-8382
rophy	-8383
zegov	-8384
▁(195	-8385
▁1890	-8386
▁1939	-8387
▁1964	-8388
▁Beet	-8389
▁Clin	-8390
▁Dave	-8391
▁Dean	-8392
▁Glob	-8393
▁Jews	-8394
▁Kong	-8395
▁Lang	-8396
▁Nebr	-8397
▁Shel	-8398
▁duty	-8399
▁offs	-8400
▁pine	-8401
▁sure	-8402
azines	-8403
▁1940,	-8404
▁Anglo	-8405
▁Bible	-8406
▁Kevin	-8407
▁Lover	-8408
▁Lower	-8409
▁Oscar	-8410
▁Pryce	-8411
▁Those	-8412
▁Women	-8413
▁aster	-8414
▁comed	-8415
▁drain	-8416
▁edges	-8417
▁elder	-8418
▁false	-8419
▁feels	-8420
▁forty	-8421
▁frust	-8422
▁innov	-8423
▁liked	-8424
▁stood	-8425
▁tenth	-8426
▁trust	-8427
▁usage	-8428
ignment	-8429
ilation	-8430
▁Celtic	-8431
▁Heaven	-8432
▁Madrid	-8433
▁Murray	-8434
▁boxing	-8435
▁pounds	-8436
▁prompt	-8437
▁revers	-8438
▁satell	-8439
▁scheme	-8440
▁smooth	-8441
▁supern	-8442
zegovina	-8443
▁Gallery	-8444
▁Overall	-8445
▁Univers	-8446
▁altered	-8447
▁centers	-8448
▁charity	-8449
▁congreg	-8450
▁martial	-8451
▁Business	-8452
▁Nebraska	-8453
▁approval	-8454
▁assisted	-8455
▁asteroid	-8456
▁ceratops	-8457
▁commemor	-8458
▁downtown	-8459
▁premiere	-8460
▁releases	-8461
▁striking	-8462
▁subjects	-8463
▁afternoon	-8464
▁defenders	-8465
▁emergency	-8466
▁initiated	-8467
▁magazines	-8468
▁uncertain	-8469
eorological	-8470
▁indicating	-8471
▁philosophy	-8472
▁Corporation	-8473
▁Herzegovina	-8474
▁considering	-8475
▁residential	-8476
▁tournaments	-8477
▁translation	-8478
▁archaeologist	-8479
ASP	-8480
alf	-8481
ois	-8482
pic	-8483
rot	-8484
▁AP	-8485
,,,,	-8486
...]	-8487
ilty	-8488
utor	-8489
▁(6.	-8490
▁Wag	-8491
▁bod	-8492
▁lam	-8493
▁obl	-8494
burgh	-8495
ellar	-8496
essee	-8497
▁1880	-8498
▁200,	-8499
▁Auth	-8500
▁Belg	-8501
▁Cubs	-8502
▁Fran	-8503
▁Kurt	-8504
▁cous	-8505
▁fert	-8506
▁poll	-8507
▁tale	-8508
amount	-8509
encing	-8510
ffield	-8511
▁1997,	-8512
▁Davis	-8513
▁Naval	-8514
▁Swiss	-8515
▁Tracy	-8516
▁[...]	-8517
▁adopt	-8518
▁crews	-8519
▁explo	-8520
▁fatal	-8521
▁fifty	-8522
▁flash	-8523
▁roots	-8524
eratops	-8525
ologies	-8526
▁Alfred	-8527
▁Berlin	-8528
▁Finals	-8529
▁Giants	-8530
▁Priest	-8531
▁Wagner	-8532
▁bishop	-8533
▁crisis	-8534
▁guilty	-8535
▁reveal	-8536
▁sounds	-8537
▁toured	-8538
▁triple	-8539
ervative	-8540
▁Houston	-8541
▁Release	-8542
▁Village	-8543
▁amongst	-8544
▁chamber	-8545
▁deliber	-8546
▁nations	-8547
▁rebuilt	-8548
▁succeed	-8549
▁testing	-8550
▁violent	-8551
▁Jonathan	-8552
▁delivery	-8553
▁ordering	-8554
▁portrait	-8555
▁realized	-8556
▁receives	-8557
▁reducing	-8558
▁schedule	-8559
▁Mountains	-8560
▁Sheffield	-8561
▁Tennessee	-8562
▁impressed	-8563
▁requested	-8564
▁suspended	-8565
▁variation	-8566
▁colleagues	-8567
▁conclusion	-8568
▁definition	-8569
▁eliminated	-8570
▁manufactur	-8571
▁occupation	-8572
▁respective	-8573
▁quarterback	-8574
▁northeastern	-8575
▁collaboration	-8576
▁communication	-8577
▁simultaneously	-8578
AT	-8579
▁i	-8580
ait	-8581
oes	-8582
oko	-8583
▁08	-8584
cake	-8585
fess	-8586
gars	-8587
ifer	-8588
▁(9.	-8589
▁113	-8590
▁Bat	-8591
▁Esh	-8592
▁Ken	-8593
▁NDH	-8594
▁cup	-8595
▁net	-8596
▁vul	-8597
adier	-8598
agine	-8599
jamin	-8600
neath	-8601
oples	-8602
regon	-8603
tario	-8604
▁Anne	-8605
▁Caes	-8606
▁Fall	-8607
▁ISBN	-8608
▁Mach	-8609
▁Mant	-8610
▁Next	-8611
▁Rain	-8612
▁Veer	-8613
▁asks	-8614
▁clin	-8615
▁gets	-8616
▁jobs	-8617
▁mbar	-8618
▁pull	-8619
▁send	-8620
▁spur	-8621
aganda	-8622
ellect	-8623
▁Again	-8624
▁Congo	-8625
▁Evans	-8626
▁Grade	-8627
▁Hills	-8628
▁Leigh	-8629
▁Wicca	-8630
▁Xenon	-8631
▁metre	-8632
▁trick	-8633
▁upset	-8634
▁yield	-8635
▁Dakota	-8636
▁Eshmun	-8637
▁Harold	-8638
▁Hawaii	-8639
▁Labour	-8640
▁Oregon	-8641
▁culmin	-8642
▁helium	-8643
▁kilome	-8644
▁refuge	-8645
▁rounds	-8646
▁sacred	-8647
▁strict	-8648
▁venues	-8649
▁Imagine	-8650
▁Madison	-8651
▁Ontario	-8652
▁Profess	-8653
▁obvious	-8654
▁peaking	-8655
▁runners	-8656
▁talking	-8657
▁Benjamin	-8658
▁Harrison	-8659
▁Hawaiian	-8660
▁Original	-8661
▁engineer	-8662
▁formerly	-8663
▁frequent	-8664
▁interpre	-8665
▁operates	-8666
▁shoulder	-8667
▁visiting	-8668
▁battlecru	-8669
▁collapsed	-8670
▁elaborate	-8671
▁employees	-8672
▁intellect	-8673
▁molecules	-8674
▁organised	-8675
▁sentences	-8676
▁Chevaliers	-8677
▁Eventually	-8678
▁Queensland	-8679
▁components	-8680
▁impression	-8681
▁mechanical	-8682
▁withdrawal	-8683
▁potentially	-8684
▁Conservation	-8685
▁Independence	-8686
▁assassination	-8687
Pa	-8688
ba	-8689
yo	-8690
ön	-8691
▁μ	-8692
don	-8693
nda	-8694
ogy	-8695
ohl	-8696
oln	-8697
uty	-8698
▁05	-8699
▁09	-8700
▁Sn	-8701
aski	-8702
oard	-8703
osex	-8704
ucks	-8705
umin	-8706
usic	-8707
▁16.	-8708
▁163	-8709
▁Ace	-8710
▁Bah	-8711
▁Dog	-8712
▁Nar	-8713
▁Nob	-8714
▁Ple	-8715
▁Pow	-8716
▁SAS	-8717
▁See	-8718
▁Sem	-8719
▁Sup	-8720
▁Web	-8721
▁ori	-8722
▁wel	-8723
acked	-8724
anyon	-8725
borne	-8726
ekend	-8727
eless	-8728
ernon	-8729
obile	-8730
▁1936	-8731
▁1968	-8732
▁1972	-8733
▁Case	-8734
▁Corb	-8735
▁Eric	-8736
▁Omar	-8737
▁Plan	-8738
▁RAAF	-8739
▁Stav	-8740
▁abol	-8741
▁dams	-8742
▁dies	-8743
▁gust	-8744
▁isot	-8745
▁nurs	-8746
▁ride	-8747
▁sang	-8748
▁summ	-8749
▁vice	-8750
atinum	-8751
incoln	-8752
rapped	-8753
▁2016,	-8754
▁Asian	-8755
▁Carre	-8756
▁Prest	-8757
▁Trust	-8758
▁Valve	-8759
▁acids	-8760
▁carri	-8761
▁clust	-8762
▁diagn	-8763
▁drove	-8764
▁inhab	-8765
▁kills	-8766
▁paras	-8767
▁renov	-8768
▁rhyme	-8769
▁valid	-8770
angular	-8771
imetres	-8772
▁Canyon	-8773
▁Charts	-8774
▁asking	-8775
▁extrat	-8776
▁mathem	-8777
▁parody	-8778
▁remove	-8779
▁stores	-8780
▁Commons	-8781
▁Islamic	-8782
▁Mariana	-8783
▁Program	-8784
▁Pulaski	-8785
▁Section	-8786
▁Supreme	-8787
▁columns	-8788
▁conflic	-8789
▁dispute	-8790
▁earning	-8791
▁factory	-8792
▁putting	-8793
▁seeking	-8794
▁surgery	-8795
▁trouble	-8796
▁Romanian	-8797
▁artistic	-8798
▁constant	-8799
▁creative	-8800
▁machines	-8801
▁suitable	-8802
▁youngest	-8803
▁Similarly	-8804
▁advancing	-8805
▁directors	-8806
▁sentiment	-8807
▁Foundation	-8808
▁boundaries	-8809
▁comparison	-8810
▁compliment	-8811
▁documented	-8812
▁expression	-8813
▁newspapers	-8814
▁spacecraft	-8815
▁structural	-8816
▁theatrical	-8817
▁personality	-8818
▁contribution	-8819
▁environmental	-8820
▁extratropical	-8821
▁classification	-8822
ng	-8823
no	-8824
uv	-8825
ugu	-8826
uly	-8827
▁89	-8828
▁NS	-8829
agod	-8830
ansk	-8831
dney	-8832
enic	-8833
iney	-8834
raia	-8835
▁166	-8836
▁17.	-8837
▁ABC	-8838
▁Lud	-8839
▁Rem	-8840
▁alt	-8841
▁kit	-8842
▁lat	-8843
apore	-8844
ashed	-8845
byter	-8846
etime	-8847
inder	-8848
odore	-8849
▁Aman	-8850
▁Jard	-8851
▁Near	-8852
▁Nett	-8853
▁Publ	-8854
▁Rhys	-8855
▁Sant	-8856
▁Wing	-8857
▁beam	-8858
▁coff	-8859
▁enzy	-8860
▁hull	-8861
▁lies	-8862
▁swim	-8863
ennium	-8864
ieties	-8865
▁1918,	-8866
▁Ghost	-8867
▁Peach	-8868
▁Prize	-8869
▁Where	-8870
▁bases	-8871
▁falls	-8872
▁print	-8873
▁semif	-8874
▁solar	-8875
▁twent	-8876
anskrit	-8877
illiant	-8878
▁Cooper	-8879
▁Ingres	-8880
▁Sisler	-8881
▁Telugu	-8882
▁anthem	-8883
▁expert	-8884
▁honour	-8885
▁notice	-8886
▁rising	-8887
▁sample	-8888
▁superv	-8889
▁tempor	-8890
▁topped	-8891
▁trials	-8892
▁Ancient	-8893
▁Belgium	-8894
▁Jardine	-8895
▁Lincoln	-8896
▁Natural	-8897
▁Nettles	-8898
▁Sorraia	-8899
▁bridges	-8900
▁disagre	-8901
▁explain	-8902
▁fishing	-8903
▁library	-8904
▁prepare	-8905
▁removal	-8906
▁segment	-8907
▁Children	-8908
▁Together	-8909
▁armament	-8910
▁birthday	-8911
▁collapse	-8912
▁produces	-8913
▁spending	-8914
▁vertical	-8915
▁Champions	-8916
▁Louisiana	-8917
▁Woodhouse	-8918
▁inclusion	-8919
▁professor	-8920
▁questions	-8921
▁reflected	-8922
▁satellite	-8923
▁submitted	-8924
▁completing	-8925
▁personally	-8926
▁sculptures	-8927
▁Furthermore	-8928
▁archaeology	-8929
▁battleships	-8930
▁encountered	-8931
▁programming	-8932
▁temporarily	-8933
▁anekāntavāda	-8934
▁organisation	-8935
▁communications	-8936
▁representation	-8937
ef	-8938
▁”	-8939
▁3:	-8940
▁63	-8941
▁Wu	-8942
Grom	-8943
erto	-8944
gets	-8945
ieth	-8946
inge	-8947
mont	-8948
▁11.	-8949
▁123	-8950
▁178	-8951
▁766	-8952
▁Bab	-8953
▁Bad	-8954
▁Mit	-8955
▁Sym	-8956
▁Tok	-8957
▁VII	-8958
▁bom	-8959
▁hem	-8960
▁ump	-8961
acruz	-8962
enden	-8963
enses	-8964
ewise	-8965
water	-8966
▁1000	-8967
▁1989	-8968
▁Anti	-8969
▁Bald	-8970
▁Bidd	-8971
▁Conc	-8972
▁Ders	-8973
▁Face	-8974
▁Know	-8975
▁Race	-8976
▁Sony	-8977
▁barr	-8978
▁boys	-8979
▁cave	-8980
▁foss	-8981
▁gray	-8982
▁phen	-8983
▁slip	-8984
howitz	-8985
incial	-8986
irates	-8987
orable	-8988
urally	-8989
▁Cress	-8990
▁Korea	-8991
▁Neves	-8992
▁Obser	-8993
▁Sioux	-8994
▁canal	-8995
▁chest	-8996
▁coinc	-8997
▁fault	-8998
▁surge	-8999
▁wives	-9000
itively	-9001
▁Briggs	-9002
▁Cullen	-9003
▁Ernest	-9004
▁Social	-9005
▁choose	-9006
▁empire	-9007
▁fitted	-9008
▁genera	-9009
▁hidden	-9010
▁indeed	-9011
▁junior	-9012
▁meters	-9013
▁phrase	-9014
▁pretty	-9015
▁pulled	-9016
▁repair	-9017
▁sailed	-9018
▁shares	-9019
▁traded	-9020
▁weekly	-9021
▁wishes	-9022
▁Clinton	-9023
▁armored	-9024
▁beliefs	-9025
▁charted	-9026
▁evident	-9027
▁fifteen	-9028
▁illegal	-9029
▁joining	-9030
▁keeping	-9031
▁neutral	-9032
▁origins	-9033
▁prefect	-9034
▁revised	-9035
▁uniform	-9036
▁Campbell	-9037
▁Register	-9038
▁Veracruz	-9039
▁arriving	-9040
▁emphasis	-9041
▁highways	-9042
▁mainland	-9043
▁pleasure	-9044
▁upgraded	-9045
▁Biddenden	-9046
▁Christine	-9047
▁Cresswell	-9048
▁Nevesinje	-9049
▁Singapore	-9050
▁assembled	-9051
▁favorable	-9052
▁struggled	-9053
▁underwent	-9054
▁Chronicles	-9055
▁Dershowitz	-9056
▁accomplish	-9057
▁biological	-9058
▁convention	-9059
▁demolished	-9060
▁discussion	-9061
▁equivalent	-9062
▁objectives	-9063
▁publishing	-9064
▁Christopher	-9065
▁nominations	-9066
▁investigation	-9067
SP	-9068
▁₹	-9069
aho	-9070
ulu	-9071
▁91	-9072
▁SS	-9073
acre	-9074
eign	-9075
elle	-9076
nels	-9077
otte	-9078
rich	-9079
rono	-9080
soft	-9081
▁(7.	-9082
▁29.	-9083
▁Alb	-9084
▁Dud	-9085
▁Mir	-9086
acles	-9087
anzib	-9088
ersed	-9089
phoon	-9090
▁1850	-9091
▁1941	-9092
▁Cred	-9093
▁Kirk	-9094
▁Lost	-9095
▁Magn	-9096
▁Pohl	-9097
▁Prix	-9098
▁Sand	-9099
▁WASP	-9100
▁alph	-9101
▁bare	-9102
▁clay	-9103
▁dict	-9104
▁fasc	-9105
▁pace	-9106
▁pion	-9107
▁plus	-9108
▁suit	-9109
▁warn	-9110
agogue	-9111
father	-9112
ivated	-9113
likely	-9114
▁1960,	-9115
▁1991,	-9116
▁Abbey	-9117
▁Europ	-9118
▁Idaho	-9119
▁Jacob	-9120
▁categ	-9121
▁chrom	-9122
▁lanes	-9123
▁pages	-9124
▁quant	-9125
▁shift	-9126
▁strip	-9127
▁threw	-9128
olithic	-9129
▁Caesar	-9130
▁Chrono	-9131
▁Dudley	-9132
▁Sweden	-9133
▁Zanzib	-9134
▁advice	-9135
▁aggreg	-9136
▁assess	-9137
▁beings	-9138
▁cinema	-9139
▁dispat	-9140
▁enthus	-9141
▁export	-9142
▁finale	-9143
▁fusion	-9144
▁margin	-9145
▁merely	-9146
▁neighb	-9147
▁profit	-9148
▁whilst	-9149
ansfield	-9150
inations	-9151
overeign	-9152
tropical	-9153
▁Bennett	-9154
▁Defense	-9155
▁Preston	-9156
▁Switzer	-9157
▁carries	-9158
▁disband	-9159
▁feeding	-9160
▁peoples	-9161
▁powered	-9162
▁reforms	-9163
▁shorter	-9164
▁tourist	-9165
▁advertis	-9166
▁electron	-9167
▁eventual	-9168
▁facility	-9169
▁recovery	-9170
▁rotation	-9171
▁starring	-9172
▁unlikely	-9173
▁Argentine	-9174
▁Charlotte	-9175
▁Pattycake	-9176
▁abilities	-9177
▁certainly	-9178
▁daughters	-9179
▁reduction	-9180
▁controller	-9181
▁punishment	-9182
▁resolution	-9183
▁translated	-9184
▁Switzerland	-9185
▁appointment	-9186
▁illustrated	-9187
▁conversation	-9188
▁measurements	-9189
▁negotiations	-9190
▁neighborhood	-9191
▁presentation	-9192
▁publications	-9193
▁southeastern	-9194
▁architectural	-9195
7),	-9196
8),	-9197
ean	-9198
iao	-9199
opl	-9200
rik	-9201
tah	-9202
▁82	-9203
▁Yo	-9204
▁ax	-9205
▁sq	-9206
Tube	-9207
arsh	-9208
hang	-9209
isle	-9210
oust	-9211
urst	-9212
vant	-9213
yram	-9214
▁Bor	-9215
▁Dig	-9216
▁Fle	-9217
▁Imm	-9218
▁Non	-9219
▁Pak	-9220
▁Sab	-9221
▁USS	-9222
▁buy	-9223
▁gap	-9224
▁tub	-9225
acter	-9226
aired	-9227
arant	-9228
arded	-9229
brace	-9230
odrom	-9231
ospel	-9232
▁1969	-9233
▁ARVN	-9234
▁Bird	-9235
▁Bush	-9236
▁Dahl	-9237
▁Hans	-9238
▁Main	-9239
▁Nazi	-9240
▁Supp	-9241
▁Weir	-9242
▁guid	-9243
▁hosp	-9244
▁ibis	-9245
▁sect	-9246
artney	-9247
embers	-9248
ishops	-9249
▁1944,	-9250
▁1995.	-9251
▁2000.	-9252
▁2016.	-9253
▁Banks	-9254
▁Cater	-9255
▁Keith	-9256
▁Magic	-9257
▁Nadal	-9258
▁Parks	-9259
▁Upper	-9260
▁Youth	-9261
▁acute	-9262
▁adapt	-9263
▁advoc	-9264
▁anime	-9265
▁chain	-9266
▁facil	-9267
▁forth	-9268
▁signs	-9269
▁wider	-9270
ensions	-9271
minster	-9272
osexual	-9273
▁Carmel	-9274
▁Health	-9275
▁Herald	-9276
▁Madero	-9277
▁Twenty	-9278
▁Walker	-9279
▁Wander	-9280
▁Yellow	-9281
▁chicks	-9282
▁circle	-9283
▁cotton	-9284
▁devast	-9285
▁mobile	-9286
▁reader	-9287
▁rebell	-9288
▁string	-9289
▁themed	-9290
atically	-9291
▁Belgian	-9292
▁Canning	-9293
▁Country	-9294
▁Gardner	-9295
▁Indones	-9296
▁Jackets	-9297
▁Without	-9298
▁YouTube	-9299
▁closure	-9300
▁contrad	-9301
▁enemies	-9302
▁genetic	-9303
▁gravity	-9304
▁helping	-9305
▁illness	-9306
▁ongoing	-9307
▁onwards	-9308
▁stellar	-9309
▁suicide	-9310
▁telling	-9311
▁unnamed	-9312
▁updated	-9313
▁waiting	-9314
ropolitan	-9315
▁Building	-9316
▁Columbus	-9317
▁brigades	-9318
▁confront	-9319
▁controls	-9320
▁duration	-9321
▁magnetic	-9322
▁McCartney	-9323
▁Paramount	-9324
▁Wanderers	-9325
▁batteries	-9326
▁decisions	-9327
▁depicting	-9328
▁disappoin	-9329
▁elevation	-9330
▁entertain	-9331
▁pregnancy	-9332
▁referring	-9333
▁travelled	-9334
▁Christians	-9335
▁aggressive	-9336
▁percentage	-9337
▁profession	-9338
▁supplement	-9339
▁Westminster	-9340
▁accompanying	-9341
▁significance	-9342
!!	-9343
iy	-9344
aya	-9345
bra	-9346
iná	-9347
▁66	-9348
▁Az	-9349
▁CP	-9350
▁Ky	-9351
▁Mk	-9352
▁Pf	-9353
▁vs	-9354
....	-9355
cour	-9356
face	-9357
rist	-9358
roph	-9359
star	-9360
uart	-9361
wick	-9362
▁(5.	-9363
▁21.	-9364
▁Bow	-9365
▁Die	-9366
▁Fem	-9367
▁Fif	-9368
▁Las	-9369
▁Let	-9370
▁McE	-9371
▁Rom	-9372
▁sup	-9373
▁tom	-9374
leton	-9375
tered	-9376
▁1946	-9377
▁1951	-9378
▁500,	-9379
▁Disc	-9380
▁Feel	-9381
▁Khan	-9382
▁Lane	-9383
▁Priv	-9384
▁Sign	-9385
▁Tony	-9386
▁encl	-9387
▁hook	-9388
▁jury	-9389
▁liqu	-9390
▁symp	-9391
▁wish	-9392
active	-9393
elaide	-9394
imeter	-9395
penter	-9396
▁1942,	-9397
▁1992,	-9398
▁1998.	-9399
▁Andre	-9400
▁Dover	-9401
▁Freak	-9402
▁Isesi	-9403
▁Jason	-9404
▁Tales	-9405
▁Usher	-9406
▁aimed	-9407
▁diver	-9408
▁girls	-9409
▁grave	-9410
▁mines	-9411
▁pairs	-9412
▁shear	-9413
▁shirt	-9414
▁spots	-9415
▁stead	-9416
▁stock	-9417
▁tooth	-9418
inction	-9419
itarian	-9420
usaders	-9421
▁Centre	-9422
▁Rivers	-9423
▁Stuart	-9424
▁Sydney	-9425
▁Toniná	-9426
▁promin	-9427
▁riding	-9428
▁signal	-9429
▁values	-9430
▁Amanita	-9431
▁Critics	-9432
▁Everton	-9433
▁Seattle	-9434
▁ceremon	-9435
▁closing	-9436
▁donated	-9437
▁farmers	-9438
▁freedom	-9439
▁platoon	-9440
▁printed	-9441
▁terrain	-9442
▁trapped	-9443
▁Adelaide	-9444
▁Arkansas	-9445
▁Delaware	-9446
▁Heritage	-9447
▁Mitchell	-9448
▁Province	-9449
▁accurate	-9450
▁category	-9451
▁commands	-9452
▁doctrine	-9453
▁embarked	-9454
▁hydrogen	-9455
▁offering	-9456
▁patterns	-9457
▁phenomen	-9458
▁policies	-9459
▁requires	-9460
▁cancelled	-9461
▁conflicts	-9462
▁decorated	-9463
▁execution	-9464
▁indicates	-9465
▁preparing	-9466
▁searching	-9467
▁similarly	-9468
▁commanders	-9469
▁connecting	-9470
▁conversion	-9471
▁permission	-9472
▁Interchange	-9473
▁fundamental	-9474
▁Headquarters	-9475
▁concentrated	-9476
▁universities	-9477
:,	-9478
po	-9479
han	-9480
rep	-9481
sic	-9482
xic	-9483
▁%,	-9484
▁68	-9485
▁NL	-9486
anag	-9487
iang	-9488
ipes	-9489
lesh	-9490
lock	-9491
oken	-9492
pled	-9493
rett	-9494
▁(13	-9495
▁15.	-9496
▁Abd	-9497
▁Amb	-9498
▁Ian	-9499
▁McD	-9500
▁Mun	-9501
▁Nav	-9502
▁Sin	-9503
▁hen	-9504
▁hyg	-9505
▁jew	-9506
anzer	-9507
bound	-9508
herry	-9509
power	-9510
yclic	-9511
▁1981	-9512
▁Boys	-9513
▁Mars	-9514
▁anch	-9515
▁bore	-9516
▁caps	-9517
▁gift	-9518
▁reop	-9519
▁sket	-9520
▁wore	-9521
atever	-9522
ternet	-9523
▁1994,	-9524
▁1998,	-9525
▁Books	-9526
▁Falls	-9527
▁Heart	-9528
▁Leeds	-9529
▁Serbs	-9530
▁affil	-9531
▁bears	-9532
▁beats	-9533
▁crash	-9534
▁dense	-9535
▁fewer	-9536
▁flesh	-9537
▁infer	-9538
▁logic	-9539
▁ninet	-9540
▁overt	-9541
▁phone	-9542
▁ranks	-9543
▁seats	-9544
▁sleep	-9545
▁steps	-9546
▁sympt	-9547
▁Hoover	-9548
▁Jeremy	-9549
▁Michel	-9550
▁Observ	-9551
▁Panzer	-9552
▁Survey	-9553
▁Watson	-9554
▁abroad	-9555
▁apprec	-9556
▁ashore	-9557
▁ballad	-9558
▁cousin	-9559
▁credit	-9560
▁danger	-9561
▁inning	-9562
▁melody	-9563
▁mental	-9564
▁operas	-9565
▁pilots	-9566
▁prosec	-9567
▁sevent	-9568
▁solely	-9569
▁tenure	-9570
▁tissue	-9571
▁vertex	-9572
▁Angelou	-9573
▁Credits	-9574
▁Dynasty	-9575
▁Leonard	-9576
▁Lessing	-9577
▁acyclic	-9578
▁backing	-9579
▁beating	-9580
▁evolved	-9581
▁exactly	-9582
▁failing	-9583
▁harbour	-9584
▁pursuit	-9585
▁raising	-9586
▁reaches	-9587
▁rushing	-9588
▁touring	-9589
▁unclear	-9590
▁wealthy	-9591
▁wickets	-9592
▁Broadway	-9593
▁animated	-9594
▁counterp	-9595
▁detected	-9596
▁friendly	-9597
▁solution	-9598
▁Hungarian	-9599
▁Stavanger	-9600
▁civilians	-9601
▁functions	-9602
▁intercept	-9603
▁molecular	-9604
▁mountains	-9605
▁prisoners	-9606
▁strongest	-9607
▁withdrawn	-9608
▁Allosaurus	-9609
▁positively	-9610
▁vegetation	-9611
▁Description	-9612
▁continental	-9613
▁internation	-9614
▁maintaining	-9615
▁compositions	-9616
▁interactions	-9617
▁temperatures	-9618
▁transmission	-9619
▁characteristic	-9620
Ar	-9621
CO	-9622
PA	-9623
ta	-9624
aza	-9625
iac	-9626
lee	-9627
ows	-9628
oyd	-9629
▁AT	-9630
▁WN	-9631
▁id	-9632
bing	-9633
hesh	-9634
omic	-9635
oyle	-9636
raid	-9637
rose	-9638
such	-9639
ygen	-9640
zong	-9641
▁18.	-9642
▁30.	-9643
▁Dub	-9644
▁Dum	-9645
▁Hop	-9646
▁Jen	-9647
▁Rap	-9648
▁Vic	-9649
▁Zoo	-9650
▁cyt	-9651
aelic	-9652
cover	-9653
dream	-9654
ector	-9655
endar	-9656
enger	-9657
entle	-9658
ormal	-9659
ultan	-9660
worth	-9661
▁1952	-9662
▁1966	-9663
▁1973	-9664
▁Barn	-9665
▁Born	-9666
▁Eccl	-9667
▁Food	-9668
▁Kate	-9669
▁Maur	-9670
▁Poly	-9671
▁Rick	-9672
▁Sora	-9673
▁XIII	-9674
▁amph	-9675
▁nave	-9676
ective	-9677
eltown	-9678
esters	-9679
estyle	-9680
ffling	-9681
rehens	-9682
schild	-9683
thodon	-9684
yramid	-9685
▁Arabs	-9686
▁Heavy	-9687
▁Polit	-9688
▁Witch	-9689
▁acted	-9690
▁brain	-9691
▁goods	-9692
▁ideal	-9693
▁inher	-9694
tenance	-9695
▁Author	-9696
▁Corpus	-9697
▁Donald	-9698
▁Morgan	-9699
▁Tigers	-9700
▁dubbed	-9701
▁handed	-9702
▁obtain	-9703
▁oxygen	-9704
fflinger	-9705
▁Christi	-9706
▁Digital	-9707
▁Francis	-9708
▁Library	-9709
▁Mantell	-9710
▁Species	-9711
▁Welling	-9712
▁anticip	-9713
▁bowling	-9714
▁compens	-9715
▁cougars	-9716
▁gaining	-9717
▁heavier	-9718
▁restore	-9719
▁revival	-9720
▁starter	-9721
▁targets	-9722
including	-9723
▁Administ	-9724
▁Daydream	-9725
▁Internet	-9726
▁Jurchens	-9727
▁assembly	-9728
▁coverage	-9729
▁cruisers	-9730
▁identify	-9731
▁leukemia	-9732
▁lifetime	-9733
▁platinum	-9734
▁pregnant	-9735
▁reviewed	-9736
▁surprise	-9737
▁Fernandez	-9738
▁Hampshire	-9739
▁animation	-9740
▁champions	-9741
▁destroyer	-9742
▁evolution	-9743
▁increases	-9744
▁measuring	-9745
▁occurring	-9746
▁ownership	-9747
▁permitted	-9748
▁qualified	-9749
▁relegated	-9750
▁seriously	-9751
▁virtually	-9752
▁Rothschild	-9753
▁Wellington	-9754
▁consistent	-9755
▁reinforced	-9756
▁succession	-9757
▁successive	-9758
▁Derfflinger	-9759
▁Nightingale	-9760
▁appropriate	-9761
▁grandfather	-9762
▁interpreted	-9763
▁observation	-9764
▁photographs	-9765
▁parliamentary	-9766
▁administrative	-9767
):	-9768
9),	-9769
oom	-9770
ori	-9771
rad	-9772
ras	-9773
udo	-9774
uzz	-9775
▁02	-9776
▁58	-9777
▁Eg	-9778
▁Kō	-9779
acts	-9780
itia	-9781
olve	-9782
rous	-9783
unch	-9784
▁(30	-9785
▁101	-9786
▁Got	-9787
▁HNC	-9788
▁Kau	-9789
▁Mix	-9790
▁Nel	-9791
▁Pot	-9792
▁Set	-9793
▁Ult	-9794
▁ban	-9795
▁bon	-9796
▁gar	-9797
▁mir	-9798
▁rid	-9799
enous	-9800
oster	-9801
▁1860	-9802
▁1956	-9803
▁1975	-9804
▁1985	-9805
▁Data	-9806
▁Hugh	-9807
▁Kody	-9808
▁Maya	-9809
▁Neil	-9810
▁Room	-9811
▁code	-9812
▁fame	-9813
▁feud	-9814
▁gang	-9815
▁loud	-9816
ingray	-9817
street	-9818
▁1988,	-9819
▁Actor	-9820
▁Cyrus	-9821
▁Eight	-9822
▁Grace	-9823
▁Harry	-9824
▁Trees	-9825
▁Years	-9826
▁admin	-9827
▁autom	-9828
▁balls	-9829
▁grade	-9830
▁helps	-9831
▁hills	-9832
▁irreg	-9833
▁laugh	-9834
▁manip	-9835
▁rains	-9836
▁sings	-9837
▁sized	-9838
▁toler	-9839
▁tours	-9840
▁vault	-9841
▁votes	-9842
aration	-9843
legraph	-9844
▁Almost	-9845
▁Batter	-9846
▁Bedell	-9847
▁Econom	-9848
▁Manuel	-9849
▁agency	-9850
▁armies	-9851
▁backed	-9852
▁beauty	-9853
▁cancel	-9854
▁doctor	-9855
▁excell	-9856
▁golden	-9857
▁guides	-9858
▁hamper	-9859
▁heroes	-9860
▁housed	-9861
▁naming	-9862
▁parent	-9863
▁runway	-9864
▁seized	-9865
▁subsid	-9866
▁tasked	-9867
▁therap	-9868
▁varied	-9869
issioned	-9870
▁Looking	-9871
▁Madonna	-9872
▁Perform	-9873
▁Romania	-9874
▁Studies	-9875
▁balance	-9876
▁blocked	-9877
▁clothes	-9878
▁credits	-9879
▁distrib	-9880
▁flooded	-9881
▁pounder	-9882
▁puzzles	-9883
▁revived	-9884
▁sitting	-9885
▁sixteen	-9886
▁walking	-9887
▁Baseball	-9888
▁Margaret	-9889
▁attitude	-9890
▁audition	-9891
▁bodyline	-9892
▁clothing	-9893
▁constitu	-9894
▁departed	-9895
▁explicit	-9896
▁habitats	-9897
▁numbered	-9898
▁pitching	-9899
▁resemble	-9900
▁sporting	-9901
▁suddenly	-9902
▁Rhodesian	-9903
▁believing	-9904
▁capturing	-9905
▁depiction	-9906
▁displaced	-9907
▁hospitals	-9908
▁irregular	-9909
▁perceived	-9910
▁reactions	-9911
▁secretary	-9912
▁synagogue	-9913
▁Bradstreet	-9914
▁Collection	-9915
▁authorized	-9916
▁commenting	-9917
▁continuous	-9918
▁downstream	-9919
▁engagement	-9920
▁kilometers	-9921
▁proportion	-9922
▁questioned	-9923
▁registered	-9924
▁understood	-9925
▁Palestinian	-9926
▁manuscripts	-9927
▁participate	-9928
▁promotional	-9929
▁announcement	-9930
▁historically	-9931
▁championships	-9932
▁entertainment	-9933
▁Transportation	-9934
▁representatives	-9935
CU	-9936
jo	-9937
la	-9938
ikk	-9939
urd	-9940
▁2:	-9941
▁67	-9942
▁86	-9943
▁93	-9944
▁DS	-9945
▁Rä	-9946
▁Vi	-9947
agen	-9948
ashi	-9949
book	-9950
eloc	-9951
icul	-9952
inus	-9953
roat	-9954
stal	-9955
önen	-9956
▁168	-9957
▁Blu	-9958
▁Cas	-9959
▁Oak	-9960
▁Sky	-9961
▁Son	-9962
▁Tit	-9963
▁WWF	-9964
▁Wik	-9965
▁dod	-9966
▁ech	-9967
▁jet	-9968
▁pap	-9969
▁sew	-9970
▁vir	-9971
hetic	-9972
ricts	-9973
thren	-9974
▁1967	-9975
▁Bapt	-9976
▁Buck	-9977
▁Cant	-9978
▁Dick	-9979
▁Dram	-9980
▁Etty	-9981
▁Iowa	-9982
▁List	-9983
▁Ohio	-9984
▁Pier	-9985
▁Prom	-9986
▁Ship	-9987
▁cler	-9988
▁dual	-9989
▁epic	-9990
▁flew	-9991
▁herd	-9992
▁rays	-9993
▁salv	-9994
▁scar	-9995
▁stim	-9996
▁wolf	-9997
▁zomb	-9998
anches	-9999
terior	-10000
▁1985,	-10001
▁1989,	-10002
▁1990,	-10003
▁Honor	-10004
▁McCar	-10005
▁Räikk	-10006
▁Tokyo	-10007
▁Trond	-10008
▁Vegas	-10009
▁accum	-10010
▁banks	-10011
▁noble	-10012
▁prize	-10013
▁queen	-10014
▁ruler	-10015
▁veter	-10016
hemical	-10017
mingham	-10018
▁Contem	-10019
▁Gaelic	-10020
▁Import	-10021
▁Staley	-10022
▁edited	-10023
▁factor	-10024
▁scorer	-10025
▁shrine	-10026
▁victim	-10027
▁Coldrum	-10028
▁Cricket	-10029
▁Haitian	-10030
▁Skinner	-10031
▁affairs	-10032
▁fastest	-10033
▁kickoff	-10034
▁mystery	-10035
▁passion	-10036
▁replied	-10037
▁rescued	-10038
▁tickets	-10039
▁Antimony	-10040
▁Zanzibar	-10041
▁absorbed	-10042
▁aerodrom	-10043
▁coaching	-10044
▁memories	-10045
▁teachers	-10046
▁vicinity	-10047
▁Palmyrene	-10048
▁Räikkönen	-10049
▁Trondheim	-10050
▁component	-10051
▁comprised	-10052
▁dependent	-10053
▁distances	-10054
▁districts	-10055
▁infection	-10056
▁strategic	-10057
▁Birmingham	-10058
▁approaches	-10059
▁candidates	-10060
▁industries	-10061
▁mainstream	-10062
▁touchdowns	-10063
▁undertaken	-10064
▁compilation	-10065
▁disturbance	-10066
▁Christianity	-10067
▁arrangements	-10068
▁restrictions	-10069
OM	-10070
Sh	-10071
hPa	-10072
oof	-10073
pir	-10074
pse	-10075
wan	-10076
ình	-10077
▁03	-10078
▁74	-10079
▁84	-10080
▁NM	-10081
▁Xe	-10082
alsa	-10083
azer	-10084
ilda	-10085
oded	-10086
olin	-10087
uras	-10088
▁165	-10089
▁Cit	-10090
▁Dod	-10091
▁Dor	-10092
▁Ext	-10093
▁Gro	-10094
▁IOC	-10095
▁Lad	-10096
▁McM	-10097
▁Nat	-10098
▁Pan	-10099
▁Reb	-10100
▁Rul	-10101
▁fru	-10102
▁rig	-10103
arest	-10104
arris	-10105
emble	-10106
eries	-10107
guard	-10108
▁Ages	-10109
▁Beau	-10110
▁Bosn	-10111
▁Deep	-10112
▁Hair	-10113
▁Halo	-10114
▁Isle	-10115
▁Mack	-10116
▁Moon	-10117
▁Mort	-10118
▁Nine	-10119
▁Thak	-10120
▁Tree	-10121
▁atop	-10122
▁brut	-10123
▁craf	-10124
▁dust	-10125
▁pole	-10126
▁punt	-10127
▁reag	-10128
▁wait	-10129
▁worn	-10130
achute	-10131
barian	-10132
blazer	-10133
cluded	-10134
ficial	-10135
inness	-10136
luence	-10137
urance	-10138
veland	-10139
wegian	-10140
▁1917,	-10141
▁1919,	-10142
▁Exper	-10143
▁Liter	-10144
▁Marie	-10145
▁Singh	-10146
▁admir	-10147
▁audio	-10148
▁crick	-10149
▁flies	-10150
▁genes	-10151
▁juven	-10152
▁liner	-10153
▁medal	-10154
▁penet	-10155
▁poets	-10156
▁popul	-10157
▁redes	-10158
▁trend	-10159
▁tubes	-10160
▁vital	-10161
anville	-10162
athered	-10163
▁Bright	-10164
▁Bulgar	-10165
▁Corbet	-10166
▁Creutz	-10167
▁Dennis	-10168
▁Hannah	-10169
▁Joyful	-10170
▁Monkey	-10171
▁Reagan	-10172
▁Return	-10173
▁Shadow	-10174
▁Slayer	-10175
▁aboard	-10176
▁aerial	-10177
▁behalf	-10178
▁curved	-10179
▁extens	-10180
▁insurg	-10181
▁metall	-10182
▁miners	-10183
▁myster	-10184
▁pistol	-10185
▁puppet	-10186
▁refere	-10187
▁roller	-10188
▁rubber	-10189
▁talent	-10190
▁trough	-10191
▁Foreign	-10192
▁Gregory	-10193
▁Kennedy	-10194
▁Morning	-10195
▁Senator	-10196
▁Tristan	-10197
▁Wrapped	-10198
▁Wyoming	-10199
▁arguing	-10200
▁batsmen	-10201
▁bombing	-10202
▁consent	-10203
▁denomin	-10204
▁diamond	-10205
▁escaped	-10206
▁extinct	-10207
▁hearing	-10208
▁hitting	-10209
▁justice	-10210
▁matters	-10211
▁sending	-10212
▁speaker	-10213
▁concepts	-10214
▁crickets	-10215
▁drinking	-10216
▁fourteen	-10217
▁fragment	-10218
▁mathemat	-10219
▁membrane	-10220
▁opposing	-10221
▁pictures	-10222
▁praising	-10223
▁universe	-10224
▁Cleveland	-10225
▁Norwegian	-10226
▁brilliant	-10227
▁exclusive	-10228
▁machinery	-10229
▁marketing	-10230
▁recurring	-10231
▁relatives	-10232
▁traveling	-10233
▁Ecclestone	-10234
▁Federation	-10235
▁archbishop	-10236
▁businesses	-10237
▁concession	-10238
▁exhibition	-10239
▁laboratory	-10240
▁agriculture	-10241
▁conjunction	-10242
▁extensively	-10243
▁maintenance	-10244
▁observatory	-10245
▁territorial	-10246
▁complimented	-10247
▁consistently	-10248
▁requirements	-10249
▁Archaeological	-10250
▁archaeologists	-10251
CW	-10252
iè	-10253
ić	-10254
erm	-10255
esh	-10256
ini	-10257
olm	-10258
una	-10259
▁Af	-10260
▁Iv	-10261
▁Ow	-10262
▁Ra	-10263
aria	-10264
asha	-10265
cles	-10266
fers	-10267
gers	-10268
iger	-10269
imer	-10270
inaw	-10271
zona	-10272
▁(25	-10273
▁117	-10274
▁127	-10275
▁155	-10276
▁Aub	-10277
▁Ful	-10278
▁Lam	-10279
▁Pam	-10280
▁Sox	-10281
▁gor	-10282
▁lad	-10283
▁liv	-10284
▁squ	-10285
about	-10286
agreb	-10287
andra	-10288
ensis	-10289
ogram	-10290
orage	-10291
osity	-10292
overy	-10293
phrey	-10294
romet	-10295
venge	-10296
▁1913	-10297
▁1944	-10298
▁1965	-10299
▁Hong	-10300
▁José	-10301
▁Liao	-10302
▁Pole	-10303
▁Shim	-10304
▁True	-10305
▁fulf	-10306
▁gene	-10307
▁happ	-10308
▁mand	-10309
▁zinc	-10310
aceous	-10311
igious	-10312
ocaust	-10313
olence	-10314
oustic	-10315
rieved	-10316
▁1964,	-10317
▁Dance	-10318
▁Doyle	-10319
▁Globe	-10320
▁Guine	-10321
▁Hobbs	-10322
▁Joint	-10323
▁Lucas	-10324
▁Marge	-10325
▁Pagan	-10326
▁Shell	-10327
▁Stars	-10328
▁Tommy	-10329
▁Works	-10330
▁abuse	-10331
▁alive	-10332
▁apply	-10333
▁brand	-10334
▁canon	-10335
▁deals	-10336
▁enorm	-10337
▁guide	-10338
▁horiz	-10339
▁motif	-10340
▁reper	-10341
▁sheep	-10342
▁spawn	-10343
▁stick	-10344
▁sugar	-10345
▁taste	-10346
▁tombs	-10347
▁users	-10348
▁usual	-10349
▁venue	-10350
claimed	-10351
underst	-10352
▁Beeton	-10353
▁Comedy	-10354
▁Europa	-10355
▁Flower	-10356
▁Ground	-10357
▁Hughes	-10358
▁Places	-10359
▁Quiney	-10360
▁Urania	-10361
▁Vulcan	-10362
▁Zagreb	-10363
▁beaten	-10364
▁couldn	-10365
▁decomm	-10366
▁device	-10367
▁exceed	-10368
▁faster	-10369
▁lacked	-10370
▁legacy	-10371
▁mature	-10372
▁myself	-10373
▁racing	-10374
▁tested	-10375
▁trails	-10376
▁trains	-10377
iography	-10378
▁Arizona	-10379
▁Finally	-10380
▁Plateau	-10381
▁Popular	-10382
▁advised	-10383
▁courses	-10384
▁cutting	-10385
▁explore	-10386
▁funeral	-10387
▁hostile	-10388
▁lacking	-10389
▁locally	-10390
▁persist	-10391
▁pushing	-10392
▁pyramid	-10393
▁renewed	-10394
▁revenue	-10395
▁tracked	-10396
▁weekend	-10397
▁Highland	-10398
▁Humphrey	-10399
▁Sanskrit	-10400
▁chapters	-10401
▁consolid	-10402
▁presents	-10403
▁steadily	-10404
ographical	-10405
▁Cambodian	-10406
▁Carpenter	-10407
▁Community	-10408
▁Egyptians	-10409
▁Holocaust	-10410
▁allocated	-10411
▁commenced	-10412
▁conscious	-10413
▁extending	-10414
▁neighbour	-10415
▁peninsula	-10416
▁predicted	-10417
▁twentieth	-10418
▁Hellblazer	-10419
▁Hurricanes	-10420
▁Interstate	-10421
▁Operations	-10422
▁households	-10423
▁indigenous	-10424
▁investment	-10425
▁propaganda	-10426
▁provincial	-10427
▁statements	-10428
▁centimetres	-10429
▁examination	-10430
▁exploration	-10431
▁governments	-10432
▁immigration	-10433
▁partnership	-10434
▁transported	-10435
▁intellectual	-10436
▁Meteorological	-10437
ES	-10438
tz	-10439
zo	-10440
ée	-10441
2).	-10442
6),	-10443
RNA	-10444
asm	-10445
fly	-10446
olt	-10447
ubs	-10448
▁01	-10449
▁78	-10450
▁Lü	-10451
▁PC	-10452
▁da	-10453
alog	-10454
aple	-10455
arro	-10456
inds	-10457
irts	-10458
join	-10459
ogan	-10460
ribi	-10461
▁(14	-10462
▁140	-10463
▁Box	-10464
▁Dot	-10465
▁Hay	-10466
▁McN	-10467
▁Pur	-10468
▁Say	-10469
▁jaw	-10470
▁kid	-10471
▁wre	-10472
agoda	-10473
ended	-10474
gends	-10475
ifeng	-10476
inted	-10477
iscus	-10478
itely	-10479
oints	-10480
uters	-10481
uther	-10482
ético	-10483
▁1919	-10484
▁1929	-10485
▁1937	-10486
▁1942	-10487
▁1961	-10488
▁Cart	-10489
▁Cass	-10490
▁Cond	-10491
▁Kyle	-10492
▁Kyra	-10493
▁NASA	-10494
▁NCAA	-10495
▁Prin	-10496
▁Serb	-10497
▁acre	-10498
▁amid	-10499
▁cosm	-10500
▁load	-10501
▁mate	-10502
▁mood	-10503
▁obsc	-10504
▁pled	-10505
▁seas	-10506
▁snow	-10507
▁soci	-10508
▁styl	-10509
▁trio	-10510
▁ward	-10511
andern	-10512
▁1915,	-10513
▁1945,	-10514
▁1947,	-10515
▁2002.	-10516
▁Brack	-10517
▁Bruce	-10518
▁Cecil	-10519
▁Cloud	-10520
▁Guild	-10521
▁Local	-10522
▁Mkhed	-10523
▁Offic	-10524
▁Opera	-10525
▁Sixth	-10526
▁autob	-10527
▁lumin	-10528
▁mayor	-10529
▁plate	-10530
▁ports	-10531
▁rocks	-10532
▁simpl	-10533
▁talks	-10534
ighters	-10535
▁Agency	-10536
▁Brenda	-10537
▁Hockey	-10538
▁Justin	-10539
▁Living	-10540
▁Reines	-10541
▁alphab	-10542
▁assert	-10543
▁autumn	-10544
▁breaks	-10545
▁canals	-10546
▁eating	-10547
▁funded	-10548
▁gender	-10549
▁integr	-10550
▁lumber	-10551
▁quoted	-10552
▁recept	-10553
▁retain	-10554
▁reward	-10555
▁slopes	-10556
▁unrest	-10557
▁visits	-10558
▁voices	-10559
▁warned	-10560
▁Baptist	-10561
▁Kaifeng	-10562
▁Navarro	-10563
▁Pirates	-10564
▁Players	-10565
▁Russell	-10566
▁acceler	-10567
▁comfort	-10568
▁comprom	-10569
▁density	-10570
▁distant	-10571
▁enforce	-10572
▁ignored	-10573
▁insects	-10574
▁magical	-10575
▁placing	-10576
▁priests	-10577
▁repairs	-10578
▁singers	-10579
▁threats	-10580
▁volumes	-10581
andernoot	-10582
▁Atlético	-10583
▁Austrian	-10584
▁Campaign	-10585
▁Cantrell	-10586
▁Champion	-10587
▁Computer	-10588
▁Princess	-10589
▁Villaret	-10590
▁absolute	-10591
▁airports	-10592
▁argument	-10593
▁cemetery	-10594
▁flagship	-10595
▁minority	-10596
▁offshore	-10597
▁portions	-10598
▁studying	-10599
▁valuable	-10600
▁Africaine	-10601
▁Mkhedruli	-10602
▁celebrate	-10603
▁condemned	-10604
▁exhausted	-10605
▁inaugural	-10606
▁proceeded	-10607
▁sexuality	-10608
▁Partington	-10609
▁calculated	-10610
▁complement	-10611
▁constantly	-10612
▁developers	-10613
▁homosexual	-10614
▁reportedly	-10615
▁storylines	-10616
▁Archaeology	-10617
▁approaching	-10618
▁challenging	-10619
▁connections	-10620
▁operational	-10621
▁speculation	-10622
▁tributaries	-10623
▁Contemporary	-10624
▁conventional	-10625
▁presidential	-10626
▁concentration	-10627
VP	-10628
ii	-10629
rh	-10630
rí	-10631
1),	-10632
bow	-10633
gud	-10634
har	-10635
hua	-10636
kef	-10637
tym	-10638
▁":	-10639
▁Lt	-10640
▁hi	-10641
apol	-10642
atum	-10643
awny	-10644
brew	-10645
ilis	-10646
inai	-10647
zhou	-10648
▁20.	-10649
▁25.	-10650
▁360	-10651
▁Alg	-10652
▁Bal	-10653
▁Ech	-10654
▁Ele	-10655
▁Imp	-10656
▁Raf	-10657
▁Sau	-10658
▁Sev	-10659
▁duo	-10660
▁nom	-10661
▁nut	-10662
▁pig	-10663
aduct	-10664
arged	-10665
found	-10666
ocent	-10667
olics	-10668
place	-10669
reens	-10670
rible	-10671
rinth	-10672
▁1943	-10673
▁1955	-10674
▁Alfa	-10675
▁Boss	-10676
▁Farm	-10677
▁Lamb	-10678
▁beds	-10679
▁cann	-10680
▁edit	-10681
▁hind	-10682
▁lect	-10683
▁mini	-10684
▁reun	-10685
icians	-10686
ielgud	-10687
mbrace	-10688
reated	-10689
riarch	-10690
▁1971,	-10691
▁Billy	-10692
▁Crash	-10693
▁Files	-10694
▁Fried	-10695
▁Isles	-10696
▁Lloyd	-10697
▁Movie	-10698
▁Ruler	-10699
▁Seven	-10700
▁Sinai	-10701
▁Small	-10702
▁Still	-10703
▁auton	-10704
▁buoys	-10705
▁corps	-10706
▁dozen	-10707
▁dying	-10708
▁flows	-10709
▁grows	-10710
▁humor	-10711
▁legit	-10712
▁loved	-10713
▁moist	-10714
▁monit	-10715
▁noise	-10716
▁overs	-10717
▁prest	-10718
▁resid	-10719
▁sanct	-10720
▁smoke	-10721
▁stall	-10722
▁tasks	-10723
▁toxic	-10724
▁truly	-10725
▁urged	-10726
▁waves	-10727
ginning	-10728
icester	-10729
orrowed	-10730
rapping	-10731
▁Auburn	-10732
▁Austro	-10733
▁Ganges	-10734
▁Graham	-10735
▁Invest	-10736
▁Johnny	-10737
▁Rockef	-10738
▁Ronald	-10739
▁Sultan	-10740
▁Trophy	-10741
▁Ulster	-10742
▁clergy	-10743
▁decide	-10744
▁finest	-10745
▁hamlet	-10746
▁manage	-10747
▁puzzle	-10748
▁rivals	-10749
▁salary	-10750
▁shield	-10751
▁timber	-10752
abyrinth	-10753
▁Kenneth	-10754
▁Mission	-10755
▁Philipp	-10756
▁circuit	-10757
▁colours	-10758
▁devoted	-10759
▁divorce	-10760
▁drivers	-10761
▁dynamic	-10762
▁imagery	-10763
▁knocked	-10764
▁lyrical	-10765
▁marking	-10766
▁persons	-10767
▁physics	-10768
▁roadway	-10769
▁screens	-10770
▁soldier	-10771
▁surpass	-10772
▁travels	-10773
▁undergo	-10774
▁venture	-10775
ibilities	-10776
mbracelet	-10777
▁Aviation	-10778
▁Franklin	-10779
▁Superman	-10780
▁airfield	-10781
▁attorney	-10782
▁deterior	-10783
▁emotions	-10784
▁gathered	-10785
▁graduate	-10786
▁passages	-10787
▁preserve	-10788
▁prospect	-10789
▁stronger	-10790
▁teammate	-10791
▁vertices	-10792
roximately	-10793
▁Catholics	-10794
▁Commandos	-10795
▁Companies	-10796
▁Glanville	-10797
▁Lancaster	-10798
▁Qedarites	-10799
▁Yorkshire	-10800
▁belonging	-10801
▁fragments	-10802
▁memorable	-10803
▁shipments	-10804
▁sponsored	-10805
▁stretched	-10806
▁diplomatic	-10807
▁intersects	-10808
▁mysterious	-10809
▁occasional	-10810
▁progressed	-10811
▁repeatedly	-10812
▁traditions	-10813
▁variations	-10814
▁Composition	-10815
▁Rockefeller	-10816
▁consumption	-10817
▁cooperation	-10818
▁essentially	-10819
▁improvement	-10820
▁permanently	-10821
▁politicians	-10822
▁surrendered	-10823
▁experimental	-10824
▁similarities	-10825
▁Charmbracelet	-10826
EA	-10827
],	-10828
ht	-10829
án	-10830
3).	-10831
alu	-10832
cut	-10833
iga	-10834
isp	-10835
ker	-10836
mad	-10837
osy	-10838
▁Ep	-10839
▁Sb	-10840
▁Tu	-10841
▁pp	-10842
acko	-10843
anka	-10844
anya	-10845
aulk	-10846
enar	-10847
even	-10848
from	-10849
irty	-10850
nall	-10851
owed	-10852
vada	-10853
▁169	-10854
▁Cad	-10855
▁Cov	-10856
▁Hur	-10857
▁Jag	-10858
▁Kle	-10859
▁Ten	-10860
▁Vik	-10861
▁WNO	-10862
▁ath	-10863
▁avo	-10864
▁mac	-10865
▁pin	-10866
▁urg	-10867
ashes	-10868
azing	-10869
enson	-10870
pense	-10871
raits	-10872
uedoc	-10873
▁1914	-10874
▁1945	-10875
▁1954	-10876
▁1974	-10877
▁Circ	-10878
▁Conn	-10879
▁Cret	-10880
▁Mond	-10881
▁Sout	-10882
▁Tide	-10883
▁Utah	-10884
▁Want	-10885
▁cook	-10886
▁duet	-10887
▁garn	-10888
▁genu	-10889
▁grap	-10890
▁heir	-10891
▁navy	-10892
▁pink	-10893
▁rede	-10894
▁sibl	-10895
▁span	-10896
▁tape	-10897
▁torn	-10898
▁tort	-10899
▁unex	-10900
htwald	-10901
lights	-10902
▁(2010	-10903
▁1939,	-10904
▁1943,	-10905
▁1965,	-10906
▁1967,	-10907
▁1981,	-10908
▁1986,	-10909
▁Adult	-10910
▁Bhair	-10911
▁Blues	-10912
▁Dress	-10913
▁Elgin	-10914
▁Faulk	-10915
▁Gacko	-10916
▁Jimmy	-10917
▁Kings	-10918
▁Larry	-10919
▁Metro	-10920
▁Scots	-10921
▁Trail	-10922
▁Wrest	-10923
▁adequ	-10924
▁angle	-10925
▁bombs	-10926
▁brood	-10927
▁cards	-10928
▁draws	-10929
▁essay	-10930
▁funny	-10931
▁knock	-10932
▁links	-10933
▁loyal	-10934
▁magic	-10935
▁march	-10936
▁naked	-10937
▁posts	-10938
▁price	-10939
▁sharp	-10940
▁stanz	-10941
▁tools	-10942
▁trunk	-10943
amation	-10944
iblical	-10945
ictions	-10946
igadier	-10947
issions	-10948
mediate	-10949
raction	-10950
▁Clocks	-10951
▁Nevada	-10952
▁amphib	-10953
▁ascend	-10954
▁ceased	-10955
▁compan	-10956
▁endors	-10957
▁hoping	-10958
▁horror	-10959
▁indigo	-10960
▁intend	-10961
▁kicked	-10962
▁limits	-10963
▁opined	-10964
▁planes	-10965
▁precip	-10966
▁sacked	-10967
▁scenar	-10968
▁tonnes	-10969
▁unless	-10970
▁verses	-10971
▁wicket	-10972
▁Actress	-10973
▁Austria	-10974
▁Bernard	-10975
▁Bristol	-10976
▁Freakum	-10977
▁Gielgud	-10978
▁Machine	-10979
▁athlete	-10980
▁avoided	-10981
▁barrier	-10982
▁dealing	-10983
▁disrupt	-10984
▁dressed	-10985
▁guarant	-10986
▁minimal	-10987
▁planets	-10988
▁shallow	-10989
▁shifted	-10990
▁tunnels	-10991
▁Cultural	-10992
▁Faulkner	-10993
▁Loverboy	-10994
▁McCarthy	-10995
▁Montreal	-10996
▁Railroad	-10997
▁Robinson	-10998
▁centered	-10999
▁drainage	-11000
▁enormous	-11001
▁familiar	-11002
▁garnered	-11003
▁imperial	-11004
▁involves	-11005
▁isotopes	-11006
▁landmark	-11007
▁narrator	-11008
▁opinions	-11009
▁publicly	-11010
▁screened	-11011
▁siblings	-11012
▁survival	-11013
▁symptoms	-11014
▁Berhtwald	-11015
▁Formation	-11016
▁Languedoc	-11017
▁Leicester	-11018
▁Neolithic	-11019
▁Professor	-11020
▁boyfriend	-11021
▁confusion	-11022
▁directing	-11023
▁evacuated	-11024
▁mythology	-11025
▁perfectly	-11026
▁replacing	-11027
▁seemingly	-11028
▁stability	-11029
▁substance	-11030
▁violation	-11031
▁Cretaceous	-11032
▁Millennium	-11033
▁Yugoslavia	-11034
▁acceptable	-11035
▁ambassador	-11036
▁dedication	-11037
▁employment	-11038
▁jackrabbit	-11039
▁processing	-11040
▁prohibited	-11041
▁relegation	-11042
▁remarkable	-11043
▁songwriter	-11044
▁accommodate	-11045
▁battlefield	-11046
▁bombardment	-11047
▁collections	-11048
▁destination	-11049
▁disappeared	-11050
▁nightingale	-11051
▁rectangular	-11052
▁sufficiently	-11053
▁manufacturing	-11054
▁predominantly	-11055
:)	-11056
ươ	-11057
▁Æ	-11058
box	-11059
hum	-11060
nyi	-11061
rix	-11062
ygh	-11063
zed	-11064
▁Ak	-11065
▁Da	-11066
▁Dw	-11067
▁IA	-11068
▁mg	-11069
adys	-11070
akim	-11071
athy	-11072
gans	-11073
iors	-11074
olia	-11075
saku	-11076
urre	-11077
ương	-11078
▁114	-11079
▁Arn	-11080
▁Hip	-11081
▁Hit	-11082
▁Loy	-11083
▁MLB	-11084
▁Spe	-11085
▁Tow	-11086
▁nep	-11087
aping	-11088
illas	-11089
illes	-11090
inate	-11091
olves	-11092
onsin	-11093
overs	-11094
phant	-11095
▁1800	-11096
▁1830	-11097
▁1870	-11098
▁1910	-11099
▁1916	-11100
▁1918	-11101
▁1953	-11102
▁Appe	-11103
▁Assy	-11104
▁Bình	-11105
▁Come	-11106
▁Crab	-11107
▁Edge	-11108
▁Fast	-11109
▁Glad	-11110
▁Mile	-11111
▁Pete	-11112
▁Raid	-11113
▁Tong	-11114
▁Wisc	-11115
▁Yang	-11116
▁cash	-11117
▁cuts	-11118
▁item	-11119
▁plag	-11120
▁soph	-11121
▁swit	-11122
anther	-11123
▁1968,	-11124
▁1986.	-11125
▁1990.	-11126
▁1999.	-11127
▁Devin	-11128
▁Leban	-11129
▁Loose	-11130
▁Medal	-11131
▁demon	-11132
▁fires	-11133
▁grain	-11134
▁lying	-11135
▁morph	-11136
▁saint	-11137
▁spore	-11138
▁taxon	-11139
▁walks	-11140
▁weigh	-11141
▁Colomb	-11142
▁Commer	-11143
▁Direct	-11144
▁Dwight	-11145
▁Garden	-11146
▁Kōsaku	-11147
▁Malays	-11148
▁Napole	-11149
▁Senate	-11150
▁afford	-11151
▁bypass	-11152
▁census	-11153
▁colors	-11154
▁enroll	-11155
▁expand	-11156
▁halted	-11157
▁learns	-11158
▁licens	-11159
▁linear	-11160
▁movies	-11161
▁rejoin	-11162
▁retail	-11163
▁rushed	-11164
▁sacrif	-11165
▁varies	-11166
▁vulner	-11167
urrently	-11168
▁Antonio	-11169
▁Bradman	-11170
▁Defence	-11171
▁Filming	-11172
▁Liberal	-11173
▁Maurice	-11174
▁Pfaster	-11175
▁Weather	-11176
▁cabinet	-11177
▁caliber	-11178
▁cavalry	-11179
▁continu	-11180
▁experts	-11181
▁extends	-11182
▁grasses	-11183
▁imposed	-11184
▁options	-11185
▁spotted	-11186
▁supreme	-11187
▁suspect	-11188
▁therapy	-11189
▁warfare	-11190
▁Aircraft	-11191
▁Brigades	-11192
▁Pakistan	-11193
▁acoustic	-11194
▁advances	-11195
▁aviation	-11196
▁cyclones	-11197
▁defender	-11198
▁demanded	-11199
▁governed	-11200
▁heritage	-11201
▁hypothes	-11202
▁inducted	-11203
▁petition	-11204
▁relieved	-11205
▁variable	-11206
▁Barbarian	-11207
▁Beginning	-11208
▁Gladstone	-11209
▁Represent	-11210
▁Shimomura	-11211
▁Telegraph	-11212
▁Wisconsin	-11213
▁alternate	-11214
▁computers	-11215
▁disbanded	-11216
▁landscape	-11217
▁limestone	-11218
▁microscop	-11219
▁offerings	-11220
▁populated	-11221
▁presbyter	-11222
▁releasing	-11223
▁sensitive	-11224
▁surprised	-11225
▁universal	-11226
▁weakening	-11227
▁Technology	-11228
▁Vandernoot	-11229
▁Witchcraft	-11230
▁battleship	-11231
▁challenges	-11232
▁comprehens	-11233
▁electrical	-11234
▁helicopter	-11235
▁immigrants	-11236
▁competitive	-11237
▁complicated	-11238
▁highlighted	-11239
▁Constitution	-11240
▁collaborated	-11241
▁deliberately	-11242
▁improvements	-11243
▁participants	-11244
▁decommissioned	-11245
▁→	-11246
aft	-11247
ags	-11248
gom	-11249
pat	-11250
▁Ah	-11251
▁Mh	-11252
▁Uk	-11253
▁yd	-11254
atra	-11255
bits	-11256
dale	-11257
hire	-11258
itic	-11259
lroy	-11260
ouli	-11261
uskh	-11262
▁...	-11263
▁174	-11264
▁22.	-11265
▁23.	-11266
▁350	-11267
▁ATP	-11268
▁CPS	-11269
▁Eve	-11270
▁FIT	-11271
▁Imb	-11272
▁Kam	-11273
▁Rag	-11274
▁Rav	-11275
▁Saf	-11276
▁Tan	-11277
▁Wed	-11278
▁ben	-11279
▁gri	-11280
▁ion	-11281
▁isn	-11282
▁lie	-11283
▁nat	-11284
▁ped	-11285
▁pse	-11286
▁rit	-11287
▁tal	-11288
agers	-11289
aiman	-11290
ework	-11291
ifest	-11292
iller	-11293
irect	-11294
itter	-11295
lando	-11296
ocese	-11297
rooms	-11298
▁1949	-11299
▁1971	-11300
▁1977	-11301
▁1982	-11302
▁1983	-11303
▁Belt	-11304
▁Brun	-11305
▁Chan	-11306
▁Curt	-11307
▁Dead	-11308
▁Earn	-11309
▁Ford	-11310
▁Full	-11311
▁Hein	-11312
▁Mole	-11313
▁Site	-11314
▁Vist	-11315
▁Xook	-11316
▁boil	-11317
▁bull	-11318
▁fier	-11319
▁icon	-11320
▁push	-11321
▁quit	-11322
▁rape	-11323
▁rush	-11324
▁sick	-11325
amouli	-11326
anelli	-11327
ashire	-11328
escope	-11329
gomery	-11330
ounced	-11331
unning	-11332
▁1914,	-11333
▁1970,	-11334
▁1974,	-11335
▁1994.	-11336
▁Derby	-11337
▁Gabri	-11338
▁Katia	-11339
▁Level	-11340
▁Month	-11341
▁Sidon	-11342
▁Taxon	-11343
▁Traff	-11344
▁Worth	-11345
▁aside	-11346
▁casem	-11347
▁dealt	-11348
▁disgu	-11349
▁guerr	-11350
▁gusts	-11351
▁nickn	-11352
▁quiet	-11353
▁shock	-11354
▁sweet	-11355
▁tawny	-11356
▁tempo	-11357
achment	-11358
athetic	-11359
ometric	-11360
ulating	-11361
uskhuri	-11362
▁Bergen	-11363
▁Combat	-11364
▁Darwin	-11365
▁Energy	-11366
▁Gabbar	-11367
▁Guinea	-11368
▁Harris	-11369
▁Imbudo	-11370
▁Mahesh	-11371
▁Mhalsa	-11372
▁Nelson	-11373
▁Puerto	-11374
▁Studio	-11375
▁Vargas	-11376
▁antiqu	-11377
▁cattle	-11378
▁convey	-11379
▁crowds	-11380
▁extant	-11381
▁floods	-11382
▁intact	-11383
▁labour	-11384
▁lawyer	-11385
▁liquid	-11386
▁metric	-11387
▁paying	-11388
▁reconc	-11389
▁subord	-11390
▁triang	-11391
etheless	-11392
▁Banksia	-11393
▁Blackie	-11394
▁Earnest	-11395
▁McElroy	-11396
▁Members	-11397
▁Reviews	-11398
▁Trinity	-11399
▁Wallace	-11400
▁arrives	-11401
▁casting	-11402
▁dancing	-11403
▁descent	-11404
▁diverse	-11405
▁divines	-11406
▁enabled	-11407
▁flowers	-11408
▁heading	-11409
▁invaded	-11410
▁pressed	-11411
▁promise	-11412
▁rituals	-11413
▁Greatest	-11414
▁Montfort	-11415
▁Nicholas	-11416
▁Personal	-11417
▁Taxonomy	-11418
▁competed	-11419
▁connects	-11420
▁devotion	-11421
▁estimate	-11422
▁examined	-11423
▁guidance	-11424
▁mentions	-11425
▁playable	-11426
▁realised	-11427
▁stingray	-11428
▁thirteen	-11429
▁Bracknell	-11430
▁Brazilian	-11431
▁Rajamouli	-11432
▁Retrieved	-11433
▁Strapping	-11434
▁addressed	-11435
▁aftermath	-11436
▁apartment	-11437
▁attending	-11438
▁communist	-11439
▁declaring	-11440
▁exhibited	-11441
▁portrayal	-11442
▁preceding	-11443
▁rebellion	-11444
▁recognize	-11445
▁Ganganelli	-11446
▁Montgomery	-11447
▁adventures	-11448
▁altarpiece	-11449
▁categories	-11450
▁commentary	-11451
▁perception	-11452
▁qualifying	-11453
▁reflecting	-11454
▁reservoirs	-11455
▁speculated	-11456
▁volunteers	-11457
▁Performance	-11458
▁dissipating	-11459
▁outstanding	-11460
▁subtropical	-11461
▁transformed	-11462
▁overwhelming	-11463
▁recreational	-11464
▁interpretation	-11465
▁internationally	-11466
CE	-11467
ED	-11468
fl	-11469
éd	-11470
▁Í	-11471
4).	-11472
Oct	-11473
ais	-11474
gro	-11475
pet	-11476
íaz	-11477
▁(–	-11478
▁CO	-11479
▁Fa	-11480
▁Gy	-11481
adic	-11482
aels	-11483
aman	-11484
ayne	-11485
igon	-11486
ipel	-11487
iper	-11488
ivan	-11489
tene	-11490
uren	-11491
▁Aut	-11492
▁Bou	-11493
▁Ins	-11494
▁Liz	-11495
▁MVP	-11496
▁Mes	-11497
▁Moh	-11498
▁abn	-11499
▁alg	-11500
▁cam	-11501
▁gra	-11502
▁rot	-11503
andom	-11504
eping	-11505
ricus	-11506
taker	-11507
usade	-11508
▁1948	-11509
▁1979	-11510
▁Beth	-11511
▁Chop	-11512
▁Coll	-11513
▁Days	-11514
▁Díaz	-11515
▁Ferd	-11516
▁Finn	-11517
▁Keys	-11518
▁Moro	-11519
▁PAVN	-11520
▁Poet	-11521
▁Sull	-11522
▁Todd	-11523
▁Uygh	-11524
▁Well	-11525
▁Xbox	-11526
▁ages	-11527
▁bold	-11528
▁clar	-11529
▁coat	-11530
▁debt	-11531
▁deer	-11532
▁fart	-11533
▁intr	-11534
▁knee	-11535
▁loop	-11536
▁milk	-11537
▁nose	-11538
▁pulp	-11539
▁Ímar	-11540
apolis	-11541
atters	-11542
cially	-11543
season	-11544
ylogen	-11545
▁1953,	-11546
▁1966,	-11547
▁1976,	-11548
▁1991.	-11549
▁Analy	-11550
▁Apart	-11551
▁Based	-11552
▁Cobra	-11553
▁Fifth	-11554
▁Gross	-11555
▁Llosa	-11556
▁Paran	-11557
▁Quinn	-11558
▁Scand	-11559
▁Scout	-11560
▁Stand	-11561
▁Sword	-11562
▁Total	-11563
▁Vishn	-11564
▁angry	-11565
▁arose	-11566
▁cakes	-11567
▁chanc	-11568
▁hosts	-11569
▁paths	-11570
▁pione	-11571
▁ratio	-11572
▁shall	-11573
▁skill	-11574
▁sword	-11575
▁veloc	-11576
▁wheel	-11577
▁wreck	-11578
▁zones	-11579
ecutive	-11580
ipelago	-11581
veloped	-11582
▁Action	-11583
▁Blacks	-11584
▁Gibson	-11585
▁Humpty	-11586
▁Rafael	-11587
▁Stakes	-11588
▁Stewie	-11589
▁brings	-11590
▁coffee	-11591
▁desper	-11592
▁dislik	-11593
▁entert	-11594
▁genres	-11595
▁gentle	-11596
▁hockey	-11597
▁incurs	-11598
▁layers	-11599
▁lights	-11600
▁mounts	-11601
▁occupy	-11602
▁radius	-11603
▁statue	-11604
▁teleph	-11605
▁wished	-11606
▁wonder	-11607
aliation	-11608
rosaurus	-11609
▁Denmark	-11610
▁Montene	-11611
▁Nazaire	-11612
▁Orlando	-11613
▁batting	-11614
▁confirm	-11615
▁discont	-11616
▁farming	-11617
▁graphic	-11618
▁honours	-11619
▁involve	-11620
▁leagues	-11621
▁marched	-11622
▁organic	-11623
▁reactor	-11624
▁reverse	-11625
▁secular	-11626
▁wanting	-11627
▁Colonies	-11628
▁Guinness	-11629
▁Nuskhuri	-11630
▁Official	-11631
▁Sullivan	-11632
▁asserted	-11633
▁circular	-11634
▁commerce	-11635
▁decrease	-11636
▁drawings	-11637
▁elevated	-11638
▁eleventh	-11639
▁ensemble	-11640
▁hampered	-11641
▁hygromet	-11642
▁indirect	-11643
▁insisted	-11644
▁junction	-11645
▁metallic	-11646
▁ordinary	-11647
▁reversed	-11648
▁thoughts	-11649
▁tourists	-11650
▁transits	-11651
▁velocity	-11652
▁weakness	-11653
▁Chronicle	-11654
▁Katherine	-11655
▁Therefore	-11656
▁alignment	-11657
▁dinosaurs	-11658
▁eliminate	-11659
▁inhabited	-11660
▁orchestra	-11661
▁platforms	-11662
▁principle	-11663
▁realistic	-11664
▁responses	-11665
▁teachings	-11666
▁torpedoes	-11667
▁witnesses	-11668
▁concerning	-11669
▁destroying	-11670
▁impressive	-11671
▁invitation	-11672
▁positioned	-11673
▁protesters	-11674
▁semifinals	-11675
▁situations	-11676
▁travelling	-11677
▁unexpected	-11678
▁Paranthodon	-11679
▁astronomers	-11680
▁educational	-11681
▁interviewed	-11682
▁scholarship	-11683
▁accomplished	-11684
▁acknowledged	-11685
▁commercially	-11686
▁conservative	-11687
▁supernatural	-11688
▁hygrometricus	-11689
▁revolutionary	-11690
▁transcription	-11691
▁advertisements	-11692
▁battlecruisers	-11693
!,	-11694
Se	-11695
ji	-11696
pa	-11697
5).	-11698
adh	-11699
ahn	-11700
eld	-11701
hin	-11702
lyn	-11703
oma	-11704
oto	-11705
zes	-11706
▁DD	-11707
▁Ni	-11708
▁Ru	-11709
▁af	-11710
▁cu	-11711
aude	-11712
emen	-11713
iffs	-11714
inda	-11715
osph	-11716
pack	-11717
rino	-11718
sole	-11719
thic	-11720
▁Hom	-11721
▁NEA	-11722
▁Ord	-11723
▁	-11724
e	-11725
t	-11726
a	-11727
n	-11728
o	-11729
i	-11730
r	-11731
s	-11732
h	-11733
d	-11734
l	-11735
c	-11736
u	-11737
m	-11738
f	-11739
g	-11740
p	-11741
w	-11742
y	-11743
b	-11744
,	-11745
.	-11746
v	-11747
k	-11748
1	-11749
T	-11750
0	-11751
A	-11752
=	-11753
"	-11754
S	-11755
C	-11756
2	-11757
I	-11758
M	-11759
'	-11760
9	-11761
B	-11762
-	-11763
H	-11764
x	-11765
P	-11766
R	-11767
D	-11768
F	-11769
)	-11770
(	-11771
W	-11772
N	-11773
L	-11774
G	-11775
3	-11776
5	-11777
8	-11778
J	-11779
E	-11780
O	-11781
4	-11782
6	-11783
7	-11784
z	-11785
j	-11786
q	-11787
U	-11788
K	-11789
V	-11790
;	-11791
–	-11792
:	-11793
Y	-11794
/	-11795
—	-11796
Z	-11797
%	-11798
$	-11799
[	-11800
]	-11801
é	-11802
Q	-11803
X	-11804
&	-11805
!	-11806
’	-11807
í	-11808
á	-11809
ā	-11810
£	-11811
°	-11812
?	-11813
ó	-11814
+	-11815
#	-11816
š	-11817
è	-11818
−	-11819
ö	-11820
×	-11821
ü	-11822
ä	-11823
ō	-11824
ʻ	-11825
ć	-11826
ś	-11827
“	-11828
ç	-11829
μ	-11830
ł	-11831
ø	-11832
”	-11833
₹	-11834
ã	-11835
ì	-11836
ư	-11837
⁄	-11838
Æ	-11839
ơ	-11840
ñ	-11841
→	-11842
Í	-11843
É	-11844
☉	-11845
‘	-11846
~	-11847
*	-11848
Å	-11849
Ō	-11850
ë	-11851
ệ	-11852
ī	-11853
ễ	-11854
à	-11855
ô	-11856
ă	-11857
ū	-11858
ê	-11859
′	-11860
♯	-11861
^	-11862
ú	-11863
ỳ	-11864
‐	-11865
Î	-11866
≤	-11867
<	-11868
å	-11869
î	-11870
ل	-11871
ṃ	-11872
～	-11873
Ā	-11874
€	-11875
±	-11876
ž	-11877
्	-11878
〈	-11879
〉	-11880
・	-11881
>	-11882
û	-11883
č	-11884
ė	-11885
α	-11886
β	-11887
Ø	-11888
đ	-11889
γ	-11890
ṭ	-11891
ị	-11892
„	-11893
♭	-11894
â	-11895
Đ	-11896
̃	-11897
ا	-11898
ه	-11899
ṅ	-11900
ầ	-11901
ớ	-11902
大	-11903
空	-11904
¡	-11905
¥	-11906
·	-11907
ş	-11908
ح	-11909
ص	-11910
ن	-11911
ვ	-11912
ი	-11913
კ	-11914
ო	-11915
ხ	-11916
ჯ	-11917
჻	-11918
ḥ	-11919
ṯ	-11920
ả	-11921
ấ	-11922
†	-11923
火	-11924
礮	-11925
\	-11926
`	-11927
§	-11928
Á	-11929
Ö	-11930
Ú	-11931
Ü	-11932
Þ	-11933
ò	-11934
Ł	-11935
ń	-11936
ų	-11937
Ż	-11938
ʿ	-11939
κ	-11940
С	-11941
а	-11942
в	-11943
е	-11944
к	-11945
о	-11946
с	-11947
т	-11948
я	-11949
ก	-11950
ง	-11951
ณ	-11952
ต	-11953
ม	-11954
ย	-11955
ร	-11956
ล	-11957
ั	-11958
า	-11959
ิ	-11960
่	-11961
გ	-11962
დ	-11963
ზ	-11964
რ	-11965
ს	-11966
უ	-11967
ც	-11968
ძ	-11969
წ	-11970
ṣ	-11971
ắ	-11972
ử	-11973
₤	-11974
の	-11975
ァ	-11976
ア	-11977
キ	-11978
ス	-11979
ッ	-11980
ト	-11981
プ	-11982
ュ	-11983
リ	-11984
ル	-11985
ヴ	-11986
動	-11987
場	-11988
戦	-11989
攻	-11990
機	-11991
殻	-11992
隊	-11993
|	-11994
์	-11995
