<pad>	0
<unk>	0
<s>	0
</s>	0
▁t	-0
he	-1
▁a	-2
in	-3
▁the	-4
er	-5
on	-6
▁,	-7
re	-8
▁s	-9
▁o	-10
▁w	-11
ed	-12
nd	-13
▁.	-14
at	-15
or	-16
▁c	-17
it	-18
▁f	-19
en	-20
is	-21
▁of	-22
es	-23
▁b	-24
▁in	-25
ar	-26
an	-27
al	-28
▁and	-29
▁p	-30
ing	-31
as	-32
▁to	-33
▁m	-34
ro	-35
ic	-36
▁d	-37
▁h	-38
ion	-39
ou	-40
le	-41
▁T	-42
▁re	-43
▁=	-44
▁"	-45
▁th	-46
ent	-47
▁A	-48
▁1	-49
il	-50
▁S	-51
st	-52
▁l	-53
om	-54
▁e	-55
▁n	-56
▁@	-57
am	-58
▁C	-59
el	-60
ad	-61
▁was	-62
ac	-63
▁The	-64
▁on	-65
▁be	-66
ur	-67
ly	-68
▁M	-69
▁'	-70
▁I	-71
▁g	-72
▁for	-73
iv	-74
ol	-75
ter	-76
-@	-77
▁@-@	-78
▁B	-79
im	-80
id	-81
ir	-82
▁as	-83
ct	-84
ig	-85
th	-86
ow	-87
ith	-88
▁st	-89
us	-90
▁H	-91
▁2	-92
ay	-93
▁that	-94
▁with	-95
her	-96
ot	-97
ce	-98
ver	-99
ut	-100
ation	-101
et	-102
▁is	-103
▁P	-104
▁wh	-105
ch	-106
▁by	-107
▁R	-108
▁al	-109
▁)	-110
▁(	-111
un	-112
▁F	-113
▁con	-114
▁D	-115
em	-116
ul	-117
▁at	-118
▁W	-119
▁it	-120
▁19	-121
and	-122
ain	-123
rom	-124
os	-125
▁N	-126
▁an	-127
▁G	-128
ers	-129
▁L	-130
▁he	-131
est	-132
ag	-133
av	-134
00	-135
▁J	-136
▁se	-137
um	-138
▁de	-139
▁his	-140
▁r	-141
▁from	-142
od	-143
▁O	-144
ri	-145
▁com	-146
▁E	-147
pe	-148
ist	-149
▁pro	-150
if	-151
ere	-152
ld	-153
ies	-154
ort	-155
▁v	-156
res	-157
▁su	-158
▁were	-159
ore	-160
ill	-161
▁In	-162
ap	-163
ew	-164
ong	-165
op	-166
igh	-167
ich	-168
▁or	-169
ate	-170
art	-171
all	-172
ard	-173
ak	-174
▁ch	-175
ber	-176
ame	-177
▁ex	-178
gh	-179
ab	-180
ud	-181
▁pl	-182
ated	-183
se	-184
ant	-185
ity	-186
▁are	-187
rou	-188
oc	-189
ive	-190
ess	-191
qu	-192
▁sh	-193
▁had	-194
▁k	-195
ack	-196
▁which	-197
▁U	-198
red	-199
▁y	-200
▁le	-201
▁K	-202
ov	-203
pt	-204
our	-205
▁not	-206
ment	-207
ast	-208
ip	-209
▁St	-210
rit	-211
ord	-212
ear	-213
▁tr	-214
ally	-215
ge	-216
ther	-217
ian	-218
ost	-219
ave	-220
ine	-221
▁u	-222
ight	-223
oun	-224
ell	-225
▁3	-226
ish	-227
pp	-228
cl	-229
ary	-230
▁200	-231
▁Ch	-232
ust	-233
irst	-234
ia	-235
▁;	-236
▁comp	-237
▁their	-238
te	-239
▁but	-240
cc	-241
so	-242
ction	-243
fter	-244
▁first	-245
ous	-246
▁un	-247
▁its	-248
ould	-249
ure	-250
▁–	-251
ra	-252
ide	-253
▁whe	-254
▁cont	-255
▁ar	-256
ue	-257
ical	-258
ome	-259
wo	-260
og	-261
hed	-262
ial	-263
▁20	-264
▁:	-265
ie	-266
▁her	-267
▁also	-268
ition	-269
▁int	-270
ub	-271
▁V	-272
own	-273
▁cl	-274
ru	-275
ater	-276
out	-277
ign	-278
▁us	-279
orm	-280
ork	-281
per	-282
▁ab	-283
▁ad	-284
ok	-285
ff	-286
▁have	-287
age	-288
ire	-289
▁He	-290
▁one	-291
ass	-292
▁has	-293
▁rec	-294
low	-295
ime	-296
mer	-297
▁ro	-298
▁been	-299
du	-300
▁two	-301
▁4	-302
▁res	-303
▁18	-304
▁Th	-305
.@	-306
▁@.@	-307
▁per	-308
ond	-309
ree	-310
▁5	-311
▁who	-312
ence	-313
uring	-314
ough	-315
land	-316
▁this	-317
▁bec	-318
ile	-319
are	-320
pl	-321
ult	-322
ry	-323
ance	-324
ory	-325
ect	-326
▁It	-327
ans	-328
▁sc	-329
▁bo	-330
▁play	-331
▁they	-332
▁Al	-333
clud	-334
▁year	-335
▁part	-336
▁ag	-337
▁201	-338
ade	-339
▁des	-340
ations	-341
ount	-342
▁man	-343
▁other	-344
▁dis	-345
ric	-346
▁te	-347
ely	-348
▁after	-349
ach	-350
▁j	-351
act	-352
▁ser	-353
ound	-354
▁over	-355
over	-356
▁off	-357
,@	-358
▁@,@	-359
▁includ	-360
ang	-361
▁sp	-362
ions	-363
▁en	-364
ite	-365
urn	-366
▁im	-367
ace	-368
ice	-369
iz	-370
ib	-371
wn	-372
▁out	-373
▁up	-374
ke	-375
ress	-376
ark	-377
▁Y	-378
▁time	-379
▁ne	-380
nder	-381
▁into	-382
▁fin	-383
rough	-384
▁pre	-385
▁ev	-386
ced	-387
round	-388
port	-389
we	-390
▁On	-391
▁spe	-392
▁more	-393
▁would	-394
ces	-395
▁she	-396
▁comm	-397
ted	-398
ason	-399
▁att	-400
▁all	-401
ward	-402
ren	-403
ose	-404
one	-405
ail	-406
▁him	-407
ited	-408
amp	-409
▁we	-410
tern	-411
ied	-412
ens	-413
oin	-414
ased	-415
▁6	-416
▁cent	-417
▁Un	-418
rib	-419
▁Re	-420
▁work	-421
ents	-422
▁Se	-423
ild	-424
▁me	-425
ix	-426
ase	-427
ood	-428
ings	-429
les	-430
man	-431
ts	-432
▁7	-433
▁fe	-434
▁them	-435
able	-436
ious	-437
▁when	-438
▁bet	-439
ake	-440
ors	-441
▁sec	-442
▁song	-443
ates	-444
als	-445
vel	-446
▁ear	-447
▁rem	-448
▁An	-449
ubl	-450
iss	-451
old	-452
▁kn	-453
form	-454
▁most	-455
▁during	-456
fer	-457
gan	-458
aus	-459
ath	-460
▁only	-461
▁new	-462
ilm	-463
▁game	-464
ved	-465
oy	-466
ered	-467
ember	-468
ve	-469
orth	-470
ollow	-471
ween	-472
reat	-473
▁199	-474
▁As	-475
outh	-476
way	-477
▁9	-478
▁Ar	-479
▁rel	-480
▁can	-481
▁8	-482
▁about	-483
ters	-484
▁again	-485
▁three	-486
▁season	-487
▁cons	-488
▁than	-489
ick	-490
▁En	-491
ug	-492
▁Mar	-493
▁between	-494
aw	-495
att	-496
▁record	-497
ral	-498
▁some	-499
▁under	-500
▁char	-501
ational	-502
cted	-503
ons	-504
ular	-505
fore	-506
▁through	-507
ind	-508
▁later	-509
ict	-510
hip	-511
iew	-512
▁col	-513
▁num	-514
▁00	-515
ft	-516
ision	-517
▁writ	-518
▁produ	-519
▁while	-520
▁Com	-521
▁pos	-522
▁De	-523
▁rele	-524
▁ver	-525
▁film	-526
ames	-527
▁end	-528
▁inter	-529
ished	-530
▁ap	-531
▁pe	-532
▁made	-533
▁pr	-534
ey	-535
▁form	-536
▁fl	-537
ning	-538
▁reg	-539
▁ass	-540
orld	-541
▁where	-542
▁so	-543
▁spec	-544
▁mov	-545
▁New	-546
ever	-547
meric	-548
▁Americ	-549
ury	-550
▁lar	-551
▁ac	-552
▁app	-553
bum	-554
▁ret	-555
ron	-556
▁follow	-557
▁bu	-558
ener	-559
▁no	-560
▁such	-561
▁def	-562
▁second	-563
ived	-564
▁four	-565
aid	-566
▁mus	-567
▁qu	-568
ock	-569
▁acc	-570
▁used	-571
▁sub	-572
▁inc	-573
olog	-574
▁act	-575
ike	-576
▁day	-577
▁This	-578
▁At	-579
rop	-580
ars	-581
▁publ	-582
▁Le	-583
▁am	-584
ific	-585
ual	-586
▁call	-587
▁ind	-588
hes	-589
▁album	-590
▁000	-591
▁before	-592
▁do	-593
▁appe	-594
ily	-595
ob	-596
oh	-597
▁being	-598
ank	-599
▁gr	-600
▁co	-601
▁years	-602
any	-603
▁there	-604
▁Eng	-605
▁supp	-606
owever	-607
ck	-608
ating	-609
▁found	-610
▁0	-611
▁ele	-612
▁set	-613
ife	-614
▁ep	-615
iel	-616
▁high	-617
ane	-618
ics	-619
hen	-620
orn	-621
▁sy	-622
ird	-623
▁ent	-624
other	-625
iver	-626
▁sur	-627
ained	-628
▁series	-629
▁10	-630
igin	-631
▁number	-632
pen	-633
ten	-634
end	-635
ause	-636
ince	-637
▁loc	-638
ll	-639
ph	-640
ros	-641
▁dec	-642
▁pres	-643
velop	-644
▁both	-645
ode	-646
▁sever	-647
ities	-648
cept	-649
▁then	-650
▁12	-651
▁including	-652
ines	-653
▁epis	-654
▁Brit	-655
▁against	-656
son	-657
▁/	-658
▁well	-659
▁became	-660
▁known	-661
ject	-662
▁—	-663
ised	-664
▁charac	-665
▁po	-666
▁add	-667
▁desc	-668
▁perform	-669
ton	-670
▁bl	-671
▁go	-672
▁sing	-673
▁cap	-674
▁dire	-675
▁198	-676
aj	-677
▁16	-678
▁Joh	-679
ale	-680
urch	-681
▁back	-682
▁many	-683
▁pop	-684
▁Sh	-685
▁main	-686
pr	-687
ident	-688
though	-689
▁inv	-690
▁stud	-691
▁United	-692
its	-693
▁long	-694
ise	-695
ures	-696
ather	-697
▁trans	-698
▁origin	-699
row	-700
io	-701
▁John	-702
iet	-703
▁Br	-704
ement	-705
▁century	-706
▁mon	-707
▁After	-708
▁team	-709
ober	-710
ool	-711
▁est	-712
▁show	-713
▁Sc	-714
▁develop	-715
▁min	-716
ann	-717
ield	-718
ek	-719
ert	-720
▁em	-721
ower	-722
ier	-723
elf	-724
air	-725
▁194	-726
ute	-727
▁cre	-728
▁several	-729
▁lead	-730
▁She	-731
uch	-732
▁began	-733
▁17	-734
ared	-735
ivers	-736
ful	-737
▁196	-738
▁15	-739
▁11	-740
▁mill	-741
▁dif	-742
▁contin	-743
overn	-744
▁sign	-745
▁197	-746
ually	-747
▁sm	-748
ram	-749
view	-750
ired	-751
up	-752
▁may	-753
ative	-754
▁ship	-755
▁comple	-756
▁br	-757
▁could	-758
▁early	-759
led	-760
▁crit	-761
▁did	-762
▁called	-763
▁episode	-764
ern	-765
ross	-766
▁art	-767
ains	-768
▁near	-769
til	-770
▁ob	-771
▁hist	-772
▁pol	-773
▁describ	-774
▁Ind	-775
▁bel	-776
emb	-777
ued	-778
▁rece	-779
ople	-780
▁run	-781
▁along	-782
ins	-783
une	-784
▁ter	-785
iam	-786
imes	-787
ments	-788
▁dep	-789
ccess	-790
▁said	-791
▁feat	-792
roup	-793
▁American	-794
▁bro	-795
▁Wh	-796
▁down	-797
ley	-798
ven	-799
▁inst	-800
▁these	-801
▁Is	-802
aking	-803
▁May	-804
▁mil	-805
▁dist	-806
der	-807
▁though	-808
gest	-809
▁Ger	-810
▁Aust	-811
▁disc	-812
▁British	-813
▁oper	-814
▁until	-815
yl	-816
▁Z	-817
▁start	-818
anc	-819
▁city	-820
oot	-821
ove	-822
▁same	-823
ting	-824
rap	-825
▁inf	-826
ured	-827
▁prev	-828
▁released	-829
▁gener	-830
▁exp	-831
ty	-832
ange	-833
▁own	-834
els	-835
ized	-836
▁any	-837
▁return	-838
▁They	-839
amed	-840
ially	-841
▁km	-842
ided	-843
▁land	-844
▁design	-845
▁rep	-846
▁war	-847
▁prov	-848
▁music	-849
▁War	-850
▁imp	-851
▁million	-852
▁because	-853
ajor	-854
▁use	-855
▁area	-856
tend	-857
▁Con	-858
▁fam	-859
▁air	-860
▁car	-861
▁Aug	-862
▁August	-863
oman	-864
az	-865
▁like	-866
au	-867
▁open	-868
▁success	-869
▁mat	-870
osed	-871
▁sim	-872
▁occ	-873
erson	-874
ink	-875
▁Fr	-876
ep	-877
▁const	-878
▁Chr	-879
▁people	-880
ook	-881
▁count	-882
enn	-883
▁eff	-884
ull	-885
hy	-886
▁ins	-887
▁pass	-888
stem	-889
▁offic	-890
ium	-891
chool	-892
ible	-893
xt	-894
▁six	-895
▁support	-896
▁195	-897
▁around	-898
my	-899
▁Bl	-900
▁Be	-901
▁small	-902
▁However	-903
▁win	-904
▁%	-905
▁Sept	-906
ah	-907
▁north	-908
▁adv	-909
▁dam	-910
▁group	-911
▁str	-912
▁each	-913
▁Car	-914
▁poin	-915
▁September	-916
▁consid	-917
ony	-918
ues	-919
▁met	-920
▁following	-921
▁character	-922
ouse	-923
▁Ju	-924
ists	-925
wards	-926
▁life	-927
▁World	-928
ms	-929
▁Pl	-930
erv	-931
▁ed	-932
▁head	-933
uc	-934
aining	-935
▁Austral	-936
▁13	-937
▁five	-938
▁contro	-939
▁mod	-940
▁attack	-941
▁govern	-942
▁193	-943
ording	-944
ient	-945
▁var	-946
▁result	-947
ales	-948
▁Comm	-949
▁will	-950
ole	-951
▁large	-952
▁All	-953
uth	-954
▁ever	-955
oss	-956
ution	-957
▁Te	-958
ets	-959
▁191	-960
▁gu	-961
▁II	-962
▁Her	-963
▁ann	-964
▁report	-965
▁Col	-966
ague	-967
▁conc	-968
ural	-969
▁US	-970
rote	-971
▁Cl	-972
▁Me	-973
lish	-974
▁book	-975
▁June	-976
▁Eu	-977
▁North	-978
aving	-979
und	-980
aced	-981
▁tit	-982
▁For	-983
ash	-984
▁German	-985
▁since	-986
ik	-987
dom	-988
▁States	-989
ble	-990
▁prom	-991
▁south	-992
▁received	-993
ped	-994
▁final	-995
▁major	-996
ilt	-997
▁name	-998
med	-999
ately	-1000
ivision	-1001
▁Jan	-1002
pect	-1003
▁Ad	-1004
▁Oct	-1005
▁partic	-1006
▁system	-1007
▁public	-1008
..	-1009
▁care	-1010
▁state	-1011
▁dr	-1012
▁South	-1013
▁what	-1014
ives	-1015
▁direct	-1016
▁hel	-1017
▁King	-1018
▁last	-1019
▁Christ	-1020
▁described	-1021
uary	-1022
▁ext	-1023
▁October	-1024
tle	-1025
ored	-1026
▁line	-1027
▁$	-1028
hel	-1029
▁14	-1030
▁appear	-1031
▁...	-1032
▁rest	-1033
▁week	-1034
▁Can	-1035
▁played	-1036
cess	-1037
▁batt	-1038
▁incre	-1039
▁Fe	-1040
▁took	-1041
▁Nov	-1042
▁now	-1043
▁class	-1044
▁[	-1045
▁]	-1046
arl	-1047
ropical	-1048
▁build	-1049
aged	-1050
▁world	-1051
gin	-1052
▁July	-1053
ages	-1054
▁late	-1055
▁wrote	-1056
▁York	-1057
empt	-1058
iving	-1059
ional	-1060
▁won	-1061
▁Tr	-1062
▁species	-1063
▁stru	-1064
ology	-1065
▁child	-1066
aim	-1067
▁25	-1068
ideo	-1069
▁much	-1070
▁During	-1071
ody	-1072
▁due	-1073
ified	-1074
▁serv	-1075
▁Gu	-1076
pril	-1077
▁April	-1078
▁single	-1079
▁allow	-1080
ats	-1081
▁camp	-1082
iod	-1083
▁short	-1084
▁differ	-1085
min	-1086
▁port	-1087
▁vers	-1088
▁death	-1089
▁just	-1090
▁ty	-1091
▁mar	-1092
▁another	-1093
▁included	-1094
ball	-1095
▁Euro	-1096
▁poss	-1097
▁old	-1098
ility	-1099
ively	-1100
▁storm	-1101
▁January	-1102
get	-1103
▁even	-1104
▁gun	-1105
▁within	-1106
ission	-1107
▁left	-1108
▁list	-1109
▁England	-1110
ism	-1111
omin	-1112
▁position	-1113
▁named	-1114
▁based	-1115
▁estab	-1116
▁if	-1117
ants	-1118
▁arr	-1119
▁conf	-1120
▁although	-1121
▁vis	-1122
▁prog	-1123
▁attempt	-1124
ax	-1125
▁30	-1126
ont	-1127
▁very	-1128
▁appro	-1129
▁third	-1130
ina	-1131
▁games	-1132
akes	-1133
ital	-1134
▁top	-1135
▁belie	-1136
▁ref	-1137
▁track	-1138
ctions	-1139
ple	-1140
▁And	-1141
▁March	-1142
ner	-1143
▁family	-1144
▁previous	-1145
by	-1146
▁lit	-1147
▁November	-1148
▁Mus	-1149
▁power	-1150
▁Pro	-1151
▁Ge	-1152
▁tri	-1153
▁event	-1154
▁period	-1155
▁review	-1156
▁Gr	-1157
▁best	-1158
ilar	-1159
▁way	-1160
▁home	-1161
mber	-1162
▁resp	-1163
▁school	-1164
▁Q	-1165
▁water	-1166
▁Europe	-1167
▁government	-1168
▁His	-1169
ances	-1170
▁Ro	-1171
ograp	-1172
ently	-1173
▁expl	-1174
▁192	-1175
▁Dece	-1176
▁December	-1177
▁men	-1178
▁those	-1179
urric	-1180
avy	-1181
ret	-1182
raft	-1183
▁By	-1184
ger	-1185
▁turn	-1186
▁There	-1187
▁constru	-1188
ract	-1189
▁hum	-1190
▁place	-1191
ience	-1192
▁organ	-1193
ulation	-1194
▁sl	-1195
▁built	-1196
▁City	-1197
ards	-1198
ians	-1199
▁bre	-1200
ature	-1201
urther	-1202
▁great	-1203
ides	-1204
▁story	-1205
▁prote	-1206
▁command	-1207
pend	-1208
ached	-1209
▁kill	-1210
▁month	-1211
▁When	-1212
▁colle	-1213
ched	-1214
hest	-1215
▁sent	-1216
▁person	-1217
▁original	-1218
ript	-1219
itary	-1220
▁make	-1221
iversity	-1222
▁hand	-1223
▁100	-1224
▁opp	-1225
eder	-1226
▁med	-1227
▁2009	-1228
▁2010	-1229
▁auth	-1230
▁requ	-1231
▁hal	-1232
▁2008	-1233
▁video	-1234
▁National	-1235
ention	-1236
▁present	-1237
oci	-1238
▁mark	-1239
▁ph	-1240
aur	-1241
▁sug	-1242
▁eng	-1243
▁club	-1244
ences	-1245
riend	-1246
ham	-1247
por	-1248
iven	-1249
elt	-1250
ene	-1251
aster	-1252
▁view	-1253
ically	-1254
self	-1255
▁moved	-1256
▁Mc	-1257
▁led	-1258
▁capt	-1259
▁role	-1260
▁addition	-1261
▁River	-1262
▁stand	-1263
▁still	-1264
▁leg	-1265
▁came	-1266
▁iss	-1267
▁local	-1268
▁repl	-1269
ense	-1270
rench	-1271
gy	-1272
aff	-1273
▁often	-1274
▁history	-1275
▁common	-1276
ival	-1277
▁caus	-1278
▁cour	-1279
▁dest	-1280
▁We	-1281
ae	-1282
ison	-1283
▁Man	-1284
▁dem	-1285
▁effect	-1286
▁Pr	-1287
aken	-1288
▁few	-1289
ery	-1290
▁next	-1291
▁considered	-1292
ady	-1293
ops	-1294
▁trad	-1295
eng	-1296
▁2007	-1297
▁player	-1298
▁Bo	-1299
ories	-1300
▁suggest	-1301
be	-1302
urricane	-1303
ling	-1304
▁star	-1305
lev	-1306
▁Fl	-1307
▁exper	-1308
▁No	-1309
side	-1310
▁French	-1311
▁career	-1312
▁similar	-1313
▁my	-1314
astern	-1315
▁recorded	-1316
▁Sp	-1317
▁One	-1318
▁English	-1319
uss	-1320
▁side	-1321
▁right	-1322
ined	-1323
▁init	-1324
▁import	-1325
▁cr	-1326
rown	-1327
▁Or	-1328
▁Pe	-1329
▁real	-1330
▁claim	-1331
let	-1332
que	-1333
▁company	-1334
▁cover	-1335
▁published	-1336
▁deb	-1337
▁continued	-1338
ai	-1339
rew	-1340
idge	-1341
▁you	-1342
▁refer	-1343
arn	-1344
▁take	-1345
▁without	-1346
▁Ph	-1347
▁bas	-1348
▁mid	-1349
▁Batt	-1350
▁sold	-1351
▁songs	-1352
▁different	-1353
ternational	-1354
▁ant	-1355
▁say	-1356
▁With	-1357
▁town	-1358
▁former	-1359
ior	-1360
▁held	-1361
▁wind	-1362
uted	-1363
▁Comp	-1364
▁Acc	-1365
atter	-1366
▁among	-1367
ness	-1368
ister	-1369
▁memb	-1370
▁level	-1371
lu	-1372
▁tot	-1373
▁tem	-1374
▁arch	-1375
▁road	-1376
ne	-1377
▁polit	-1378
ged	-1379
▁defe	-1380
▁field	-1381
▁written	-1382
arch	-1383
thing	-1384
▁every	-1385
▁es	-1386
▁plan	-1387
bs	-1388
ps	-1389
▁Port	-1390
▁half	-1391
▁21	-1392
ampions	-1393
▁Division	-1394
alk	-1395
▁tw	-1396
▁release	-1397
▁2011	-1398
resent	-1399
ves	-1400
▁Will	-1401
estern	-1402
▁fun	-1403
iment	-1404
▁become	-1405
ead	-1406
▁mag	-1407
▁2006	-1408
tended	-1409
▁commun	-1410
▁further	-1411
▁According	-1412
▁av	-1413
ensive	-1414
▁Although	-1415
▁west	-1416
▁State	-1417
▁church	-1418
▁however	-1419
▁23	-1420
▁days	-1421
▁Canad	-1422
▁strong	-1423
yle	-1424
▁east	-1425
▁find	-1426
itar	-1427
▁version	-1428
lear	-1429
▁join	-1430
roy	-1431
bru	-1432
ried	-1433
ott	-1434
▁title	-1435
▁compet	-1436
▁particular	-1437
br	-1438
▁&	-1439
pite	-1440
▁low	-1441
▁military	-1442
mp	-1443
▁par	-1444
▁Count	-1445
▁del	-1446
par	-1447
▁beh	-1448
rodu	-1449
▁order	-1450
▁Church	-1451
▁author	-1452
▁League	-1453
▁prop	-1454
▁Roman	-1455
▁control	-1456
▁Min	-1457
thern	-1458
bruary	-1459
outhern	-1460
▁February	-1461
aly	-1462
▁Song	-1463
▁foot	-1464
▁times	-1465
fric	-1466
▁Per	-1467
▁gave	-1468
▁Gener	-1469
▁less	-1470
▁22	-1471
▁sit	-1472
▁members	-1473
▁reported	-1474
▁26	-1475
▁band	-1476
▁vict	-1477
ots	-1478
raw	-1479
▁chang	-1480
▁24	-1481
ylan	-1482
▁fore	-1483
▁Dylan	-1484
▁nort	-1485
▁produced	-1486
ches	-1487
▁Geor	-1488
▁!	-1489
▁Ab	-1490
▁prof	-1491
levision	-1492
▁2012	-1493
▁total	-1494
▁el	-1495
ices	-1496
augh	-1497
ailed	-1498
▁stat	-1499
urs	-1500
▁Park	-1501
▁popular	-1502
▁production	-1503
aces	-1504
iety	-1505
line	-1506
▁Old	-1507
▁fre	-1508
▁West	-1509
▁decl	-1510
ception	-1511
▁tropical	-1512
ront	-1513
hern	-1514
oung	-1515
▁project	-1516
▁nov	-1517
▁sol	-1518
▁forces	-1519
itions	-1520
▁point	-1521
▁children	-1522
apan	-1523
▁Bar	-1524
▁cur	-1525
▁Japan	-1526
▁cult	-1527
▁having	-1528
▁include	-1529
▁obs	-1530
▁critic	-1531
▁histor	-1532
▁Par	-1533
reen	-1534
pec	-1535
▁28	-1536
▁invol	-1537
▁lost	-1538
▁influ	-1539
ler	-1540
ering	-1541
▁given	-1542
alion	-1543
▁want	-1544
▁X	-1545
ression	-1546
▁country	-1547
inc	-1548
▁fr	-1549
▁Ass	-1550
▁fire	-1551
▁signific	-1552
▁represent	-1553
▁manag	-1554
sh	-1555
ize	-1556
chn	-1557
omen	-1558
▁2013	-1559
ape	-1560
omet	-1561
▁seen	-1562
▁site	-1563
osp	-1564
▁Des	-1565
▁eight	-1566
▁program	-1567
vers	-1568
▁never	-1569
▁making	-1570
▁far	-1571
▁establ	-1572
▁stated	-1573
▁Sim	-1574
▁det	-1575
▁comb	-1576
▁Afric	-1577
▁press	-1578
▁Miss	-1579
▁body	-1580
▁should	-1581
▁Ed	-1582
▁While	-1583
▁match	-1584
▁General	-1585
▁Am	-1586
▁aff	-1587
ither	-1588
▁Cent	-1589
▁fact	-1590
ploy	-1591
▁returned	-1592
▁Dav	-1593
▁pat	-1594
reet	-1595
rent	-1596
▁University	-1597
▁fem	-1598
craft	-1599
ising	-1600
enc	-1601
▁ord	-1602
▁ft	-1603
ours	-1604
▁post	-1605
▁These	-1606
▁America	-1607
▁190	-1608
▁Ear	-1609
▁ships	-1610
▁established	-1611
sequ	-1612
▁Pol	-1613
▁how	-1614
▁earl	-1615
▁sound	-1616
▁island	-1617
ampionship	-1618
▁announ	-1619
▁population	-1620
▁equ	-1621
▁struct	-1622
▁reached	-1623
▁chart	-1624
▁50	-1625
ably	-1626
▁Ste	-1627
▁soc	-1628
▁away	-1629
▁noted	-1630
ades	-1631
▁Air	-1632
▁Ire	-1633
▁Ireland	-1634
play	-1635
▁too	-1636
igade	-1637
▁Jack	-1638
▁across	-1639
▁friend	-1640
▁ground	-1641
▁thought	-1642
▁developed	-1643
▁throughout	-1644
ope	-1645
▁god	-1646
▁Ha	-1647
▁light	-1648
fic	-1649
ox	-1650
▁Ev	-1651
▁seven	-1652
▁27	-1653
▁gen	-1654
▁introdu	-1655
me	-1656
▁div	-1657
ondon	-1658
▁using	-1659
▁London	-1660
▁himself	-1661
ground	-1662
▁William	-1663
▁development	-1664
▁good	-1665
▁la	-1666
▁destroy	-1667
▁Ne	-1668
▁hig	-1669
▁lim	-1670
ument	-1671
▁Feder	-1672
aint	-1673
▁felt	-1674
▁significant	-1675
ford	-1676
most	-1677
used	-1678
▁performed	-1679
ese	-1680
ctor	-1681
ological	-1682
▁important	-1683
yn	-1684
reek	-1685
▁cast	-1686
idence	-1687
▁Australia	-1688
▁writing	-1689
work	-1690
▁pra	-1691
▁miles	-1692
arr	-1693
ords	-1694
▁Mich	-1695
▁father	-1696
▁television	-1697
amb	-1698
▁cou	-1699
▁ide	-1700
▁various	-1701
▁interest	-1702
atic	-1703
▁areas	-1704
▁human	-1705
int	-1706
oon	-1707
ivil	-1708
▁Atl	-1709
imately	-1710
ream	-1711
▁tour	-1712
▁black	-1713
▁night	-1714
ones	-1715
▁typ	-1716
▁died	-1717
▁full	-1718
▁Black	-1719
utes	-1720
▁look	-1721
▁prot	-1722
▁went	-1723
aren	-1724
▁rad	-1725
▁wat	-1726
▁activ	-1727
▁white	-1728
▁does	-1729
▁successful	-1730
▁Rich	-1731
▁events	-1732
▁need	-1733
ief	-1734
▁sk	-1735
▁Reg	-1736
▁law	-1737
▁Char	-1738
▁Rober	-1739
aign	-1740
▁players	-1741
▁started	-1742
aul	-1743
ges	-1744
▁Road	-1745
▁modern	-1746
▁mm	-1747
▁Roy	-1748
▁ten	-1749
▁discover	-1750
▁see	-1751
▁feet	-1752
▁James	-1753
▁formed	-1754
▁cor	-1755
itive	-1756
tain	-1757
▁range	-1758
ask	-1759
▁conv	-1760
▁performance	-1761
▁mix	-1762
▁poem	-1763
▁house	-1764
▁style	-1765
▁County	-1766
▁building	-1767
▁relations	-1768
▁ball	-1769
▁caused	-1770
ung	-1771
▁cat	-1772
antic	-1773
▁force	-1774
rick	-1775
▁age	-1776
▁prim	-1777
▁read	-1778
▁put	-1779
af	-1780
ald	-1781
▁trav	-1782
▁vill	-1783
ration	-1784
▁techn	-1785
▁cy	-1786
ster	-1787
▁Mount	-1788
▁El	-1789
alth	-1790
▁created	-1791
▁189	-1792
▁Pal	-1793
▁official	-1794
na	-1795
ael	-1796
con	-1797
ico	-1798
▁Su	-1799
▁You	-1800
▁2004	-1801
▁suff	-1802
▁entire	-1803
▁ke	-1804
ublic	-1805
▁2005	-1806
▁able	-1807
▁novel	-1808
▁political	-1809
ec	-1810
isc	-1811
ogn	-1812
ush	-1813
▁To	-1814
▁characters	-1815
ourn	-1816
▁get	-1817
▁sum	-1818
▁coast	-1819
▁relig	-1820
▁others	-1821
▁construction	-1822
omb	-1823
▁bird	-1824
▁begin	-1825
abor	-1826
aves	-1827
▁High	-1828
▁occur	-1829
oll	-1830
ring	-1831
▁pit	-1832
▁pri	-1833
▁son	-1834
iness	-1835
▁’	-1836
▁cert	-1837
day	-1838
ying	-1839
▁Mag	-1840
▁Town	-1841
ressed	-1842
▁once	-1843
▁Gl	-1844
▁Ang	-1845
ample	-1846
▁remained	-1847
▁located	-1848
▁ste	-1849
epend	-1850
isted	-1851
iting	-1852
▁surv	-1853
▁becom	-1854
▁mount	-1855
ination	-1856
▁promot	-1857
rest	-1858
▁lik	-1859
▁tro	-1860
asing	-1861
ficult	-1862
▁works	-1863
▁battle	-1864
▁scored	-1865
▁difficult	-1866
fall	-1867
▁Cor	-1868
▁Care	-1869
▁produc	-1870
▁red	-1871
ected	-1872
▁meet	-1873
▁announced	-1874
▁completed	-1875
▁tradition	-1876
▁Australian	-1877
▁rank	-1878
▁Kingdom	-1879
▁campaign	-1880
▁national	-1881
uck	-1882
▁Hist	-1883
▁stars	-1884
▁region	-1885
▁Cal	-1886
▁Sec	-1887
▁Som	-1888
▁fig	-1889
▁guns	-1890
▁hold	-1891
▁rock	-1892
▁Island	-1893
ator	-1894
▁redu	-1895
rie	-1896
▁Cup	-1897
▁little	-1898
▁Company	-1899
▁process	-1900
iers	-1901
▁fav	-1902
▁goal	-1903
▁help	-1904
▁fight	-1905
▁instead	-1906
irc	-1907
ivid	-1908
▁Mor	-1909
▁Rec	-1910
▁tre	-1911
hem	-1912
▁val	-1913
▁grow	-1914
▁pred	-1915
▁added	-1916
▁gl	-1917
ament	-1918
itted	-1919
rought	-1920
▁let	-1921
▁cross	-1922
▁least	-1923
▁followed	-1924
ounc	-1925
▁fac	-1926
▁peak	-1927
▁front	-1928
▁appeared	-1929
▁31	-1930
▁Ol	-1931
ways	-1932
▁rev	-1933
▁know	-1934
▁killed	-1935
▁Ke	-1936
leet	-1937
quad	-1938
▁born	-1939
▁months	-1940
▁originally	-1941
▁Army	-1942
▁wife	-1943
elling	-1944
▁comment	-1945
▁er	-1946
▁David	-1947
▁southern	-1948
reg	-1949
▁cas	-1950
▁Bill	-1951
▁loss	-1952
enth	-1953
oice	-1954
ries	-1955
▁fif	-1956
ality	-1957
enced	-1958
orse	-1959
▁nuc	-1960
▁Grand	-1961
▁associ	-1962
▁Ham	-1963
▁agre	-1964
▁ident	-1965
bo	-1966
▁29	-1967
angu	-1968
▁women	-1969
▁eastern	-1970
▁relationship	-1971
▁2003	-1972
▁mass	-1973
▁Music	-1974
▁critics	-1975
▁accom	-1976
▁France	-1977
▁mother	-1978
▁eventually	-1979
acy	-1980
off	-1981
▁40	-1982
▁Some	-1983
▁award	-1984
▁features	-1985
▁hurricane	-1986
lect	-1987
▁185	-1988
▁bus	-1989
▁2015	-1990
▁Other	-1991
▁live	-1992
▁broad	-1993
gr	-1994
com	-1995
▁aud	-1996
field	-1997
▁anim	-1998
▁cond	-1999
▁young	-2000
app	-2001
idd	-2002
▁cell	-2003
▁stri	-2004
▁route	-2005
▁taken	-2006
▁appoin	-2007
▁fourth	-2008
▁recogn	-2009
▁Two	-2010
▁served	-2011
ray	-2012
here	-2013
▁bar	-2014
emy	-2015
▁estim	-2016
▁damage	-2017
▁profess	-2018
▁Ex	-2019
ully	-2020
▁lack	-2021
▁heavy	-2022
▁sw	-2023
ique	-2024
antry	-2025
▁base	-2026
▁either	-2027
▁decided	-2028
ota	-2029
inal	-2030
▁sex	-2031
▁voc	-2032
▁aver	-2033
arliam	-2034
▁proble	-2035
▁Sw	-2036
▁behind	-2037
▁commer	-2038
▁condom	-2039
▁Battalion	-2040
aper	-2041
osaur	-2042
gether	-2043
olution	-2044
▁believed	-2045
▁together	-2046
▁mor	-2047
azine	-2048
▁separ	-2049
chie	-2050
▁arg	-2051
▁super	-2052
▁Robert	-2053
ought	-2054
▁individ	-2055
▁playing	-2056
▁ve	-2057
▁impro	-2058
ille	-2059
igned	-2060
▁Love	-2061
▁Carey	-2062
ization	-2063
arliament	-2064
▁God	-2065
ouncil	-2066
▁creat	-2067
▁example	-2068
▁special	-2069
▁188	-2070
▁clos	-2071
▁Royal	-2072
▁close	-2073
▁almost	-2074
▁move	-2075
▁accept	-2076
lo	-2077
▁quar	-2078
ements	-2079
▁leading	-2080
hys	-2081
cial	-2082
▁Mex	-2083
▁Mon	-2084
▁ask	-2085
▁burn	-2086
▁langu	-2087
▁service	-2088
▁European	-2089
▁generally	-2090
aching	-2091
▁mater	-2092
▁round	-2093
▁opened	-2094
▁Federer	-2095
▁towards	-2096
▁elements	-2097
▁arm	-2098
▁fall	-2099
urb	-2100
▁hy	-2101
▁dou	-2102
▁sour	-2103
▁weeks	-2104
▁brought	-2105
mar	-2106
▁Ser	-2107
▁non	-2108
▁miss	-2109
iction	-2110
▁Brigade	-2111
▁finished	-2112
▁International	-2113
▁ce	-2114
▁ra	-2115
rict	-2116
▁circ	-2117
▁laun	-2118
▁Ir	-2119
ceed	-2120
▁Ber	-2121
▁saw	-2122
icated	-2123
▁Wales	-2124
▁study	-2125
▁featured	-2126
illa	-2127
▁host	-2128
▁respect	-2129
▁aircraft	-2130
▁Viet	-2131
▁regular	-2132
▁Cr	-2133
▁enc	-2134
▁draw	-2135
ests	-2136
▁vol	-2137
▁Flor	-2138
iation	-2139
▁general	-2140
ida	-2141
ned	-2142
read	-2143
▁rese	-2144
▁White	-2145
▁elect	-2146
▁points	-2147
▁contract	-2148
▁directed	-2149
iron	-2150
etwork	-2151
▁central	-2152
▁provided	-2153
▁Championship	-2154
hic	-2155
▁Hen	-2156
▁Part	-2157
▁meas	-2158
▁action	-2159
ze	-2160
▁35	-2161
▁Sy	-2162
ston	-2163
ordan	-2164
▁fund	-2165
▁upon	-2166
ography	-2167
▁inform	-2168
▁highway	-2169
▁director	-2170
▁Act	-2171
▁Game	-2172
▁mean	-2173
▁wall	-2174
▁appearance	-2175
iol	-2176
val	-2177
▁Har	-2178
▁wid	-2179
▁coll	-2180
▁Follow	-2181
▁earlier	-2182
eum	-2183
▁mi	-2184
ency	-2185
▁186	-2186
▁Bro	-2187
▁East	-2188
▁From	-2189
▁yard	-2190
▁Jordan	-2191
odes	-2192
▁2014	-2193
▁king	-2194
▁sequ	-2195
▁flood	-2196
▁female	-2197
▁rather	-2198
umb	-2199
medi	-2200
▁Pres	-2201
▁indust	-2202
▁troops	-2203
▁current	-2204
irl	-2205
unk	-2206
▁Play	-2207
▁Thom	-2208
▁largest	-2209
▁victory	-2210
▁Following	-2211
bit	-2212
ino	-2213
▁dev	-2214
▁ren	-2215
oring	-2216
▁reve	-2217
▁employ	-2218
▁manager	-2219
▁subsequ	-2220
▁Christian	-2221
▁operations	-2222
▁particularly	-2223
▁Du	-2224
ming	-2225
▁Jew	-2226
▁cost	-2227
▁achie	-2228
▁Atlantic	-2229
uter	-2230
▁Rep	-2231
▁Hero	-2232
▁House	-2233
▁George	-2234
▁wanted	-2235
▁opening	-2236
oid	-2237
ude	-2238
cher	-2239
stit	-2240
▁beg	-2241
▁condu	-2242
orts	-2243
▁Mad	-2244
▁yards	-2245
▁evidence	-2246
mb	-2247
eler	-2248
▁Day	-2249
▁Red	-2250
▁cut	-2251
▁exc	-2252
▁prob	-2253
ounter	-2254
▁river	-2255
▁reason	-2256
▁northern	-2257
iber	-2258
ouri	-2259
▁insp	-2260
▁stage	-2261
▁member	-2262
cast	-2263
▁500	-2264
ength	-2265
▁Mary	-2266
▁crew	-2267
anding	-2268
▁Street	-2269
▁engine	-2270
▁Florida	-2271
▁allowed	-2272
▁outside	-2273
▁possible	-2274
▁bi	-2275
▁foc	-2276
▁stren	-2277
▁saying	-2278
oo	-2279
sel	-2280
▁ill	-2281
ellow	-2282
▁Med	-2283
▁hit	-2284
cript	-2285
▁Oliv	-2286
▁whom	-2287
atural	-2288
▁hours	-2289
anch	-2290
west	-2291
conom	-2292
erous	-2293
▁Rock	-2294
▁case	-2295
ential	-2296
▁nomin	-2297
▁2001	-2298
▁fort	-2299
▁deter	-2300
▁exist	-2301
▁regard	-2302
▁worked	-2303
▁account	-2304
ania	-2305
ators	-2306
▁Most	-2307
▁pract	-2308
▁streng	-2309
▁Missouri	-2310
eal	-2311
atin	-2312
▁Wal	-2313
▁mot	-2314
▁length	-2315
▁territ	-2316
▁respons	-2317
▁working	-2318
cent	-2319
▁Bra	-2320
▁news	-2321
ama	-2322
▁reb	-2323
board	-2324
artment	-2325
osition	-2326
▁material	-2327
▁My	-2328
▁Od	-2329
▁bur	-2330
▁gold	-2331
▁mach	-2332
▁poor	-2333
▁designed	-2334
ata	-2335
ump	-2336
▁Gal	-2337
▁neg	-2338
▁rul	-2339
▁free	-2340
▁love	-2341
▁seem	-2342
ault	-2343
▁Bay	-2344
▁Paul	-2345
▁Tech	-2346
▁stay	-2347
▁praised	-2348
uel	-2349
thod	-2350
ights	-2351
ishing	-2352
▁avail	-2353
▁Indian	-2354
▁forced	-2355
▁remains	-2356
▁Co	-2357
ores	-2358
▁187	-2359
▁1970	-2360
▁Phil	-2361
▁Command	-2362
alt	-2363
ana	-2364
▁Best	-2365
▁Mark	-2366
▁bill	-2367
▁think	-2368
▁winds	-2369
less	-2370
▁cop	-2371
▁goals	-2372
▁quick	-2373
▁treat	-2374
▁Michael	-2375
▁station	-2376
▁football	-2377
▁increased	-2378
▁£	-2379
aps	-2380
▁di	-2381
ened	-2382
heast	-2383
▁past	-2384
▁previously	-2385
ago	-2386
▁Wil	-2387
▁gre	-2388
▁First	-2389
▁above	-2390
▁replaced	-2391
gg	-2392
ius	-2393
ule	-2394
gypt	-2395
vest	-2396
▁But	-2397
▁Cap	-2398
▁soon	-2399
▁Egypt	-2400
▁invest	-2401
ica	-2402
vert	-2403
▁ly	-2404
▁civil	-2405
▁Despite	-2406
▁Richard	-2407
▁business	-2408
xas	-2409
▁hon	-2410
▁viol	-2411
▁Bus	-2412
▁mer	-2413
▁2000	-2414
ession	-2415
ributed	-2416
▁threat	-2417
▁writer	-2418
▁interview	-2419
▁commercial	-2420
irth	-2421
▁mph	-2422
asion	-2423
erved	-2424
▁units	-2425
▁Canada	-2426
▁estimated	-2427
hens	-2428
▁Que	-2429
▁esc	-2430
anned	-2431
▁Hill	-2432
▁Henry	-2433
▁clear	-2434
▁quarter	-2435
▁°	-2436
▁San	-2437
▁1990	-2438
▁pain	-2439
▁somet	-2440
▁joined	-2441
▁claimed	-2442
▁highest	-2443
▁Kh	-2444
utive	-2445
▁situ	-2446
▁surf	-2447
▁trib	-2448
▁placed	-2449
▁Japanese	-2450
▁involved	-2451
▁specific	-2452
▁z	-2453
ara	-2454
▁lo	-2455
▁must	-2456
▁Times	-2457
▁Oldham	-2458
▁signed	-2459
▁discuss	-2460
▁suggested	-2461
wh	-2462
ye	-2463
▁Dep	-2464
▁Vir	-2465
▁Brown	-2466
▁court	-2467
▁parts	-2468
▁President	-2469
▁183	-2470
▁react	-2471
▁intens	-2472
▁western	-2473
BC	-2474
ett	-2475
oms	-2476
clus	-2477
▁priv	-2478
▁Carol	-2479
▁itself	-2480
▁league	-2481
▁proper	-2482
▁Olivier	-2483
▁Dr	-2484
iter	-2485
▁Tor	-2486
istic	-2487
▁Later	-2488
▁Vietn	-2489
▁object	-2490
▁average	-2491
tt	-2492
▁Whe	-2493
▁Arab	-2494
▁pers	-2495
▁shot	-2496
▁India	-2497
▁contr	-2498
▁Mexico	-2499
▁change	-2500
▁taking	-2501
▁available	-2502
wood	-2503
▁Cro	-2504
osing	-2505
thlet	-2506
▁come	-2507
▁cycl	-2508
▁scene	-2509
▁Govern	-2510
▁introduced	-2511
▁McC	-2512
▁fly	-2513
▁term	-2514
▁whose	-2515
▁village	-2516
▁transport	-2517
olic	-2518
ving	-2519
▁inj	-2520
▁heav	-2521
▁hous	-2522
▁School	-2523
▁brother	-2524
▁transfer	-2525
▁recording	-2526
ita	-2527
▁Im	-2528
▁Val	-2529
achel	-2530
▁Cong	-2531
▁Hall	-2532
ington	-2533
▁Irish	-2534
ximately	-2535
▁religious	-2536
nes	-2537
now	-2538
quar	-2539
▁Var	-2540
▁pen	-2541
ready	-2542
▁race	-2543
lected	-2544
porary	-2545
ibility	-2546
▁Thomas	-2547
▁travel	-2548
bor	-2549
onst	-2550
▁don	-2551
▁slow	-2552
▁told	-2553
▁break	-2554
▁shows	-2555
▁Britain	-2556
▁damaged	-2557
▁network	-2558
lic	-2559
abit	-2560
band	-2561
acing	-2562
rated	-2563
▁exec	-2564
▁stop	-2565
pected	-2566
▁names	-2567
▁remov	-2568
▁turned	-2569
▁Republic	-2570
▁increasing	-2571
▁-	-2572
▁36	-2573
▁Pac	-2574
▁1960	-2575
▁Card	-2576
▁That	-2577
▁give	-2578
▁mult	-2579
▁rail	-2580
▁lines	-2581
▁subject	-2582
▁Many	-2583
▁nine	-2584
▁Scient	-2585
▁defend	-2586
▁nearly	-2587
▁despite	-2588
▁appointed	-2589
▁Sm	-2590
oney	-2591
▁Hel	-2592
▁pie	-2593
▁Zeal	-2594
▁feel	-2595
▁size	-2596
▁Great	-2597
▁Guitar	-2598
▁Zealand	-2599
▁complet	-2600
▁community	-2601
▁structure	-2602
AF	-2603
▁op	-2604
▁Not	-2605
▁Sun	-2606
elled	-2607
▁date	-2608
▁diss	-2609
▁educ	-2610
▁hard	-2611
▁phys	-2612
▁econom	-2613
▁passed	-2614
▁surround	-2615
▁?	-2616
▁NY	-2617
▁Mac	-2618
▁pur	-2619
iding	-2620
▁Union	-2621
ruction	-2622
pecially	-2623
▁certain	-2624
▁independ	-2625
▁establish	-2626
▁initially	-2627
▁international	-2628
head	-2629
▁184	-2630
ronic	-2631
▁grad	-2632
▁going	-2633
▁liter	-2634
▁withd	-2635
▁immedi	-2636
▁social	-2637
▁already	-2638
ume	-2639
▁60	-2640
▁rap	-2641
inese	-2642
▁chap	-2643
▁deal	-2644
▁Early	-2645
▁might	-2646
▁archae	-2647
▁assist	-2648
▁failed	-2649
▁Chinese	-2650
▁display	-2651
▁winning	-2652
▁45	-2653
▁Ac	-2654
anna	-2655
▁Gold	-2656
▁type	-2657
▁occup	-2658
▁score	-2659
▁states	-2660
▁capital	-2661
▁language	-2662
▁probably	-2663
▁training	-2664
▁according	-2665
▁especially	-2666
iff	-2667
▁Em	-2668
▁doc	-2669
arily	-2670
▁2002	-2671
▁Ever	-2672
▁food	-2673
▁Colle	-2674
▁debut	-2675
▁issue	-2676
▁minor	-2677
▁forest	-2678
for	-2679
aled	-2680
▁Pre	-2681
▁fut	-2682
▁Mont	-2683
▁male	-2684
▁test	-2685
▁wood	-2686
▁Super	-2687
▁daugh	-2688
▁studio	-2689
▁Pacific	-2690
▁Hurricane	-2691
▁Os	-2692
ties	-2693
▁III	-2694
▁tow	-2695
▁conn	-2696
hedral	-2697
▁spent	-2698
▁arrived	-2699
▁ordered	-2700
▁includes	-2701
pper	-2702
▁Mos	-2703
▁Film	-2704
▁army	-2705
▁visit	-2706
▁Awards	-2707
▁enough	-2708
▁Wheeler	-2709
▁Canadian	-2710
▁particip	-2711
▁remaining	-2712
urt	-2713
▁Ag	-2714
▁Sl	-2715
onse	-2716
▁Jin	-2717
▁mem	-2718
odies	-2719
▁Navy	-2720
▁fail	-2721
▁mixed	-2722
▁forward	-2723
▁sometimes	-2724
ula	-2725
▁UK	-2726
▁Peter	-2727
▁History	-2728
▁reviews	-2729
▁complete	-2730
▁required	-2731
▁approximately	-2732
ays	-2733
▁pot	-2734
aries	-2735
atory	-2736
▁Cath	-2737
ulated	-2738
▁latter	-2739
nel	-2740
fect	-2741
▁Res	-2742
▁abs	-2743
▁rain	-2744
ference	-2745
ilities	-2746
▁Africa	-2747
▁Associ	-2748
▁center	-2749
▁remain	-2750
▁beginning	-2751
hib	-2752
ulf	-2753
▁cru	-2754
▁Rose	-2755
▁Sing	-2756
▁Angel	-2757
▁block	-2758
eth	-2759
ateg	-2760
▁Don	-2761
▁Law	-2762
▁anti	-2763
tation	-2764
▁Creek	-2765
▁lower	-2766
▁limited	-2767
▁decision	-2768
chol	-2769
enes	-2770
▁changes	-2771
▁usually	-2772
▁additional	-2773
ste	-2774
ites	-2775
rian	-2776
▁den	-2777
▁indic	-2778
▁journ	-2779
▁Virgin	-2780
▁better	-2781
▁running	-2782
▁Regiment	-2783
▁response	-2784
▁Art	-2785
▁Jer	-2786
▁key	-2787
▁ended	-2788
▁Rachel	-2789
▁larger	-2790
▁positive	-2791
▁students	-2792
▁president	-2793
itz	-2794
▁Mo	-2795
▁Rou	-2796
▁Soc	-2797
▁Nort	-2798
▁dead	-2799
▁woman	-2800
▁mention	-2801
▁magazine	-2802
▁supported	-2803
rics	-2804
▁Stud	-2805
▁Scott	-2806
▁notes	-2807
▁touch	-2808
quadron	-2809
▁police	-2810
▁pressure	-2811
▁depression	-2812
aval	-2813
lymp	-2814
▁cal	-2815
▁poet	-2816
▁wide	-2817
▁Award	-2818
▁Olymp	-2819
▁birds	-2820
▁amount	-2821
edy	-2822
enty	-2823
▁quest	-2824
▁shown	-2825
▁prevent	-2826
▁Billboard	-2827
gl	-2828
ases	-2829
▁Ver	-2830
▁Penn	-2831
▁space	-2832
▁future	-2833
▁Charles	-2834
▁related	-2835
aph	-2836
aker	-2837
back	-2838
▁1980	-2839
▁1995	-2840
▁fifth	-2841
▁provide	-2842
▁defeated	-2843
go	-2844
rd	-2845
arm	-2846
▁38	-2847
▁hom	-2848
stant	-2849
▁face	-2850
uments	-2851
▁discovered	-2852
ih	-2853
tr	-2854
leg	-2855
▁TV	-2856
▁syn	-2857
▁staff	-2858
▁temper	-2859
▁feature	-2860
men	-2861
▁80	-2862
▁Pri	-2863
▁anc	-2864
▁Fort	-2865
▁prior	-2866
▁becoming	-2867
ids	-2868
irt	-2869
ands	-2870
uals	-2871
▁Ter	-2872
▁Tom	-2873
▁aut	-2874
▁birth	-2875
co	-2876
ifa	-2877
owl	-2878
▁cm	-2879
▁doll	-2880
▁exam	-2881
mitted	-2882
▁frequ	-2883
▁Western	-2884
▁section	-2885
▁smaller	-2886
onc	-2887
bert	-2888
gely	-2889
inct	-2890
riage	-2891
▁disp	-2892
▁idea	-2893
idents	-2894
▁groups	-2895
▁screen	-2896
▁intended	-2897
▁Scientology	-2898
▁App	-2899
▁Off	-2900
aring	-2901
selves	-2902
▁metres	-2903
▁mostly	-2904
▁conclud	-2905
▁percent	-2906
▁themselves	-2907
aby	-2908
ney	-2909
agon	-2910
▁Hot	-2911
▁Tur	-2912
anies	-2913
ishop	-2914
quare	-2915
stein	-2916
▁Haifa	-2917
▁fleet	-2918
▁likely	-2919
▁minutes	-2920
▁surface	-2921
▁captured	-2922
▁referred	-2923
▁research	-2924
aut	-2925
rief	-2926
▁Inf	-2927
▁fir	-2928
ching	-2929
▁Year	-2930
▁word	-2931
▁Frank	-2932
▁Since	-2933
▁domin	-2934
▁office	-2935
▁largely	-2936
▁musical	-2937
▁problems	-2938
▁Association	-2939
▁professional	-2940
▁75	-2941
▁FI	-2942
▁La	-2943
down	-2944
enon	-2945
rael	-2946
iforn	-2947
orial	-2948
▁2016	-2949
▁flow	-2950
▁media	-2951
▁entered	-2952
ee	-2953
▁sem	-2954
▁Croat	-2955
▁Under	-2956
▁makes	-2957
▁contem	-2958
▁moving	-2959
▁broadcast	-2960
gar	-2961
omm	-2962
ners	-2963
▁cer	-2964
▁der	-2965
▁emb	-2966
▁Star	-2967
▁Light	-2968
▁learn	-2969
▁radio	-2970
quarters	-2971
▁contains	-2972
▁Parliament	-2973
▁constructed	-2974
oul	-2975
sec	-2976
▁ens	-2977
▁keep	-2978
▁link	-2979
▁Portug	-2980
▁summer	-2981
gu	-2982
uf	-2983
▁Je	-2984
bers	-2985
ises	-2986
ples	-2987
pped	-2988
▁Sov	-2989
▁Oper	-2990
▁Russ	-2991
▁cele	-2992
▁pair	-2993
▁money	-2994
▁guitar	-2995
▁effects	-2996
▁Californ	-2997
to	-2998
uk	-2999
ios	-3000
cean	-3001
ergy	-3002
itte	-3003
▁sea	-3004
▁1950	-3005
▁1999	-3006
isions	-3007
▁Earth	-3008
▁grant	-3009
▁voice	-3010
▁Israel	-3011
▁Jewish	-3012
▁nature	-3013
▁observ	-3014
▁ranked	-3015
▁Council	-3016
▁stories	-3017
▁majority	-3018
▁lay	-3019
ville	-3020
▁adop	-3021
▁self	-3022
▁paren	-3023
▁arrang	-3024
▁create	-3025
▁listed	-3026
▁experience	-3027
den	-3028
uing	-3029
▁How	-3030
▁Ott	-3031
anish	-3032
eding	-3033
veston	-3034
▁Route	-3035
▁leaving	-3036
▁critical	-3037
▁Galveston	-3038
under	-3039
▁Chic	-3040
▁Wood	-3041
▁thus	-3042
▁favor	-3043
▁primary	-3044
lor	-3045
ires	-3046
▁Met	-3047
▁dro	-3048
urity	-3049
▁gods	-3050
minist	-3051
▁lived	-3052
▁schol	-3053
▁agreed	-3054
▁always	-3055
▁lyrics	-3056
▁Another	-3057
▁consist	-3058
▁location	-3059
iest	-3060
teen	-3061
▁Fin	-3062
▁lab	-3063
▁pay	-3064
imate	-3065
owler	-3066
▁rare	-3067
▁runs	-3068
▁brief	-3069
▁compl	-3070
▁films	-3071
▁controll	-3072
▁launched	-3073
▁officers	-3074
ping	-3075
pool	-3076
reak	-3077
▁Bey	-3078
▁coin	-3079
▁sett	-3080
▁colon	-3081
▁teams	-3082
▁friends	-3083
▁quickly	-3084
▁California	-3085
ylv	-3086
aven	-3087
▁Serv	-3088
change	-3089
hester	-3090
▁meant	-3091
▁minute	-3092
▁culture	-3093
▁episodes	-3094
▁occurred	-3095
▁proposed	-3096
oke	-3097
oor	-3098
pan	-3099
tar	-3100
urg	-3101
▁Go	-3102
▁Ale	-3103
▁Hol	-3104
▁Camp	-3105
▁prem	-3106
▁equip	-3107
osaurus	-3108
▁access	-3109
▁settle	-3110
▁attract	-3111
▁whether	-3112
▁Catholic	-3113
▁assigned	-3114
▁increase	-3115
key	-3116
ror	-3117
▁If	-3118
arts	-3119
▁sat	-3120
▁vot	-3121
affic	-3122
▁Brad	-3123
▁adap	-3124
▁fans	-3125
▁pian	-3126
illery	-3127
▁forms	-3128
atively	-3129
▁defeat	-3130
▁appears	-3131
▁changed	-3132
▁traffic	-3133
ification	-3134
▁destroyed	-3135
zy	-3136
kan	-3137
▁Mr	-3138
▁Up	-3139
imum	-3140
▁400	-3141
▁tons	-3142
▁Saint	-3143
ability	-3144
ospital	-3145
▁longer	-3146
▁Chicago	-3147
▁meaning	-3148
▁commission	-3149
asy	-3150
▁70	-3151
▁Nix	-3152
▁job	-3153
▁theme	-3154
▁script	-3155
▁Central	-3156
▁concern	-3157
▁numbers	-3158
▁soldiers	-3159
▁competition	-3160
sis	-3161
vey	-3162
aded	-3163
onym	-3164
▁Nic	-3165
▁1940	-3166
▁Ross	-3167
▁bound	-3168
▁earth	-3169
▁focus	-3170
▁leave	-3171
▁reach	-3172
▁trade	-3173
▁celebr	-3174
▁awarded	-3175
▁carried	-3176
▁Northern	-3177
▁33	-3178
ruit	-3179
▁Haw	-3180
▁hop	-3181
▁mom	-3182
andon	-3183
▁girl	-3184
undred	-3185
▁Alice	-3186
▁Latin	-3187
▁private	-3188
▁daughter	-3189
▁conducted	-3190
▁Lou	-3191
▁sil	-3192
▁1998	-3193
▁Over	-3194
▁cred	-3195
▁deep	-3196
▁newsp	-3197
▁natural	-3198
▁records	-3199
▁underst	-3200
▁subsequently	-3201
▁Qu	-3202
bery	-3203
▁300	-3204
▁ran	-3205
▁unc	-3206
ortun	-3207
▁1930	-3208
▁Enter	-3209
▁analy	-3210
▁cause	-3211
▁plans	-3212
▁tourn	-3213
▁consider	-3214
▁fighting	-3215
iva	-3216
oir	-3217
▁ded	-3218
▁1993	-3219
▁Scot	-3220
▁bord	-3221
▁Villa	-3222
▁shoot	-3223
▁takes	-3224
▁Second	-3225
▁overall	-3226
▁industry	-3227
▁commented	-3228
▁influence	-3229
zz	-3230
▁+	-3231
ari	-3232
▁Dj	-3233
ruct	-3234
▁Mer	-3235
▁Mey	-3236
▁cle	-3237
itect	-3238
ption	-3239
▁bomb	-3240
▁Alkan	-3241
▁Liver	-3242
▁asked	-3243
▁bring	-3244
▁Battle	-3245
▁Polish	-3246
▁finally	-3247
▁serious	-3248
▁Liverpool	-3249
▁32	-3250
▁Ma	-3251
▁Pat	-3252
▁Tay	-3253
▁deg	-3254
▁imm	-3255
▁kil	-3256
▁Fore	-3257
▁Form	-3258
▁Ital	-3259
▁emer	-3260
tained	-3261
usband	-3262
▁Nixon	-3263
▁whole	-3264
▁ending	-3265
▁method	-3266
▁concert	-3267
▁greater	-3268
▁election	-3269
▁BC	-3270
▁Its	-3271
▁done	-3272
▁Sever	-3273
stitute	-3274
▁double	-3275
▁unable	-3276
▁married	-3277
▁compared	-3278
▁positions	-3279
hou	-3280
oly	-3281
sen	-3282
▁inn	-3283
▁our	-3284
aches	-3285
anced	-3286
inent	-3287
▁cann	-3288
▁upper	-3289
▁Christm	-3290
umn	-3291
ills	-3292
▁che	-3293
▁got	-3294
▁sus	-3295
▁tar	-3296
▁yet	-3297
▁dram	-3298
▁Texas	-3299
▁thick	-3300
▁centre	-3301
▁earned	-3302
▁flight	-3303
▁buildings	-3304
unt	-3305
▁90	-3306
aily	-3307
anks	-3308
gian	-3309
well	-3310
▁Mil	-3311
▁big	-3312
▁env	-3313
erset	-3314
▁1996	-3315
▁Cour	-3316
▁Lady	-3317
▁Mart	-3318
▁Tour	-3319
▁acqu	-3320
▁Three	-3321
▁party	-3322
▁rapid	-3323
▁Mosley	-3324
▁begins	-3325
▁issued	-3326
▁living	-3327
▁counter	-3328
▁Somerset	-3329
▁personal	-3330
▁standard	-3331
gen	-3332
▁box	-3333
▁log	-3334
ittee	-3335
▁kind	-3336
▁Busch	-3337
▁nucle	-3338
▁purch	-3339
▁terms	-3340
▁throw	-3341
▁marked	-3342
▁market	-3343
▁directly	-3344
dle	-3345
ails	-3346
amer	-3347
▁Bel	-3348
▁Tre	-3349
▁ult	-3350
▁Tenn	-3351
▁hero	-3352
▁books	-3353
▁Taylor	-3354
▁health	-3355
▁scenes	-3356
▁status	-3357
▁marriage	-3358
▁movement	-3359
▁Sk	-3360
▁Str	-3361
▁dom	-3362
▁Lake	-3363
▁helped	-3364
▁slight	-3365
▁Several	-3366
▁concept	-3367
▁portray	-3368
▁Christmas	-3369
umed	-3370
▁und	-3371
▁Back	-3372
▁tell	-3373
istics	-3374
▁sched	-3375
▁Fowler	-3376
▁batter	-3377
▁experi	-3378
▁African	-3379
▁Spanish	-3380
▁attacks	-3381
▁planned	-3382
▁schools	-3383
▁Tropical	-3384
▁starting	-3385
▁suffered	-3386
▁information	-3387
▁traditional	-3388
itor	-3389
▁dig	-3390
▁jud	-3391
alled	-3392
▁dark	-3393
▁speed	-3394
▁figure	-3395
▁giving	-3396
▁inspired	-3397
▁associated	-3398
▁performances	-3399
ma	-3400
▁x	-3401
▁Jo	-3402
▁Pit	-3403
▁Sam	-3404
itude	-3405
▁closed	-3406
▁source	-3407
▁abandon	-3408
▁condoms	-3409
▁husband	-3410
▁leaders	-3411
▁machine	-3412
▁Infantry	-3413
▁division	-3414
▁presented	-3415
▁Tw	-3416
▁mur	-3417
▁via	-3418
athan	-3419
▁Foot	-3420
▁Party	-3421
▁Soviet	-3422
▁raised	-3423
▁initial	-3424
▁determin	-3425
▁greatest	-3426
▁presence	-3427
AS	-3428
II	-3429
awn	-3430
iant	-3431
embly	-3432
▁Arch	-3433
▁Vict	-3434
▁room	-3435
▁unit	-3436
▁uses	-3437
▁wound	-3438
▁Series	-3439
▁except	-3440
▁nearby	-3441
▁writers	-3442
▁Carolina	-3443
▁Virginia	-3444
▁continue	-3445
▁document	-3446
▁education	-3447
ks	-3448
ón	-3449
iami	-3450
iser	-3451
mium	-3452
▁uns	-3453
aught	-3454
▁Jane	-3455
▁dism	-3456
▁norm	-3457
▁plot	-3458
▁Cross	-3459
▁Paris	-3460
▁image	-3461
▁covered	-3462
▁cyclone	-3463
▁Rosebery	-3464
▁collection	-3465
olk	-3466
raf	-3467
cing	-3468
▁Ben	-3469
▁Bob	-3470
incip	-3471
▁rein	-3472
▁weap	-3473
▁Queen	-3474
▁chall	-3475
itation	-3476
▁annual	-3477
▁College	-3478
▁complex	-3479
▁hundred	-3480
▁composed	-3481
▁services	-3482
atre	-3483
erve	-3484
eway	-3485
oncé	-3486
▁Ant	-3487
▁Boy	-3488
▁Jam	-3489
▁Just	-3490
▁Live	-3491
▁polic	-3492
oration	-3493
ylvania	-3494
▁bodies	-3495
▁really	-3496
▁Beyoncé	-3497
▁figures	-3498
▁extended	-3499
▁numerous	-3500
▁producer	-3501
▁cathedral	-3502
▁commander	-3503
▁territory	-3504
joy	-3505
ken	-3506
▁tor	-3507
aging	-3508
icted	-3509
▁1997	-3510
▁Open	-3511
▁fell	-3512
▁park	-3513
▁path	-3514
▁Miami	-3515
▁Penns	-3516
▁Storm	-3517
▁enjoy	-3518
▁Museum	-3519
▁depend	-3520
▁things	-3521
▁vocals	-3522
▁Germany	-3523
▁proteins	-3524
ift	-3525
▁39	-3526
essa	-3527
etic	-3528
▁Cer	-3529
▁Rob	-3530
▁Six	-3531
▁sev	-3532
anded	-3533
ously	-3534
rical	-3535
▁prep	-3536
▁waters	-3537
▁operation	-3538
▁something	-3539
anz	-3540
bar	-3541
▁Club	-3542
▁Meyer	-3543
▁Their	-3544
estival	-3545
▁highly	-3546
▁impact	-3547
▁Nations	-3548
▁Through	-3549
▁morning	-3550
▁request	-3551
▁attacked	-3552
▁attempts	-3553
▁investig	-3554
▁strength	-3555
▁companies	-3556
ander	-3557
▁talk	-3558
▁metal	-3559
▁aspect	-3560
▁confir	-3561
▁financ	-3562
▁reject	-3563
▁transl	-3564
▁Service	-3565
▁individual	-3566
▁immediately	-3567
lim	-3568
ses	-3569
anas	-3570
▁Inn	-3571
▁era	-3572
▁pil	-3573
ademy	-3574
uries	-3575
▁dise	-3576
admium	-3577
▁Inter	-3578
▁incor	-3579
▁piano	-3580
▁stone	-3581
▁Prince	-3582
▁artist	-3583
▁necess	-3584
▁interse	-3585
▁nuclear	-3586
▁removed	-3587
▁allowing	-3588
▁distance	-3589
▁powerful	-3590
▁situation	-3591
NA	-3592
apo	-3593
ipp	-3594
mon	-3595
ibly	-3596
▁Ill	-3597
lands	-3598
vement	-3599
▁Games	-3600
▁habit	-3601
▁inside	-3602
▁needed	-3603
▁peaked	-3604
▁advance	-3605
▁offered	-3606
▁recover	-3607
▁studies	-3608
▁variety	-3609
▁Squadron	-3610
▁interact	-3611
▁selected	-3612
▁artillery	-3613
TV	-3614
ny	-3615
olf	-3616
▁42	-3617
chan	-3618
pted	-3619
▁182	-3620
▁Sur	-3621
▁hot	-3622
▁rate	-3623
▁Somal	-3624
▁Water	-3625
▁means	-3626
▁attend	-3627
▁copies	-3628
▁native	-3629
▁Scotland	-3630
▁attempted	-3631
▁countries	-3632
▁Pennsylvania	-3633
▁headquarters	-3634
rol	-3635
▁Hum	-3636
▁Los	-3637
▁saf	-3638
adium	-3639
ether	-3640
track	-3641
▁1991	-3642
▁Jose	-3643
▁kick	-3644
▁purp	-3645
▁China	-3646
▁coach	-3647
▁hands	-3648
▁casual	-3649
▁search	-3650
▁tracks	-3651
ribution	-3652
▁Jackson	-3653
▁princip	-3654
▁scoring	-3655
▁architect	-3656
▁responsible	-3657
▁respectively	-3658
een	-3659
▁AI	-3660
pole	-3661
▁Out	-3662
imony	-3663
▁Both	-3664
▁mole	-3665
▁purs	-3666
▁rule	-3667
▁symb	-3668
lement	-3669
▁Major	-3670
▁genus	-3671
▁higher	-3672
▁widely	-3673
▁describes	-3674
▁touchdown	-3675
▁Department	-3676
▁appearances	-3677
ha	-3678
cer	-3679
ria	-3680
▁47	-3681
cend	-3682
▁Dan	-3683
▁Nor	-3684
andid	-3685
anger	-3686
▁Crit	-3687
▁sets	-3688
▁spir	-3689
▁text	-3690
orship	-3691
▁Chris	-3692
▁Corps	-3693
▁advant	-3694
▁course	-3695
▁sexual	-3696
▁heavily	-3697
▁Anderson	-3698
▁Football	-3699
▁observed	-3700
▁controvers	-3701
of	-3702
oud	-3703
rey	-3704
anta	-3705
reme	-3706
▁amb	-3707
ports	-3708
▁1992	-3709
▁Alex	-3710
▁phot	-3711
▁pick	-3712
▁Braat	-3713
▁adult	-3714
▁below	-3715
▁xenon	-3716
▁middle	-3717
▁relief	-3718
▁meeting	-3719
▁reduced	-3720
▁ang	-3721
▁boy	-3722
▁1994	-3723
▁plat	-3724
icient	-3725
▁sixth	-3726
▁active	-3727
▁intern	-3728
▁secret	-3729
▁matches	-3730
▁administ	-3731
▁audience	-3732
▁resulted	-3733
▁concluded	-3734
ils	-3735
iny	-3736
▁44	-3737
lict	-3738
ship	-3739
▁Are	-3740
▁sal	-3741
▁Like	-3742
▁Time	-3743
▁true	-3744
nesota	-3745
▁Franc	-3746
▁lands	-3747
▁Victor	-3748
▁singer	-3749
▁activity	-3750
▁Minnesota	-3751
▁activities	-3752
▁completely	-3753
aen	-3754
car	-3755
cts	-3756
iqu	-3757
▁ess	-3758
akapo	-3759
inkel	-3760
isher	-3761
▁Center	-3762
▁managed	-3763
▁stating	-3764
▁Southern	-3765
▁opportun	-3766
▁revealed	-3767
▁contemporary	-3768
ga	-3769
ems	-3770
like	-3771
send	-3772
▁Sea	-3773
▁Tem	-3774
▁fill	-3775
▁hour	-3776
atives	-3777
ricket	-3778
▁trees	-3779
▁levels	-3780
▁quality	-3781
▁refused	-3782
▁Townsend	-3783
▁declared	-3784
▁separate	-3785
gal	-3786
ocr	-3787
▁pu	-3788
rowd	-3789
▁Bec	-3790
▁Del	-3791
▁Sir	-3792
▁bad	-3793
annel	-3794
iated	-3795
▁blue	-3796
▁drum	-3797
▁Colon	-3798
▁Force	-3799
▁graph	-3800
ication	-3801
ologist	-3802
▁Because	-3803
▁Italian	-3804
▁constit	-3805
▁question	-3806
ify	-3807
▁Li	-3808
aped	-3809
beer	-3810
ining	-3811
peror	-3812
▁Long	-3813
▁Midd	-3814
▁Hawai	-3815
▁Shiva	-3816
▁blood	-3817
▁carry	-3818
▁model	-3819
▁shell	-3820
▁today	-3821
▁Finkel	-3822
▁instit	-3823
▁recent	-3824
▁Walpole	-3825
▁parents	-3826
▁approach	-3827
▁contrast	-3828
▁Meyerbeer	-3829
▁featuring	-3830
▁typically	-3831
▁background	-3832
▁historical	-3833
▁university	-3834
▁Finkelstein	-3835
oph	-3836
ares	-3837
▁Yue	-3838
▁ris	-3839
athus	-3840
▁Smith	-3841
▁Tessa	-3842
▁paper	-3843
▁issues	-3844
▁multip	-3845
▁Ottoman	-3846
▁actions	-3847
▁descript	-3848
▁expected	-3849
▁conditions	-3850
▁76	-3851
alty	-3852
oint	-3853
rawn	-3854
utch	-3855
▁Bet	-3856
▁Sol	-3857
▁tax	-3858
force	-3859
▁Cast	-3860
▁Mill	-3861
▁entr	-3862
▁wing	-3863
▁peace	-3864
▁plays	-3865
▁Nicole	-3866
▁compos	-3867
▁houses	-3868
▁mainly	-3869
▁weaken	-3870
▁Society	-3871
▁assault	-3872
▁becomes	-3873
▁efforts	-3874
▁attention	-3875
▁reception	-3876
cle	-3877
hew	-3878
▁37	-3879
ican	-3880
▁Emp	-3881
▁Jim	-3882
▁pow	-3883
▁rhy	-3884
▁wit	-3885
ounds	-3886
shire	-3887
▁emot	-3888
▁iron	-3889
▁subs	-3890
▁webs	-3891
▁brown	-3892
▁grand	-3893
▁offer	-3894
▁vehic	-3895
▁nation	-3896
▁specim	-3897
▁strugg	-3898
▁residents	-3899
isl	-3900
▁51	-3901
ging	-3902
rate	-3903
▁Lit	-3904
▁lot	-3905
ufact	-3906
▁Wild	-3907
▁magn	-3908
▁narr	-3909
▁sense	-3910
▁consec	-3911
▁titles	-3912
ervation	-3913
▁calling	-3914
▁actually	-3915
▁Braathens	-3916
▁soundtrack	-3917
ado	-3918
bed	-3919
eds	-3920
het	-3921
ware	-3922
▁roy	-3923
▁hair	-3924
▁task	-3925
▁Court	-3926
▁roles	-3927
▁write	-3928
▁cannot	-3929
▁struck	-3930
▁demonst	-3931
▁seasons	-3932
▁accepted	-3933
▁achieved	-3934
icip	-3935
▁Dam	-3936
▁Dem	-3937
▁Nes	-3938
▁lif	-3939
arent	-3940
▁Balt	-3941
▁Dire	-3942
▁Hait	-3943
▁bene	-3944
▁resc	-3945
▁wear	-3946
▁Charl	-3947
▁famil	-3948
▁instr	-3949
▁vocal	-3950
▁athlet	-3951
▁recomm	-3952
▁Highway	-3953
▁Johnson	-3954
▁Vietnam	-3955
▁protein	-3956
▁respond	-3957
▁viewers	-3958
▁practice	-3959
ply	-3960
▁48	-3961
▁ge	-3962
aine	-3963
hood	-3964
imin	-3965
rial	-3966
uese	-3967
appen	-3968
ellig	-3969
▁Adam	-3970
▁Blue	-3971
▁beat	-3972
▁corn	-3973
▁elev	-3974
onents	-3975
▁avoid	-3976
▁crowd	-3977
▁thous	-3978
▁Illino	-3979
▁scient	-3980
▁Academy	-3981
▁fiction	-3982
▁sequence	-3983
▁primarily	-3984
▁Government	-3985
▁Portuguese	-3986
MS	-3987
▁52	-3988
▁lb	-3989
▁181	-3990
▁Fey	-3991
▁Jul	-3992
▁Tod	-3993
venue	-3994
▁chem	-3995
▁board	-3996
▁owned	-3997
▁types	-3998
essions	-3999
▁combat	-4000
▁spread	-4001
▁twenty	-4002
▁Thunder	-4003
▁elected	-4004
▁infantry	-4005
▁slightly	-4006
▁Of	-4007
▁du	-4008
anes	-4009
ding	-4010
hold	-4011
writ	-4012
▁150	-4013
▁Gar	-4014
▁Ram	-4015
▁Rev	-4016
▁max	-4017
▁nin	-4018
acher	-4019
itual	-4020
▁1986	-4021
▁News	-4022
▁Civil	-4023
▁Spain	-4024
▁plant	-4025
▁sales	-4026
▁scale	-4027
▁sport	-4028
▁altern	-4029
▁inches	-4030
▁rights	-4031
▁sister	-4032
ulations	-4033
▁Captain	-4034
▁concent	-4035
▁expressed	-4036
▁northeast	-4037
▁offensive	-4038
ād	-4039
▁34	-4040
▁Ty	-4041
estic	-4042
▁scul	-4043
ceeded	-4044
ograph	-4045
▁Group	-4046
▁Louis	-4047
▁neigh	-4048
▁rough	-4049
▁words	-4050
▁Columb	-4051
▁Engine	-4052
▁Review	-4053
▁showed	-4054
cription	-4055
▁affected	-4056
uit	-4057
▁Er	-4058
▁Kr	-4059
bury	-4060
road	-4061
▁180	-4062
▁Mal	-4063
▁Mog	-4064
▁spl	-4065
▁suc	-4066
ledge	-4067
ushed	-4068
▁Land	-4069
▁sout	-4070
▁walk	-4071
▁Horse	-4072
▁Young	-4073
▁Empire	-4074
▁county	-4075
▁themes	-4076
▁window	-4077
▁ability	-4078
▁officer	-4079
▁combined	-4080
▁battalion	-4081
FA	-4082
nh	-4083
aha	-4084
vin	-4085
elsh	-4086
ingu	-4087
room	-4088
▁pun	-4089
anasi	-4090
arrow	-4091
intin	-4092
light	-4093
▁Cont	-4094
▁Zhou	-4095
▁prec	-4096
▁rear	-4097
▁sust	-4098
▁Welsh	-4099
▁fruit	-4100
▁horse	-4101
onymous	-4102
▁Little	-4103
▁Though	-4104
▁Tintin	-4105
▁titled	-4106
▁Varanasi	-4107
▁cultural	-4108
▁incorpor	-4109
▁progress	-4110
▁casualties	-4111
BA	-4112
bitt	-4113
emic	-4114
house	-4115
▁Dist	-4116
▁Manc	-4117
▁says	-4118
▁Green	-4119
▁excav	-4120
▁Secret	-4121
▁murder	-4122
▁remark	-4123
▁square	-4124
ironment	-4125
▁Angeles	-4126
▁Nesbitt	-4127
▁ancient	-4128
▁produce	-4129
▁earliest	-4130
▁mountain	-4131
▁continues	-4132
▁mentioned	-4133
▁newspaper	-4134
▁recommend	-4135
mun	-4136
omer	-4137
oses	-4138
pedo	-4139
▁Eva	-4140
▁hol	-4141
▁inh	-4142
▁1920	-4143
▁Book	-4144
▁Conf	-4145
▁Home	-4146
▁Ceres	-4147
▁Odaen	-4148
▁actor	-4149
▁cerem	-4150
▁fully	-4151
▁Andrew	-4152
▁Commun	-4153
▁Olympic	-4154
▁Records	-4155
▁adopted	-4156
▁artists	-4157
▁distinct	-4158
▁flooding	-4159
▁manufact	-4160
▁resulting	-4161
▁Odaenathus	-4162
▁influenced	-4163
▁authorities	-4164
▁championship	-4165
Mont	-4166
etts	-4167
▁Add	-4168
▁Rad	-4169
▁dyn	-4170
arnia	-4171
enant	-4172
umber	-4173
while	-4174
▁Turn	-4175
utions	-4176
▁basis	-4177
▁DuMont	-4178
▁Origin	-4179
▁Sarnia	-4180
▁disease	-4181
▁mission	-4182
▁reports	-4183
▁represented	-4184
ev	-4185
eter	-4186
nown	-4187
ovic	-4188
▁Arg	-4189
▁Bol	-4190
▁har	-4191
▁Burn	-4192
▁Spec	-4193
▁qual	-4194
▁repe	-4195
▁Perón	-4196
▁Trans	-4197
▁alone	-4198
▁grass	-4199
▁tower	-4200
▁coming	-4201
▁toward	-4202
▁defense	-4203
▁letters	-4204
▁apparent	-4205
▁advantage	-4206
▁Manchester	-4207
▁tournament	-4208
imb	-4209
nds	-4210
▁Om	-4211
▁SR	-4212
bird	-4213
orus	-4214
▁Def	-4215
▁Jos	-4216
▁Sal	-4217
▁Apple	-4218
▁Mogad	-4219
▁armed	-4220
▁exhib	-4221
▁reign	-4222
▁sides	-4223
▁bridge	-4224
▁encour	-4225
▁kakapo	-4226
▁founded	-4227
▁torpedo	-4228
▁workers	-4229
▁Illinois	-4230
▁occasion	-4231
▁withdraw	-4232
▁alongside	-4233
▁northwest	-4234
▁relatively	-4235
▁Thunderbird	-4236
mir	-4237
▁fa	-4238
helm	-4239
ocks	-4240
▁Dou	-4241
▁1988	-4242
▁Four	-4243
▁Fred	-4244
▁Post	-4245
▁nest	-4246
▁Ocean	-4247
▁legal	-4248
▁tried	-4249
▁illust	-4250
▁losing	-4251
▁mechan	-4252
▁narrow	-4253
▁termin	-4254
▁yellow	-4255
▁cadmium	-4256
▁capture	-4257
▁contain	-4258
▁edition	-4259
▁attended	-4260
▁direction	-4261
▁organized	-4262
▁officially	-4263
▁individuals	-4264
▁transferred	-4265
lin	-4266
▁Av	-4267
osen	-4268
eller	-4269
▁Wash	-4270
▁mess	-4271
▁mile	-4272
▁Clark	-4273
▁Produ	-4274
▁acting	-4275
▁effort	-4276
▁perman	-4277
▁proved	-4278
▁contact	-4279
▁measure	-4280
▁require	-4281
▁physical	-4282
▁dedicated	-4283
▁officials	-4284
▁Washington	-4285
▁surrounding	-4286
AA	-4287
mes	-4288
▁MD	-4289
ogue	-4290
▁Way	-4291
▁eye	-4292
abama	-4293
usion	-4294
▁edge	-4295
▁emph	-4296
▁prin	-4297
▁rang	-4298
▁thir	-4299
ension	-4300
ricult	-4301
▁Omaha	-4302
▁doing	-4303
▁lives	-4304
▁Middle	-4305
▁candid	-4306
▁couple	-4307
▁energy	-4308
▁Alabama	-4309
▁conflict	-4310
▁rainfall	-4311
ien	-4312
wen	-4313
adel	-4314
right	-4315
▁Mean	-4316
▁starl	-4317
▁prepar	-4318
▁divided	-4319
▁follows	-4320
▁pattern	-4321
▁shortly	-4322
▁possibly	-4323
▁Reception	-4324
▁financial	-4325
▁intensity	-4326
▁designated	-4327
ols	-4328
▁49	-4329
▁ir	-4330
▁vo	-4331
ishu	-4332
mond	-4333
▁Sch	-4334
▁hun	-4335
▁ven	-4336
ading	-4337
prise	-4338
▁Fant	-4339
▁Lord	-4340
▁paid	-4341
▁youn	-4342
▁your	-4343
▁Helms	-4344
▁faced	-4345
▁older	-4346
▁shape	-4347
▁albums	-4348
▁images	-4349
▁simply	-4350
▁winter	-4351
▁maximum	-4352
▁society	-4353
▁sources	-4354
▁Mogadishu	-4355
▁determined	-4356
mit	-4357
uff	-4358
▁65	-4359
▁NC	-4360
lied	-4361
rane	-4362
▁Fam	-4363
▁Hal	-4364
▁aid	-4365
▁ple	-4366
▁rat	-4367
orses	-4368
▁Kent	-4369
▁kept	-4370
▁onto	-4371
▁raid	-4372
▁step	-4373
▁Innis	-4374
▁behav	-4375
▁chief	-4376
▁piece	-4377
▁Edward	-4378
▁Histor	-4379
▁Joseph	-4380
▁border	-4381
▁broken	-4382
▁comedy	-4383
▁dissip	-4384
▁emphas	-4385
▁places	-4386
▁journal	-4387
▁portion	-4388
▁function	-4389
▁potential	-4390
rat	-4391
use	-4392
▁sac	-4393
ental	-4394
imore	-4395
▁1964	-4396
▁Cons	-4397
▁Fleet	-4398
▁movie	-4399
▁advert	-4400
▁argued	-4401
▁charge	-4402
▁cities	-4403
▁Wilhelm	-4404
▁protect	-4405
▁univers	-4406
▁Commission	-4407
rid	-4408
oper	-4409
ugby	-4410
▁Bre	-4411
▁Jup	-4412
▁Max	-4413
▁Rih	-4414
▁thr	-4415
▁folk	-4416
▁grew	-4417
▁mind	-4418
▁wild	-4419
▁Journ	-4420
▁PlayS	-4421
▁color	-4422
▁depth	-4423
▁feder	-4424
▁heart	-4425
▁sites	-4426
▁Argent	-4427
▁McCall	-4428
▁Rihanna	-4429
▁content	-4430
▁Assembly	-4431
▁domestic	-4432
▁projects	-4433
▁suggests	-4434
▁authority	-4435
▁management	-4436
▁PlayStation	-4437
ada	-4438
▁64	-4439
iled	-4440
onna	-4441
▁Fer	-4442
▁Van	-4443
▁dut	-4444
▁wor	-4445
▁wave	-4446
▁weak	-4447
▁Greek	-4448
▁paint	-4449
▁royal	-4450
▁twice	-4451
acement	-4452
lection	-4453
▁Hamels	-4454
▁Valley	-4455
▁belong	-4456
▁depart	-4457
▁gained	-4458
▁legisl	-4459
▁letter	-4460
▁prison	-4461
▁sculpt	-4462
▁target	-4463
▁causing	-4464
▁schedul	-4465
▁science	-4466
▁website	-4467
▁entrance	-4468
▁criticized	-4469
▁structures	-4470
▁ultimately	-4471
ex	-4472
je	-4473
ani	-4474
edar	-4475
lies	-4476
▁fit	-4477
▁unk	-4478
atops	-4479
ening	-4480
ented	-4481
▁Dest	-4482
▁Week	-4483
▁doub	-4484
▁neut	-4485
▁roll	-4486
▁vess	-4487
▁extra	-4488
▁homes	-4489
▁share	-4490
▁Common	-4491
▁Palest	-4492
▁museum	-4493
▁debuted	-4494
▁results	-4495
▁Independ	-4496
▁formation	-4497
▁containing	-4498
edk	-4499
▁kg	-4500
wide	-4501
▁Cra	-4502
▁Tru	-4503
▁agg	-4504
claim	-4505
▁1947	-4506
▁Gall	-4507
▁Mass	-4508
▁Writ	-4509
▁opin	-4510
edkare	-4511
enture	-4512
▁artic	-4513
▁label	-4514
mission	-4515
▁chosen	-4516
▁deploy	-4517
▁Jupiter	-4518
▁defence	-4519
▁foreign	-4520
▁Constant	-4521
▁Djedkare	-4522
▁hospital	-4523
▁Baltimore	-4524
▁defensive	-4525
VD	-4526
acks	-4527
asty	-4528
bour	-4529
resh	-4530
umes	-4531
▁DVD	-4532
▁Lew	-4533
▁Sen	-4534
▁Ven	-4535
▁Bowl	-4536
▁core	-4537
▁frag	-4538
▁inch	-4539
▁mouth	-4540
▁Torres	-4541
▁animal	-4542
▁buried	-4543
▁master	-4544
▁battles	-4545
▁brigade	-4546
▁dismiss	-4547
▁granted	-4548
▁growing	-4549
▁rejected	-4550
▁security	-4551
▁standing	-4552
▁abandoned	-4553
▁prominent	-4554
▁reference	-4555
▁consecutive	-4556
▁FA	-4557
▁Rh	-4558
▁Ann	-4559
▁Lis	-4560
▁Sar	-4561
inary	-4562
▁Horn	-4563
▁Kore	-4564
▁Once	-4565
▁risk	-4566
▁cells	-4567
▁claims	-4568
▁colony	-4569
▁orders	-4570
▁temple	-4571
▁Eastern	-4572
▁visited	-4573
▁Scottish	-4574
▁therefore	-4575
▁organization	-4576
igan	-4577
phia	-4578
roll	-4579
▁Hib	-4580
▁Sil	-4581
▁mel	-4582
▁rom	-4583
nding	-4584
stone	-4585
white	-4586
▁1941	-4587
▁jump	-4588
▁seek	-4589
▁spot	-4590
▁Night	-4591
▁Short	-4592
▁broke	-4593
▁remix	-4594
▁Forest	-4595
adelphia	-4596
▁Airport	-4597
▁regions	-4598
▁seconds	-4599
▁singles	-4600
▁student	-4601
▁wounded	-4602
▁condition	-4603
▁Applewhite	-4604
▁independent	-4605
ML	-4606
met	-4607
▁Lo	-4608
ancy	-4609
iana	-4610
mark	-4611
▁Cam	-4612
▁Pop	-4613
▁adj	-4614
▁fix	-4615
▁1987	-4616
▁Chap	-4617
▁solo	-4618
ertain	-4619
isters	-4620
▁ahead	-4621
▁cases	-4622
▁enemy	-4623
▁enter	-4624
▁miner	-4625
▁seems	-4626
▁collect	-4627
▁collabor	-4628
▁reaching	-4629
▁versions	-4630
▁Institute	-4631
▁equipment	-4632
▁nominated	-4633
▁Background	-4634
▁identified	-4635
▁temperature	-4636
ech	-4637
ims	-4638
▁53	-4639
▁Ap	-4640
▁Hu	-4641
▁120	-4642
▁BBC	-4643
▁Big	-4644
▁Due	-4645
▁Tri	-4646
▁1984	-4647
▁1989	-4648
▁bott	-4649
▁Child	-4650
▁aired	-4651
▁males	-4652
▁newly	-4653
▁Before	-4654
▁campus	-4655
▁conver	-4656
▁height	-4657
▁moment	-4658
▁planet	-4659
▁unique	-4660
▁Further	-4661
▁element	-4662
▁opposed	-4663
▁problem	-4664
▁Egyptian	-4665
▁intellig	-4666
▁knowledge	-4667
▁returning	-4668
▁supporting	-4669
AFE	-4670
ety	-4671
▁wa	-4672
rete	-4673
uous	-4674
▁Att	-4675
▁Bir	-4676
▁fle	-4677
▁tur	-4678
astic	-4679
▁1972	-4680
▁1985	-4681
▁Each	-4682
▁Mike	-4683
▁SAFE	-4684
▁fear	-4685
ocated	-4686
▁dress	-4687
▁fired	-4688
▁Indust	-4689
▁interp	-4690
▁weight	-4691
▁Croatia	-4692
▁connect	-4693
▁looking	-4694
▁teacher	-4695
▁unknown	-4696
▁analysis	-4697
▁operated	-4698
▁Operation	-4699
▁increasingly	-4700
▁Po	-4701
iate	-4702
▁Lar	-4703
▁shr	-4704
▁tun	-4705
▁Good	-4706
▁Lock	-4707
▁here	-4708
asters	-4709
▁burns	-4710
▁compr	-4711
▁defin	-4712
▁ideas	-4713
▁theory	-4714
▁writes	-4715
▁Cardiff	-4716
▁believe	-4717
▁council	-4718
▁breeding	-4719
▁commonly	-4720
▁confirmed	-4721
▁explained	-4722
▁historian	-4723
▁literature	-4724
▁settlement	-4725
▁environment	-4726
bon	-4727
ibr	-4728
igg	-4729
▁55	-4730
▁Ox	-4731
▁ox	-4732
hips	-4733
iles	-4734
mosp	-4735
▁bud	-4736
▁oil	-4737
ortal	-4738
orter	-4739
▁1944	-4740
▁More	-4741
▁phil	-4742
▁Field	-4743
▁alter	-4744
▁molec	-4745
▁arrest	-4746
▁atmosp	-4747
▁females	-4748
▁herself	-4749
▁perfect	-4750
▁singing	-4751
▁systems	-4752
▁advanced	-4753
▁economic	-4754
▁property	-4755
▁scholars	-4756
▁stations	-4757
▁Entertain	-4758
▁consisted	-4759
▁controlled	-4760
▁Philadelphia	-4761
yes	-4762
▁Es	-4763
appy	-4764
▁Jon	-4765
▁Sum	-4766
▁fox	-4767
▁Even	-4768
▁Only	-4769
▁Swed	-4770
▁fast	-4771
alions	-4772
▁Keats	-4773
▁devot	-4774
▁Public	-4775
▁growth	-4776
▁happen	-4777
▁pieces	-4778
▁Mounted	-4779
▁cricket	-4780
▁dropped	-4781
▁failure	-4782
▁kilomet	-4783
▁strengt	-4784
▁Meanwhile	-4785
▁maintained	-4786
▁parliament	-4787
tav	-4788
▁Us	-4789
odon	-4790
▁Arm	-4791
▁Bon	-4792
▁pan	-4793
istry	-4794
▁Carl	-4795
▁Norm	-4796
▁sens	-4797
▁Class	-4798
▁Dutch	-4799
▁Never	-4800
▁honor	-4801
isation	-4802
▁Barrow	-4803
▁awards	-4804
▁compar	-4805
▁filmed	-4806
▁flying	-4807
▁injury	-4808
▁strike	-4809
▁deities	-4810
▁freeway	-4811
▁killing	-4812
▁pitched	-4813
▁Addition	-4814
▁Williams	-4815
▁creation	-4816
▁landfall	-4817
▁43	-4818
agan	-4819
airs	-4820
▁600	-4821
▁Jur	-4822
▁try	-4823
aling	-4824
ighth	-4825
urban	-4826
▁Andy	-4827
▁Morr	-4828
▁Prem	-4829
▁Album	-4830
▁Italy	-4831
▁Steve	-4832
▁boats	-4833
▁conne	-4834
▁exped	-4835
▁serve	-4836
▁speak	-4837
▁value	-4838
▁belief	-4839
▁extend	-4840
▁horses	-4841
▁humans	-4842
▁resemb	-4843
▁actress	-4844
▁battery	-4845
▁mounted	-4846
▁rapidly	-4847
▁retired	-4848
▁weapons	-4849
▁Congress	-4850
▁promoted	-4851
sw	-4852
▁56	-4853
▁RA	-4854
lers	-4855
▁Ban	-4856
▁HMS	-4857
▁Mat	-4858
ieval	-4859
▁imag	-4860
▁pict	-4861
▁semi	-4862
▁stra	-4863
stream	-4864
▁premi	-4865
▁Nathan	-4866
▁cougar	-4867
▁passes	-4868
▁federal	-4869
▁passing	-4870
▁selling	-4871
▁weather	-4872
▁Minister	-4873
▁creating	-4874
▁invasion	-4875
▁multiple	-4876
▁prepared	-4877
▁religion	-4878
▁straight	-4879
▁Americans	-4880
▁connected	-4881
▁promotion	-4882
▁Conference	-4883
▁recognized	-4884
▁description	-4885
▁publication	-4886
▁significantly	-4887
Le	-4888
oty	-4889
haps	-4890
itch	-4891
more	-4892
pass	-4893
▁Abu	-4894
▁ast	-4895
▁bid	-4896
oured	-4897
▁bats	-4898
▁data	-4899
ampion	-4900
▁Guard	-4901
▁chose	-4902
▁walls	-4903
arrison	-4904
▁column	-4905
▁famous	-4906
▁leader	-4907
▁matter	-4908
▁sought	-4909
▁volume	-4910
▁aspects	-4911
▁deliver	-4912
▁protest	-4913
▁seventh	-4914
▁regarded	-4915
▁necessary	-4916
▁producers	-4917
▁scheduled	-4918
▁popularity	-4919
gn	-4920
ano	-4921
▁46	-4922
icks	-4923
▁Pet	-4924
▁Sor	-4925
asure	-4926
ordon	-4927
▁Jeff	-4928
▁Matt	-4929
▁cust	-4930
▁laid	-4931
▁rise	-4932
▁sand	-4933
heless	-4934
render	-4935
▁Final	-4936
▁Video	-4937
▁flank	-4938
▁guest	-4939
▁spect	-4940
agement	-4941
▁starts	-4942
▁Develop	-4943
▁convers	-4944
▁landing	-4945
▁restaur	-4946
▁accompan	-4947
▁agricult	-4948
▁sustained	-4949
eer	-4950
ella	-4951
ieut	-4952
uild	-4953
▁Rog	-4954
▁tim	-4955
amese	-4956
ersey	-4957
izing	-4958
ulate	-4959
▁Bost	-4960
▁Gulf	-4961
▁Hart	-4962
▁fung	-4963
▁tact	-4964
▁Among	-4965
▁beaut	-4966
▁dated	-4967
▁delay	-4968
▁rival	-4969
▁strik	-4970
clusion	-4971
▁castle	-4972
▁fought	-4973
▁philos	-4974
ographer	-4975
▁nucleus	-4976
▁Michigan	-4977
▁employed	-4978
▁families	-4979
▁reaction	-4980
▁currently	-4981
▁Vietnamese	-4982
ads	-4983
apt	-4984
ees	-4985
isy	-4986
uge	-4987
▁41	-4988
crib	-4989
▁700	-4990
ambod	-4991
inity	-4992
▁1981	-4993
▁Line	-4994
▁Slam	-4995
▁arms	-4996
▁ends	-4997
▁virt	-4998
ansion	-4999
▁Haven	-5000
▁drive	-5001
▁outer	-5002
▁phase	-5003
▁train	-5004
▁Cambod	-5005
▁budget	-5006
▁rating	-5007
▁supply	-5008
heastern	-5009
▁contained	-5010
▁facilities	-5011
▁frequently	-5012
▁underground	-5013
▁Thunderbirds	-5014
RA	-5015
che	-5016
omy	-5017
▁Op	-5018
▁Ul	-5019
appe	-5020
▁Pho	-5021
▁Sat	-5022
iring	-5023
lines	-5024
▁1939	-5025
▁1942	-5026
▁Anth	-5027
▁Stan	-5028
▁bank	-5029
▁drop	-5030
▁fict	-5031
▁save	-5032
▁tree	-5033
▁unus	-5034
insula	-5035
itable	-5036
▁clean	-5037
▁finds	-5038
▁gradu	-5039
▁trial	-5040
▁Athlet	-5041
▁Oxford	-5042
▁actors	-5043
▁allows	-5044
▁bottom	-5045
▁degree	-5046
▁reform	-5047
▁silver	-5048
▁spring	-5049
▁reflect	-5050
▁Festival	-5051
▁negative	-5052
▁collected	-5053
▁executive	-5054
▁contributed	-5055
▁Gi	-5056
amic	-5057
aved	-5058
illo	-5059
rain	-5060
yond	-5061
▁Che	-5062
▁Den	-5063
▁Les	-5064
▁NBA	-5065
▁Naz	-5066
▁USA	-5067
▁sen	-5068
olved	-5069
onent	-5070
orney	-5071
▁1918	-5072
▁Girl	-5073
angers	-5074
▁cited	-5075
▁fresh	-5076
▁opera	-5077
▁Friend	-5078
▁Gordon	-5079
▁beyond	-5080
▁shaped	-5081
standing	-5082
▁Between	-5083
▁Premier	-5084
▁Studios	-5085
▁animals	-5086
ieutenant	-5087
▁computer	-5088
▁entirely	-5089
▁improved	-5090
▁effective	-5091
▁Revolution	-5092
▁subsequent	-5093
▁Entertainment	-5094
asc	-5095
▁54	-5096
alle	-5097
▁130	-5098
▁End	-5099
▁Sha	-5100
▁bow	-5101
▁mob	-5102
▁1969	-5103
▁Work	-5104
▁gain	-5105
ashion	-5106
ushing	-5107
▁Coast	-5108
▁Crazy	-5109
▁Lewis	-5110
▁Today	-5111
▁draft	-5112
▁gives	-5113
▁Boston	-5114
▁Muslim	-5115
▁Turner	-5116
▁simple	-5117
▁express	-5118
▁finding	-5119
▁medical	-5120
▁notable	-5121
▁recently	-5122
▁extensive	-5123
▁gradually	-5124
▁kilometres	-5125
cy	-5126
azz	-5127
sea	-5128
▁57	-5129
thur	-5130
▁179	-5131
▁Obs	-5132
▁Pen	-5133
▁egg	-5134
ansas	-5135
ocked	-5136
▁1968	-5137
▁1975	-5138
▁Chel	-5139
▁Gard	-5140
▁Jain	-5141
iments	-5142
ropium	-5143
▁Boise	-5144
▁Mario	-5145
▁dates	-5146
▁People	-5147
▁finals	-5148
▁severe	-5149
▁stages	-5150
▁Russian	-5151
▁serving	-5152
▁antimony	-5153
▁expanded	-5154
▁programs	-5155
▁secondary	-5156
cel	-5157
▁Kn	-5158
rong	-5159
unte	-5160
▁800	-5161
▁Der	-5162
▁Jes	-5163
▁Leg	-5164
▁bit	-5165
▁ham	-5166
ishes	-5167
stead	-5168
▁1965	-5169
▁1974	-5170
▁Cold	-5171
▁Rail	-5172
▁Turk	-5173
▁Upon	-5174
▁boat	-5175
▁tail	-5176
▁Evita	-5177
▁camer	-5178
▁comes	-5179
▁corre	-5180
▁items	-5181
▁occas	-5182
▁Democr	-5183
▁Martin	-5184
▁System	-5185
▁occupied	-5186
▁centuries	-5187
▁composition	-5188
ki	-5189
ero	-5190
udd	-5191
ánh	-5192
āda	-5193
▁Id	-5194
▁So	-5195
▁mo	-5196
berg	-5197
weet	-5198
▁Cre	-5199
▁mig	-5200
▁wed	-5201
rence	-5202
▁Juan	-5203
▁Sund	-5204
▁farm	-5205
▁mush	-5206
▁sole	-5207
ancing	-5208
unicip	-5209
urches	-5210
▁Domin	-5211
▁Khánh	-5212
▁chair	-5213
▁daily	-5214
▁floor	-5215
▁naval	-5216
iations	-5217
unction	-5218
▁deaths	-5219
▁losses	-5220
▁slowly	-5221
▁decades	-5222
▁Magazine	-5223
▁Commander	-5224
▁criticism	-5225
▁fictional	-5226
▁treatment	-5227
▁experienced	-5228
▁commissioned	-5229
▁successfully	-5230
icc	-5231
kin	-5232
oys	-5233
uli	-5234
ura	-5235
▁Ry	-5236
▁od	-5237
anny	-5238
inem	-5239
▁Bru	-5240
▁Key	-5241
▁row	-5242
aming	-5243
▁Cole	-5244
▁Greg	-5245
▁Jurc	-5246
▁Rome	-5247
▁dial	-5248
▁didn	-5249
▁myth	-5250
▁trou	-5251
▁MacLe	-5252
▁Songs	-5253
▁Stone	-5254
▁faith	-5255
▁squad	-5256
▁Avenue	-5257
▁Bridge	-5258
▁Daniel	-5259
▁policy	-5260
▁engaged	-5261
▁sentence	-5262
▁personnel	-5263
▁purchased	-5264
▁independence	-5265
TC	-5266
hat	-5267
ket	-5268
▁96	-5269
▁ec	-5270
hess	-5271
iced	-5272
yson	-5273
▁Fox	-5274
▁Kir	-5275
▁unp	-5276
▁bass	-5277
▁coal	-5278
▁cool	-5279
▁Brian	-5280
▁Jamal	-5281
▁begun	-5282
▁negot	-5283
ategory	-5284
▁chorus	-5285
▁prefer	-5286
▁propos	-5287
▁sports	-5288
▁visual	-5289
▁briefly	-5290
▁captain	-5291
▁reasons	-5292
▁District	-5293
▁Tennyson	-5294
▁challeng	-5295
▁concrete	-5296
▁declined	-5297
▁protagon	-5298
▁southwest	-5299
▁worldwide	-5300
▁Throughout	-5301
lys	-5302
▁73	-5303
▁95	-5304
▁Do	-5305
▁NH	-5306
▁UN	-5307
▁164	-5308
▁Alf	-5309
▁eas	-5310
▁fat	-5311
ublin	-5312
▁1946	-5313
▁Bart	-5314
▁Isab	-5315
▁Prov	-5316
▁Vill	-5317
▁flag	-5318
▁note	-5319
lywood	-5320
perial	-5321
▁Crown	-5322
▁beach	-5323
▁drawn	-5324
▁moves	-5325
▁roads	-5326
▁Dublin	-5327
▁concer	-5328
▁escape	-5329
▁exclus	-5330
ccessful	-5331
▁Science	-5332
▁nothing	-5333
▁organiz	-5334
▁importance	-5335
bl	-5336
▁#	-5337
▁Ka	-5338
aret	-5339
fort	-5340
▁Cub	-5341
▁Liu	-5342
▁Mic	-5343
▁arc	-5344
▁fur	-5345
▁hyd	-5346
chers	-5347
▁1919	-5348
▁1952	-5349
▁1966	-5350
▁Also	-5351
▁Barb	-5352
▁Head	-5353
▁calc	-5354
▁firm	-5355
▁tend	-5356
▁unsu	-5357
iences	-5358
▁Liber	-5359
▁hired	-5360
borough	-5361
▁Simone	-5362
▁decade	-5363
▁elimin	-5364
▁favour	-5365
▁street	-5366
▁Project	-5367
▁arrival	-5368
▁billion	-5369
▁chapter	-5370
▁enjoyed	-5371
▁longest	-5372
▁witness	-5373
▁worship	-5374
▁incident	-5375
▁paintings	-5376
▁responded	-5377
▁Production	-5378
▁foundation	-5379
▁accompanied	-5380
▁possibility	-5381
▁participated	-5382
acu	-5383
iro	-5384
▁61	-5385
▁97	-5386
▁Hy	-5387
▁Ll	-5388
apes	-5389
ayer	-5390
izes	-5391
rang	-5392
▁177	-5393
▁Bas	-5394
▁Dun	-5395
▁Ell	-5396
▁Igu	-5397
▁flu	-5398
▁gas	-5399
▁nor	-5400
▁pul	-5401
iance	-5402
▁1936	-5403
▁Kang	-5404
▁Prot	-5405
▁glob	-5406
▁mist	-5407
▁neck	-5408
▁tall	-5409
▁Chart	-5410
▁guard	-5411
▁heard	-5412
▁labor	-5413
▁stret	-5414
▁theat	-5415
▁wides	-5416
▁Family	-5417
▁Temple	-5418
▁applic	-5419
▁normal	-5420
▁oldest	-5421
▁owners	-5422
▁senior	-5423
▁MacLeod	-5424
▁roughly	-5425
▁setting	-5426
▁Governor	-5427
▁platform	-5428
▁agreement	-5429
▁developing	-5430
ls	-5431
▁CD	-5432
▁Cy	-5433
▁GA	-5434
▁Lu	-5435
alls	-5436
▁Ali	-5437
▁Ret	-5438
▁Ron	-5439
▁hor	-5440
chest	-5441
iable	-5442
pread	-5443
quake	-5444
▁Area	-5445
▁Band	-5446
▁Five	-5447
▁Ulys	-5448
▁acad	-5449
▁remn	-5450
▁skin	-5451
▁trip	-5452
▁vert	-5453
▁Admir	-5454
▁Board	-5455
▁Dougl	-5456
▁green	-5457
▁Chains	-5458
▁adding	-5459
▁choice	-5460
▁dollar	-5461
▁lasted	-5462
▁poetry	-5463
▁Anthony	-5464
▁Instead	-5465
▁Turkish	-5466
▁Ulysses	-5467
▁Francisc	-5468
▁accident	-5469
▁athletes	-5470
▁consists	-5471
▁violence	-5472
▁dominated	-5473
▁existence	-5474
▁regarding	-5475
▁technology	-5476
▁Development	-5477
▁combination	-5478
▁populations	-5479
rem	-5480
▁sn	-5481
adow	-5482
ager	-5483
iday	-5484
usal	-5485
▁Aer	-5486
▁Isl	-5487
▁Mem	-5488
▁Mod	-5489
▁Mur	-5490
▁Sus	-5491
▁eth	-5492
antly	-5493
istan	-5494
▁1967	-5495
▁1973	-5496
▁Baby	-5497
▁isol	-5498
▁Maria	-5499
▁acres	-5500
▁calls	-5501
▁clubs	-5502
▁comic	-5503
▁spons	-5504
▁resear	-5505
▁reserv	-5506
▁Theatre	-5507
▁applied	-5508
▁closely	-5509
▁college	-5510
▁filming	-5511
▁habitat	-5512
▁existing	-5513
▁weakened	-5514
▁committee	-5515
▁performing	-5516
▁association	-5517
▁competitions	-5518
▁unsuccessful	-5519
eda	-5520
iot	-5521
▁62	-5522
aser	-5523
come	-5524
resp	-5525
▁110	-5526
▁Mov	-5527
▁aer	-5528
isers	-5529
▁1914	-5530
▁Team	-5531
▁Iguan	-5532
▁Phill	-5533
▁altar	-5534
▁benef	-5535
▁decre	-5536
▁overl	-5537
▁pilot	-5538
▁tells	-5539
▁appeal	-5540
▁serves	-5541
▁submar	-5542
▁undert	-5543
▁capable	-5544
▁derived	-5545
▁details	-5546
▁greatly	-5547
▁learned	-5548
▁neither	-5549
▁perhaps	-5550
▁purpose	-5551
▁transit	-5552
▁ceremony	-5553
▁distingu	-5554
▁painting	-5555
▁provides	-5556
▁reinforce	-5557
▁battalions	-5558
▁opportunity	-5559
▁occasionally	-5560
▁administration	-5561
▁archaeological	-5562
era	-5563
rum	-5564
set	-5565
▁85	-5566
aton	-5567
aver	-5568
bean	-5569
opes	-5570
▁AML	-5571
pring	-5572
▁Braz	-5573
▁Marl	-5574
▁ones	-5575
▁seat	-5576
▁sort	-5577
ection	-5578
ibbean	-5579
▁Aston	-5580
▁dance	-5581
▁thing	-5582
▁towns	-5583
▁Albert	-5584
▁Bishop	-5585
▁bought	-5586
▁editor	-5587
▁fellow	-5588
▁filled	-5589
▁headed	-5590
▁survey	-5591
▁Chelsea	-5592
▁Douglas	-5593
▁contrib	-5594
▁descend	-5595
▁innings	-5596
▁invited	-5597
▁paralle	-5598
▁reconst	-5599
▁Mountain	-5600
▁churches	-5601
▁speaking	-5602
▁supposed	-5603
▁vehicles	-5604
▁Anonymous	-5605
▁Caribbean	-5606
▁encounter	-5607
▁receiving	-5608
▁storyline	-5609
▁technique	-5610
▁dissipated	-5611
▁sufficient	-5612
ía	-5613
ato	-5614
erc	-5615
vis	-5616
▁71	-5617
▁ut	-5618
ules	-5619
▁ERA	-5620
▁Gab	-5621
▁Men	-5622
▁seg	-5623
▁som	-5624
▁ton	-5625
ichol	-5626
inner	-5627
▁1945	-5628
▁1971	-5629
▁Asia	-5630
▁Dota	-5631
▁Kenn	-5632
▁Life	-5633
▁Stew	-5634
▁door	-5635
▁drew	-5636
▁goes	-5637
▁plum	-5638
▁About	-5639
▁Georg	-5640
▁drama	-5641
pective	-5642
ructure	-5643
▁astron	-5644
▁basket	-5645
▁branch	-5646
▁depict	-5647
▁symbol	-5648
▁viewed	-5649
ographic	-5650
▁Hornung	-5651
▁accompl	-5652
▁fashion	-5653
▁islands	-5654
▁massive	-5655
▁receive	-5656
▁stopped	-5657
▁typical	-5658
▁Cardinal	-5659
▁anything	-5660
▁survived	-5661
▁Lieutenant	-5662
▁classified	-5663
▁widespread	-5664
▁Constantine	-5665
hu	-5666
amy	-5667
win	-5668
▁59	-5669
▁eu	-5670
ruli	-5671
▁Age	-5672
▁MTV	-5673
▁Ode	-5674
▁Rod	-5675
▁Rol	-5676
▁aim	-5677
▁rif	-5678
▁why	-5679
arian	-5680
lying	-5681
usted	-5682
uting	-5683
▁1982	-5684
▁Leon	-5685
▁Step	-5686
▁What	-5687
▁acid	-5688
▁crop	-5689
▁poly	-5690
▁quot	-5691
▁ring	-5692
▁sail	-5693
▁synt	-5694
ibrary	-5695
▁Const	-5696
▁Maeda	-5697
▁Perry	-5698
▁truth	-5699
ountain	-5700
▁Hibari	-5701
▁Summer	-5702
▁assass	-5703
▁motion	-5704
▁safety	-5705
▁shared	-5706
▁trying	-5707
ications	-5708
▁Fantasy	-5709
▁authors	-5710
▁digital	-5711
▁flights	-5712
▁missing	-5713
▁acquired	-5714
▁district	-5715
▁repeated	-5716
▁settlers	-5717
▁converted	-5718
▁household	-5719
▁southeast	-5720
▁protection	-5721
ala	-5722
ati	-5723
ips	-5724
pty	-5725
▁Ur	-5726
▁ha	-5727
agle	-5728
gend	-5729
rait	-5730
▁160	-5731
▁Ari	-5732
▁Fre	-5733
▁Ing	-5734
▁Jud	-5735
▁Tra	-5736
▁Wat	-5737
essed	-5738
idges	-5739
iston	-5740
▁1913	-5741
▁1916	-5742
▁1976	-5743
▁Bond	-5744
▁Bull	-5745
▁Oslo	-5746
▁Stev	-5747
▁roof	-5748
glades	-5749
▁Brook	-5750
▁Qedar	-5751
▁Radio	-5752
▁evacu	-5753
▁turns	-5754
issance	-5755
utation	-5756
▁Golden	-5757
▁Romani	-5758
▁finish	-5759
▁routes	-5760
entially	-5761
▁Shortly	-5762
▁Stadium	-5763
▁focused	-5764
▁funding	-5765
▁holding	-5766
▁opinion	-5767
▁watched	-5768
▁wedding	-5769
▁Georgian	-5770
▁arranged	-5771
▁baseball	-5772
▁depicted	-5773
▁planning	-5774
▁substant	-5775
▁locations	-5776
▁permanent	-5777
▁succeeded	-5778
▁atmosphere	-5779
▁experiment	-5780
VN	-5781
▁i	-5782
inn	-5783
tty	-5784
▁72	-5785
iege	-5786
pson	-5787
▁175	-5788
▁Moz	-5789
▁Rio	-5790
▁Row	-5791
▁Tim	-5792
▁bul	-5793
▁cho	-5794
▁dub	-5795
▁ign	-5796
▁opt	-5797
acity	-5798
hetic	-5799
▁1943	-5800
▁1956	-5801
▁bowl	-5802
▁fuel	-5803
▁knew	-5804
bridge	-5805
▁Jones	-5806
▁Simon	-5807
▁exact	-5808
▁initi	-5809
respond	-5810
▁Allied	-5811
▁Brazil	-5812
▁Freder	-5813
▁chance	-5814
▁channel	-5815
▁creator	-5816
▁decline	-5817
▁defined	-5818
▁penalty	-5819
▁reality	-5820
▁spacing	-5821
▁credited	-5822
▁resident	-5823
ifications	-5824
▁providing	-5825
▁correspond	-5826
GN	-5827
eed	-5828
▁Oh	-5829
indu	-5830
okes	-5831
▁112	-5832
▁250	-5833
▁IGN	-5834
▁mic	-5835
idden	-5836
▁1963	-5837
▁Arts	-5838
▁grav	-5839
▁indu	-5840
▁laws	-5841
▁rich	-5842
▁tied	-5843
▁ways	-5844
▁wins	-5845
ivered	-5846
▁Haiti	-5847
▁Hindu	-5848
▁Phoen	-5849
▁Venus	-5850
▁glass	-5851
▁heads	-5852
▁inner	-5853
▁pregn	-5854
stances	-5855
▁assemb	-5856
▁dating	-5857
▁downlo	-5858
▁explos	-5859
▁Rangers	-5860
▁airport	-5861
▁charter	-5862
▁renamed	-5863
▁supplies	-5864
▁Iguanodon	-5865
▁Secretary	-5866
▁delivered	-5867
▁separated	-5868
▁thousands	-5869
▁Additionally	-5870
ux	-5871
cki	-5872
isf	-5873
uan	-5874
▁81	-5875
▁94	-5876
▁Bh	-5877
agre	-5878
anda	-5879
iece	-5880
outs	-5881
rupt	-5882
▁Ast	-5883
▁Luc	-5884
▁Run	-5885
▁UTC	-5886
▁cit	-5887
▁ice	-5888
▁rac	-5889
▁Lenn	-5890
▁eyes	-5891
▁jack	-5892
▁rose	-5893
estone	-5894
inated	-5895
▁Broad	-5896
▁Gully	-5897
▁Homer	-5898
▁rural	-5899
▁split	-5900
uilding	-5901
▁Sunday	-5902
▁inspir	-5903
▁overse	-5904
▁regime	-5905
▁secure	-5906
▁Friends	-5907
▁Similar	-5908
▁Stevens	-5909
▁emperor	-5910
▁turning	-5911
▁Morrison	-5912
▁indicate	-5913
▁teaching	-5914
▁Alexander	-5915
▁Committee	-5916
▁certified	-5917
▁commanded	-5918
▁remainder	-5919
▁Everglades	-5920
▁consisting	-5921
▁earthquake	-5922
▁instrument	-5923
▁opposition	-5924
▁Australians	-5925
BS	-5926
RE	-5927
gé	-5928
ky	-5929
awa	-5930
rug	-5931
▁77	-5932
▁Ly	-5933
itan	-5934
pany	-5935
rons	-5936
▁176	-5937
▁Gre	-5938
▁dog	-5939
▁eld	-5940
▁hat	-5941
jillo	-5942
▁1953	-5943
▁1978	-5944
▁Gang	-5945
▁Pers	-5946
▁drug	-5947
▁wick	-5948
▁Dream	-5949
▁aware	-5950
▁noisy	-5951
▁quite	-5952
▁urban	-5953
igation	-5954
▁Archae	-5955
▁Marine	-5956
▁Native	-5957
▁affect	-5958
▁colour	-5959
▁courts	-5960
▁occurs	-5961
▁powers	-5962
▁valley	-5963
ologists	-5964
▁Montana	-5965
▁address	-5966
▁economy	-5967
▁journey	-5968
▁Bradford	-5969
▁Columbia	-5970
▁Critical	-5971
▁Director	-5972
▁Trujillo	-5973
▁attached	-5974
▁Hollywood	-5975
▁highlight	-5976
▁surrender	-5977
▁technical	-5978
▁assistance	-5979
▁references	-5980
▁revolution	-5981
▁establishment	-5982
▁−	-5983
ela	-5984
lik	-5985
aked	-5986
ippi	-5987
▁Cle	-5988
▁Han	-5989
▁Sap	-5990
▁dry	-5991
▁lin	-5992
▁pet	-5993
apers	-5994
ilton	-5995
▁Alan	-5996
▁Bern	-5997
▁Gram	-5998
▁Holy	-5999
▁Patt	-6000
ewhere	-6001
ighter	-6002
▁leads	-6003
▁table	-6004
▁views	-6005
inosaur	-6006
issippi	-6007
ivalent	-6008
ressive	-6009
▁Office	-6010
▁Walter	-6011
▁denied	-6012
▁leaves	-6013
▁resist	-6014
▁surviv	-6015
▁Charlie	-6016
▁adapted	-6017
▁disturb	-6018
▁methods	-6019
▁studied	-6020
▁Croatian	-6021
▁Maryland	-6022
▁interior	-6023
▁missions	-6024
▁shooting	-6025
▁finishing	-6026
▁portrayed	-6027
▁producing	-6028
▁successor	-6029
▁reputation	-6030
▁strengthen	-6031
▁Mississippi	-6032
▁distribution	-6033
sey	-6034
ych	-6035
andy	-6036
ardo	-6037
bles	-6038
ider	-6039
rier	-6040
ture	-6041
▁Adv	-6042
▁Bur	-6043
▁Kil	-6044
▁Low	-6045
▁Rel	-6046
▁rob	-6047
▁rub	-6048
▁sle	-6049
▁sud	-6050
▁upd	-6051
agues	-6052
▁1915	-6053
▁Down	-6054
▁Wind	-6055
▁kits	-6056
▁lane	-6057
▁prey	-6058
ifying	-6059
▁Roxas	-6060
▁camps	-6061
▁crime	-6062
▁entry	-6063
▁immig	-6064
▁worst	-6065
uration	-6066
▁Arthur	-6067
▁Samuel	-6068
▁Within	-6069
▁Chronic	-6070
▁getting	-6071
▁offense	-6072
▁Engineer	-6073
▁entering	-6074
▁gameplay	-6075
▁maintain	-6076
▁politics	-6077
▁Recording	-6078
▁dismissed	-6079
▁protected	-6080
▁Activision	-6081
▁characteristics	-6082
OT	-6083
SB	-6084
hi	-6085
ipl	-6086
osa	-6087
▁98	-6088
born	-6089
ells	-6090
ette	-6091
kins	-6092
▁Edu	-6093
▁Hon	-6094
▁Hug	-6095
▁Jay	-6096
▁Mul	-6097
▁Sub	-6098
▁von	-6099
ropri	-6100
senal	-6101
▁puzz	-6102
▁Ridge	-6103
▁basin	-6104
▁crown	-6105
▁exerc	-6106
▁holds	-6107
▁knots	-6108
▁Howard	-6109
▁charts	-6110
▁franch	-6111
▁noting	-6112
▁novels	-6113
▁stones	-6114
▁charges	-6115
▁classes	-6116
▁dollars	-6117
▁monarch	-6118
▁replace	-6119
▁capacity	-6120
▁monument	-6121
▁mushroom	-6122
▁discussed	-6123
▁attributed	-6124
▁interested	-6125
▁intelligence	-6126
▁introduction	-6127
ao	-6128
oba	-6129
var	-6130
▁66	-6131
▁ML	-6132
ador	-6133
elve	-6134
enge	-6135
town	-6136
▁DNA	-6137
▁Dar	-6138
▁NBC	-6139
▁cab	-6140
▁die	-6141
▁lic	-6142
▁pal	-6143
▁vic	-6144
ecess	-6145
icial	-6146
ivity	-6147
opher	-6148
▁1890	-6149
▁1917	-6150
▁1948	-6151
▁Pope	-6152
▁Stef	-6153
▁Wall	-6154
▁baby	-6155
▁mort	-6156
▁vary	-6157
ameter	-6158
offman	-6159
orters	-6160
ources	-6161
▁Danny	-6162
▁Marsh	-6163
▁Plunk	-6164
▁Sound	-6165
▁agent	-6166
▁pound	-6167
▁ruled	-6168
▁rules	-6169
▁worth	-6170
▁Weekly	-6171
▁fields	-6172
▁offers	-6173
▁sector	-6174
▁vision	-6175
▁Calvert	-6176
▁coastal	-6177
▁younger	-6178
▁Industry	-6179
▁Isabella	-6180
▁accounts	-6181
▁electric	-6182
▁historic	-6183
▁medieval	-6184
▁appearing	-6185
▁predecess	-6186
▁publisher	-6187
▁statement	-6188
▁describing	-6189
▁generation	-6190
can	-6191
evo	-6192
ube	-6193
erog	-6194
iful	-6195
mans	-6196
▁Far	-6197
▁Jac	-6198
▁Ray	-6199
▁Vol	-6200
ajevo	-6201
attle	-6202
erted	-6203
itors	-6204
▁1951	-6205
▁1979	-6206
▁Hard	-6207
▁Less	-6208
▁Lisa	-6209
▁Snow	-6210
▁Yank	-6211
▁arts	-6212
▁soil	-6213
▁tomb	-6214
▁zone	-6215
cribed	-6216
intend	-6217
orough	-6218
▁Daily	-6219
▁apart	-6220
▁basic	-6221
▁cinem	-6222
▁conte	-6223
▁moder	-6224
▁ninth	-6225
▁Jersey	-6226
▁caught	-6227
▁desire	-6228
▁expect	-6229
▁plants	-6230
▁rarely	-6231
▁retire	-6232
▁tribes	-6233
angerous	-6234
▁article	-6235
▁forests	-6236
▁someone	-6237
formation	-6238
▁Sarajevo	-6239
▁Victoria	-6240
▁Yankovic	-6241
▁discovery	-6242
▁emotional	-6243
▁exception	-6244
▁difficulty	-6245
▁everything	-6246
▁recognition	-6247
▁considerable	-6248
OC	-6249
cop	-6250
▁Ye	-6251
host	-6252
orer	-6253
rien	-6254
▁Abb	-6255
▁Gil	-6256
▁Top	-6257
▁enl	-6258
▁pup	-6259
ients	-6260
itage	-6261
othes	-6262
▁1954	-6263
▁1961	-6264
▁Earl	-6265
▁Init	-6266
▁bond	-6267
▁doct	-6268
▁shel	-6269
coming	-6270
graded	-6271
igades	-6272
▁Press	-6273
▁conve	-6274
▁hotel	-6275
▁kings	-6276
▁pitch	-6277
▁rhyth	-6278
▁shore	-6279
▁store	-6280
▁Around	-6281
▁Resear	-6282
▁Somali	-6283
▁Strand	-6284
▁chapel	-6285
▁landed	-6286
▁manner	-6287
▁sudden	-6288
▁taught	-6289
▁thirty	-6290
▁wooden	-6291
▁Destiny	-6292
▁Rolling	-6293
▁Stephen	-6294
▁contest	-6295
▁disappe	-6296
▁evening	-6297
▁Clarkson	-6298
▁colonial	-6299
▁Frederick	-6300
▁opponents	-6301
▁nomination	-6302
▁restaurant	-6303
▁involvement	-6304
▁replacement	-6305
▁specifically	-6306
ym	-6307
ena	-6308
▁69	-6309
▁Ho	-6310
nest	-6311
pton	-6312
▁Det	-6313
▁Lee	-6314
▁fan	-6315
ateur	-6316
▁1937	-6317
▁Bono	-6318
▁Fame	-6319
▁Flow	-6320
▁Hell	-6321
▁fair	-6322
▁hope	-6323
▁impr	-6324
▁mine	-6325
▁soft	-6326
cation	-6327
usalem	-6328
▁Anton	-6329
▁Campb	-6330
▁Lords	-6331
▁Order	-6332
▁Wilde	-6333
▁accur	-6334
▁poems	-6335
▁Castle	-6336
▁Mozamb	-6337
▁Nether	-6338
▁divine	-6339
▁fungus	-6340
▁picked	-6341
▁wealth	-6342
▁Colonel	-6343
▁Singles	-6344
▁consequ	-6345
▁secured	-6346
▁believes	-6347
▁Francisco	-6348
▁Jerusalem	-6349
▁Television	-6350
▁communities	-6351
▁controversy	-6352
▁recommended	-6353
▁intersection	-6354
LI	-6355
ys	-6356
▁×	-6357
ava	-6358
rin	-6359
▁87	-6360
▁Mu	-6361
▁ru	-6362
ifna	-6363
rets	-6364
▁Joe	-6365
▁Tel	-6366
▁lov	-6367
▁van	-6368
eenth	-6369
itled	-6370
named	-6371
psons	-6372
reets	-6373
▁Duke	-6374
▁Eliz	-6375
▁Fish	-6376
▁Skye	-6377
▁legs	-6378
▁pros	-6379
ingale	-6380
remely	-6381
ultane	-6382
▁Jifna	-6383
▁Santa	-6384
▁faces	-6385
▁joint	-6386
▁releg	-6387
rations	-6388
theless	-6389
▁Master	-6390
▁launch	-6391
▁missed	-6392
unicipal	-6393
▁Roberts	-6394
▁appoint	-6395
▁drawing	-6396
▁scholar	-6397
▁signing	-6398
▁volunte	-6399
▁whereas	-6400
▁Hamilton	-6401
▁Military	-6402
▁Simpsons	-6403
▁concerns	-6404
▁Argentina	-6405
▁extremely	-6406
▁principal	-6407
▁specimens	-6408
▁standards	-6409
▁leadership	-6410
▁organizations	-6411
ān	-6412
uma	-6413
▁Bi	-6414
▁Ré	-6415
aire	-6416
aska	-6417
avia	-6418
nell	-6419
▁Dis	-6420
▁Dom	-6421
▁Rif	-6422
Brien	-6423
amber	-6424
osure	-6425
ureau	-6426
▁1955	-6427
▁1958	-6428
▁Here	-6429
▁Marc	-6430
▁Walk	-6431
▁Wars	-6432
▁card	-6433
▁jazz	-6434
atures	-6435
ceived	-6436
engers	-6437
ranean	-6438
wealth	-6439
▁Adams	-6440
▁Prime	-6441
▁Track	-6442
▁teeth	-6443
▁tries	-6444
▁youth	-6445
▁commit	-6446
▁speech	-6447
▁stream	-6448
▁treaty	-6449
▁Writing	-6450
▁emerged	-6451
▁existed	-6452
▁parties	-6453
▁session	-6454
▁showing	-6455
▁Olympics	-6456
▁chemical	-6457
▁diameter	-6458
▁europium	-6459
▁partners	-6460
▁Transport	-6461
▁approached	-6462
▁conference	-6463
▁connection	-6464
▁surrounded	-6465
▁threatened	-6466
▁distributed	-6467
▁relationships	-6468
30	-6469
ét	-6470
add	-6471
▁Wi	-6472
▁Wy	-6473
edom	-6474
wise	-6475
▁Cop	-6476
▁Yan	-6477
▁gal	-6478
▁lbw	-6479
acent	-6480
alent	-6481
ideos	-6482
istol	-6483
▁1900	-6484
▁1949	-6485
▁1977	-6486
▁Cory	-6487
▁Fire	-6488
▁Plot	-6489
▁hill	-6490
▁pack	-6491
▁page	-6492
▁stem	-6493
▁Banai	-6494
▁Beach	-6495
▁alien	-6496
▁hoped	-6497
▁solid	-6498
▁wants	-6499
▁wrong	-6500
▁Carter	-6501
▁Forces	-6502
▁Modern	-6503
▁Spring	-6504
▁disapp	-6505
▁discip	-6506
▁facing	-6507
▁firing	-6508
▁seeing	-6509
▁conduct	-6510
▁crossed	-6511
▁product	-6512
▁railway	-6513
▁ratings	-6514
▁strateg	-6515
▁synthes	-6516
▁unusual	-6517
▁favorite	-6518
▁isolated	-6519
▁immediate	-6520
▁regularly	-6521
▁Depression	-6522
▁expedition	-6523
▁historians	-6524
▁Independent	-6525
▁alternative	-6526
▁documentary	-6527
▁institutions	-6528
ez	-6529
gie	-6530
ipe	-6531
▁79	-6532
▁Ca	-6533
▁DA	-6534
▁WW	-6535
oked	-6536
ooth	-6537
usad	-6538
ívar	-6539
▁121	-6540
▁Fel	-6541
▁Mot	-6542
▁bes	-6543
▁sym	-6544
abeth	-6545
inals	-6546
ombat	-6547
▁Ryan	-6548
▁cold	-6549
▁leuk	-6550
▁soul	-6551
▁warm	-6552
▁Hergé	-6553
▁Roger	-6554
▁demol	-6555
▁motor	-6556
▁owner	-6557
▁scrap	-6558
▁shark	-6559
▁veget	-6560
entions	-6561
ossible	-6562
▁Kilmer	-6563
▁Lennon	-6564
▁Norman	-6565
▁Unlike	-6566
▁bright	-6567
▁detail	-6568
▁duties	-6569
▁inland	-6570
▁sequel	-6571
iversary	-6572
▁Bolívar	-6573
▁assumed	-6574
▁message	-6575
▁partial	-6576
▁pointed	-6577
▁treated	-6578
▁admitted	-6579
▁breaking	-6580
▁bringing	-6581
▁changing	-6582
▁examples	-6583
▁literary	-6584
▁protests	-6585
▁regional	-6586
▁reviewer	-6587
▁strongly	-6588
▁expansion	-6589
▁franchise	-6590
▁languages	-6591
▁watershed	-6592
▁destroyers	-6593
▁anniversary	-6594
▁designation	-6595
▁protagonist	-6596
dal	-6597
gas	-6598
ibl	-6599
▁AR	-6600
atus	-6601
imet	-6602
owie	-6603
real	-6604
▁BCE	-6605
▁Cat	-6606
▁Kat	-6607
▁Kel	-6608
▁Nap	-6609
▁bat	-6610
▁ske	-6611
▁tra	-6612
ingly	-6613
ledon	-6614
onica	-6615
osite	-6616
union	-6617
▁1983	-6618
▁Iron	-6619
▁Wimb	-6620
▁aged	-6621
▁eggs	-6622
▁fish	-6623
▁harm	-6624
▁outf	-6625
friend	-6626
▁Chief	-6627
▁Human	-6628
▁absor	-6629
▁genre	-6630
▁indig	-6631
▁marks	-6632
▁meets	-6633
▁overw	-6634
▁ancest	-6635
▁circum	-6636
▁consum	-6637
▁easily	-6638
▁eighth	-6639
▁rescue	-6640
▁winner	-6641
▁Georgia	-6642
▁Goffman	-6643
▁Janeiro	-6644
▁Saprang	-6645
▁airline	-6646
▁improve	-6647
▁orchest	-6648
▁retreat	-6649
▁stadium	-6650
▁wearing	-6651
▁Research	-6652
▁academic	-6653
▁approved	-6654
▁champion	-6655
▁detailed	-6656
▁minister	-6657
▁sections	-6658
▁specimen	-6659
▁Wimbledon	-6660
▁attracted	-6661
▁indicated	-6662
▁intention	-6663
▁completion	-6664
▁department	-6665
▁engineering	-6666
adu	-6667
arp	-6668
aug	-6669
aws	-6670
och	-6671
rab	-6672
war	-6673
▁AD	-6674
▁IV	-6675
▁ur	-6676
iour	-6677
know	-6678
▁Dev	-6679
▁Mid	-6680
▁emp	-6681
▁lap	-6682
▁sun	-6683
▁tie	-6684
allow	-6685
ensus	-6686
ician	-6687
ockey	-6688
oking	-6689
orous	-6690
pping	-6691
▁Bank	-6692
▁Base	-6693
▁Jean	-6694
▁Trib	-6695
▁coup	-6696
aments	-6697
▁Burns	-6698
▁Color	-6699
▁Third	-6700
▁citiz	-6701
▁coord	-6702
▁happy	-6703
▁trail	-6704
istered	-6705
ogether	-6706
▁Hearts	-6707
▁Lawton	-6708
▁Person	-6709
▁Square	-6710
▁acknow	-6711
▁gather	-6712
▁looked	-6713
▁Somalia	-6714
▁Station	-6715
▁accused	-6716
▁feeling	-6717
▁reading	-6718
▁settled	-6719
▁adjacent	-6720
▁civilian	-6721
▁terminus	-6722
▁traveled	-6723
▁Cambridge	-6724
▁assistant	-6725
▁challenge	-6726
▁practices	-6727
▁surviving	-6728
▁Richardson	-6729
▁attempting	-6730
▁encouraged	-6731
▁effectively	-6732
▁territories	-6733
▁constitution	-6734
amm	-6735
ban	-6736
bur	-6737
eor	-6738
mod	-6739
nie	-6740
ona	-6741
thy	-6742
▁91	-6743
▁99	-6744
▁Si	-6745
▁ib	-6746
body	-6747
▁Bul	-6748
▁Sav	-6749
▁Win	-6750
▁bal	-6751
▁fer	-6752
▁mut	-6753
break	-6754
ewhat	-6755
▁1880	-6756
▁1909	-6757
▁Garc	-6758
▁Hung	-6759
▁dock	-6760
▁evil	-6761
▁grey	-6762
▁nick	-6763
▁sell	-6764
▁thin	-6765
illing	-6766
▁Jesus	-6767
▁armor	-6768
▁crest	-6769
▁decor	-6770
▁multi	-6771
▁races	-6772
▁recre	-6773
▁shots	-6774
▁Gerard	-6775
▁Kombat	-6776
▁Mortal	-6777
▁Rhodes	-6778
▁Territ	-6779
▁carbon	-6780
▁convoy	-6781
▁muscar	-6782
▁partly	-6783
▁preced	-6784
▁seemed	-6785
▁stands	-6786
▁streak	-6787
▁towers	-6788
▁underw	-6789
▁videos	-6790
▁Admiral	-6791
▁Aniston	-6792
▁Formula	-6793
▁Journal	-6794
▁extreme	-6795
▁inhabit	-6796
▁painted	-6797
▁visible	-6798
▁brothers	-6799
▁identity	-6800
▁obtained	-6801
▁recalled	-6802
▁romantic	-6803
▁somewhat	-6804
▁starling	-6805
▁candidate	-6806
▁compounds	-6807
▁recovered	-6808
▁possession	-6809
▁scientific	-6810
▁arrangement	-6811
▁inspiration	-6812
▁interchange	-6813
▁Commonwealth	-6814
▁agricultural	-6815
▁88	-6816
ekān	-6817
isis	-6818
umps	-6819
▁Guy	-6820
▁Ros	-6821
▁san	-6822
achus	-6823
ennis	-6824
ivals	-6825
▁1910	-6826
▁1931	-6827
▁1935	-6828
▁Fern	-6829
▁Test	-6830
▁acts	-6831
▁fled	-6832
▁gall	-6833
▁hear	-6834
▁hits	-6835
▁shif	-6836
▁tone	-6837
▁Every	-6838
▁Keamy	-6839
▁Power	-6840
▁Tower	-6841
▁catch	-6842
▁cloud	-6843
▁cycle	-6844
▁equal	-6845
▁funds	-6846
▁maint	-6847
▁ocean	-6848
▁teach	-6849
▁verse	-6850
▁Arabic	-6851
▁Fraser	-6852
▁Poland	-6853
▁convin	-6854
▁estate	-6855
▁hosted	-6856
▁linked	-6857
▁reduce	-6858
▁select	-6859
▁spaces	-6860
▁spirit	-6861
▁Germans	-6862
▁Islands	-6863
▁footage	-6864
▁passage	-6865
▁proceed	-6866
▁theatre	-6867
▁Attorney	-6868
▁relative	-6869
▁implement	-6870
▁preserved	-6871
▁sculpture	-6872
▁suffering	-6873
▁industrial	-6874
how	-6875
sta	-6876
▁CE	-6877
▁Ec	-6878
▁au	-6879
▁ps	-6880
amin	-6881
cape	-6882
dess	-6883
emia	-6884
iary	-6885
illy	-6886
ppet	-6887
rast	-6888
▁Anc	-6889
▁Bos	-6890
▁Exp	-6891
▁FIA	-6892
▁Inc	-6893
▁Jun	-6894
▁Lev	-6895
▁Loc	-6896
▁ere	-6897
▁flo	-6898
▁hip	-6899
▁map	-6900
▁mis	-6901
▁unf	-6902
abled	-6903
going	-6904
itals	-6905
peare	-6906
ropol	-6907
using	-6908
vious	-6909
▁1912	-6910
▁1932	-6911
▁Lanc	-6912
▁Nick	-6913
▁Pine	-6914
▁Rele	-6915
▁Type	-6916
▁Wolf	-6917
▁deck	-6918
▁lear	-6919
▁wars	-6920
▁Hotel	-6921
▁conqu	-6922
▁displ	-6923
▁siege	-6924
attered	-6925
intendo	-6926
sewhere	-6927
▁Coryth	-6928
▁Shakes	-6929
▁adults	-6930
▁blocks	-6931
▁debate	-6932
▁income	-6933
▁legend	-6934
▁medium	-6935
▁serial	-6936
▁stayed	-6937
▁twelve	-6938
▁Marines	-6939
▁chronic	-6940
▁correct	-6941
▁Johnston	-6942
▁Nintendo	-6943
▁composer	-6944
▁defended	-6945
▁download	-6946
▁equipped	-6947
▁learning	-6948
▁opposite	-6949
▁province	-6950
▁sessions	-6951
▁Peninsula	-6952
▁Plunketts	-6953
▁attacking	-6954
▁concerned	-6955
▁expensive	-6956
▁reviewers	-6957
▁basketball	-6958
▁continuing	-6959
▁Shakespeare	-6960
▁circulation	-6961
▁destruction	-6962
▁incorporated	-6963
▁Corythosaurus	-6964
▁controversial	-6965
▁responsibility	-6966
hm	-6967
uri	-6968
xts	-6969
▁Pu	-6970
▁ic	-6971
icts	-6972
onic	-6973
yles	-6974
▁122	-6975
▁Fei	-6976
▁bay	-6977
▁ble	-6978
▁lob	-6979
aware	-6980
▁1921	-6981
▁1929	-6982
▁Fair	-6983
▁Owen	-6984
▁gone	-6985
▁hall	-6986
▁none	-6987
▁pool	-6988
▁pric	-6989
▁spin	-6990
bishop	-6991
inking	-6992
▁Allah	-6993
▁Palmy	-6994
▁Prote	-6995
▁depos	-6996
▁inaug	-6997
▁voted	-6998
ificial	-6999
▁Palace	-7000
▁lowest	-7001
▁patrol	-7002
▁pushed	-7003
▁rebels	-7004
▁ritual	-7005
▁tailed	-7006
▁Patrick	-7007
▁driving	-7008
▁falling	-7009
▁kitsune	-7010
▁promote	-7011
▁proport	-7012
▁reserve	-7013
▁victims	-7014
▁willing	-7015
erogative	-7016
stitution	-7017
▁Lawrence	-7018
▁accommod	-7019
▁crossing	-7020
▁measures	-7021
▁meetings	-7022
▁parallel	-7023
▁remnants	-7024
▁songwrit	-7025
▁throwing	-7026
▁initiative	-7027
▁passengers	-7028
▁Marlborough	-7029
▁Netherlands	-7030
▁Construction	-7031
▁observations	-7032
agn	-7033
bie	-7034
oca	-7035
ycl	-7036
zen	-7037
▁82	-7038
agas	-7039
burg	-7040
hews	-7041
inje	-7042
ogen	-7043
rant	-7044
yard	-7045
▁162	-7046
▁Kar	-7047
arked	-7048
onder	-7049
▁1911	-7050
▁1938	-7051
▁1962	-7052
▁Your	-7053
▁ethn	-7054
▁exha	-7055
▁flat	-7056
▁inte	-7057
anning	-7058
formed	-7059
iminal	-7060
itated	-7061
orious	-7062
▁Geoff	-7063
▁Organ	-7064
▁absol	-7065
▁craft	-7066
▁fixed	-7067
▁gross	-7068
▁hydro	-7069
▁plain	-7070
▁raise	-7071
▁sight	-7072
▁watch	-7073
uscript	-7074
▁Flight	-7075
▁García	-7076
▁Korean	-7077
▁Player	-7078
▁Queens	-7079
▁global	-7080
▁patron	-7081
▁praise	-7082
▁Emperor	-7083
▁Stefani	-7084
▁acclaim	-7085
▁batsman	-7086
▁objects	-7087
▁pitcher	-7088
▁returns	-7089
▁vessels	-7090
▁Cambodia	-7091
▁Guardian	-7092
▁Hospital	-7093
▁carrying	-7094
▁comments	-7095
▁defences	-7096
▁governor	-7097
▁retained	-7098
▁superior	-7099
▁villages	-7100
▁Elizabeth	-7101
▁biography	-7102
▁classical	-7103
▁involving	-7104
▁musicians	-7105
▁occasions	-7106
▁equivalent	-7107
▁understand	-7108
▁intensified	-7109
▁difficulties	-7110
▁representing	-7111
de	-7112
ka	-7113
▁74	-7114
▁ju	-7115
▁ow	-7116
olay	-7117
▁Cru	-7118
▁Hun	-7119
▁Lab	-7120
▁Our	-7121
▁Pul	-7122
▁cry	-7123
▁fal	-7124
▁orn	-7125
▁ray	-7126
▁sam	-7127
etery	-7128
▁1959	-7129
▁Bert	-7130
▁Chen	-7131
▁Cook	-7132
▁answ	-7133
▁fine	-7134
▁mart	-7135
▁sees	-7136
▁sulf	-7137
iamond	-7138
pecies	-7139
▁Space	-7140
▁Stock	-7141
▁Sweet	-7142
▁alleg	-7143
▁limit	-7144
▁moral	-7145
▁needs	-7146
▁renew	-7147
emetery	-7148
entures	-7149
terbury	-7150
▁Design	-7151
▁Pitman	-7152
▁camera	-7153
▁covers	-7154
▁divers	-7155
▁escort	-7156
▁online	-7157
▁prohib	-7158
▁voiced	-7159
▁Atlanta	-7160
▁Channel	-7161
▁Mediter	-7162
▁Protest	-7163
▁Stanley	-7164
▁collaps	-7165
▁context	-7166
▁goddess	-7167
▁periods	-7168
▁reveals	-7169
▁Phillies	-7170
▁concerts	-7171
▁exchange	-7172
▁purchase	-7173
▁Palestine	-7174
▁accompany	-7175
▁behaviour	-7176
▁committed	-7177
▁defeating	-7178
▁divisions	-7179
▁narrative	-7180
▁preferred	-7181
▁resources	-7182
▁simultane	-7183
▁survivors	-7184
▁Canterbury	-7185
▁influences	-7186
▁Mediterranean	-7187
ahl	-7188
esc	-7189
rel	-7190
rig	-7191
uda	-7192
▁06	-7193
▁07	-7194
▁DC	-7195
▁Di	-7196
elli	-7197
fare	-7198
mine	-7199
ophy	-7200
raph	-7201
uilt	-7202
wich	-7203
▁161	-7204
▁USD	-7205
▁ash	-7206
▁clo	-7207
▁cul	-7208
apped	-7209
atech	-7210
▁Link	-7211
▁Mega	-7212
▁Raff	-7213
▁else	-7214
▁exit	-7215
▁fold	-7216
▁tick	-7217
athers	-7218
ooking	-7219
▁Rugby	-7220
▁Story	-7221
▁agree	-7222
▁doesn	-7223
▁incom	-7224
▁steel	-7225
resents	-7226
▁Aerith	-7227
▁closer	-7228
▁detect	-7229
▁elabor	-7230
▁pupils	-7231
▁refers	-7232
▁rhythm	-7233
▁tribut	-7234
▁Raffles	-7235
▁Special	-7236
▁absence	-7237
▁consult	-7238
▁Athletic	-7239
▁Colorado	-7240
▁arrested	-7241
▁covering	-7242
▁deployed	-7243
▁dialogue	-7244
▁feelings	-7245
▁formally	-7246
▁hundreds	-7247
▁normally	-7248
▁products	-7249
▁proposal	-7250
▁visitors	-7251
▁considers	-7252
▁followers	-7253
▁municipal	-7254
▁operating	-7255
▁criticised	-7256
▁represents	-7257
▁legislation	-7258
▁Championships	-7259
ár	-7260
agu	-7261
eke	-7262
esi	-7263
ras	-7264
▁PA	-7265
▁et	-7266
graf	-7267
isms	-7268
math	-7269
otic	-7270
staš	-7271
▁166	-7272
▁Cab	-7273
▁Gib	-7274
▁Joy	-7275
▁Mel	-7276
▁NHL	-7277
▁Now	-7278
▁dim	-7279
▁hyp	-7280
after	-7281
annah	-7282
iders	-7283
organ	-7284
urday	-7285
▁Bark	-7286
▁Bass	-7287
▁Corn	-7288
▁Furt	-7289
▁Late	-7290
▁Real	-7291
▁Wicc	-7292
▁bone	-7293
▁deem	-7294
▁dens	-7295
▁diet	-7296
▁feed	-7297
▁pure	-7298
▁Along	-7299
▁Labor	-7300
▁Prior	-7301
▁Techn	-7302
▁Ustaš	-7303
▁amino	-7304
▁brick	-7305
▁drums	-7306
▁skull	-7307
▁surpr	-7308
▁Grammy	-7309
▁Mother	-7310
▁ensure	-7311
▁extent	-7312
▁option	-7313
▁poorly	-7314
▁stable	-7315
▁Furtado	-7316
▁classic	-7317
▁forming	-7318
▁infrast	-7319
▁moments	-7320
▁reconna	-7321
▁trading	-7322
▁Imperial	-7323
▁Markgraf	-7324
▁Saturday	-7325
▁displays	-7326
▁internal	-7327
▁Dominican	-7328
▁interpret	-7329
▁stationed	-7330
▁Enterprise	-7331
▁biographer	-7332
▁convection	-7333
▁manuscript	-7334
▁researchers	-7335
▁reconnaissance	-7336
▁reconstruction	-7337
ias	-7338
▁05	-7339
▁89	-7340
▁93	-7341
eman	-7342
eper	-7343
esse	-7344
▁DAG	-7345
▁Dur	-7346
▁Hou	-7347
▁Kit	-7348
▁Tig	-7349
▁swe	-7350
iques	-7351
state	-7352
ullen	-7353
▁Dark	-7354
▁FIFA	-7355
▁Free	-7356
▁Krak	-7357
▁Marg	-7358
▁Sher	-7359
▁Stop	-7360
▁blow	-7361
▁lose	-7362
▁sunk	-7363
encies	-7364
▁Blood	-7365
▁Media	-7366
▁creek	-7367
▁lists	-7368
▁orbit	-7369
▁rugby	-7370
▁saves	-7371
▁verte	-7372
▁wings	-7373
vention	-7374
▁Record	-7375
▁Sholay	-7376
▁driven	-7377
▁memory	-7378
▁posted	-7379
▁useful	-7380
▁Mexican	-7381
▁intense	-7382
▁streets	-7383
▁annually	-7384
▁appropri	-7385
▁dramatic	-7386
▁entitled	-7387
▁injuries	-7388
▁modified	-7389
▁muscaria	-7390
▁overwhel	-7391
▁purposes	-7392
▁withdrew	-7393
▁construct	-7394
▁extension	-7395
▁submarine	-7396
▁transition	-7397
▁influential	-7398
▁prerogative	-7399
▁understanding	-7400
CA	-7401
ds	-7402
ora	-7403
rif	-7404
sch	-7405
uls	-7406
▁63	-7407
axon	-7408
icop	-7409
inet	-7410
lete	-7411
mann	-7412
rell	-7413
rine	-7414
vati	-7415
▁900	-7416
▁Bed	-7417
▁Hob	-7418
▁Hok	-7419
▁Hud	-7420
▁Mah	-7421
▁VII	-7422
▁ago	-7423
▁loy	-7424
▁orb	-7425
▁1928	-7426
▁Bron	-7427
▁Cape	-7428
▁Cult	-7429
▁Hind	-7430
▁Jenn	-7431
▁cong	-7432
▁hang	-7433
▁repr	-7434
▁tank	-7435
▁Front	-7436
▁Treat	-7437
▁ammun	-7438
▁choir	-7439
▁clock	-7440
▁doubt	-7441
▁frame	-7442
▁panel	-7443
▁plane	-7444
▁rated	-7445
▁rates	-7446
▁ridge	-7447
▁saved	-7448
▁spoke	-7449
▁tests	-7450
▁tight	-7451
vements	-7452
▁Maggie	-7453
▁Nichol	-7454
▁Norway	-7455
▁actual	-7456
▁burned	-7457
▁custom	-7458
▁demand	-7459
▁excess	-7460
▁satisf	-7461
restling	-7462
▁Fernand	-7463
▁Israeli	-7464
▁Parvati	-7465
▁crosses	-7466
▁dynasty	-7467
▁engines	-7468
▁factors	-7469
▁helicop	-7470
▁kingdom	-7471
▁picture	-7472
▁readers	-7473
achusetts	-7474
▁Township	-7475
▁chairman	-7476
▁dinosaur	-7477
▁exposure	-7478
▁happened	-7479
▁informed	-7480
▁restrict	-7481
▁severely	-7482
▁shipping	-7483
▁watching	-7484
▁writings	-7485
▁Cathedral	-7486
▁Education	-7487
▁essential	-7488
▁generated	-7489
▁installed	-7490
▁interests	-7491
▁materials	-7492
▁otherwise	-7493
▁ammunition	-7494
▁apparently	-7495
▁journalist	-7496
▁originated	-7497
▁subspecies	-7498
▁suggesting	-7499
▁Massachusetts	-7500
▁circumstances	-7501
mn	-7502
▁Sa	-7503
▁Xe	-7504
acle	-7505
ilst	-7506
oral	-7507
oven	-7508
▁Cec	-7509
ables	-7510
ateau	-7511
gency	-7512
icate	-7513
rants	-7514
▁1927	-7515
▁Gwen	-7516
▁Hamp	-7517
▁Kann	-7518
▁belt	-7519
▁cart	-7520
▁earn	-7521
▁ille	-7522
tavāda	-7523
▁Found	-7524
▁Guide	-7525
▁chess	-7526
▁latex	-7527
▁layer	-7528
▁ready	-7529
▁recur	-7530
▁relie	-7531
▁Barker	-7532
▁Branch	-7533
▁Corpor	-7534
▁Having	-7535
▁Peters	-7536
▁Sports	-7537
▁Ustaše	-7538
▁Wilson	-7539
▁cancer	-7540
▁carved	-7541
▁causes	-7542
▁citing	-7543
▁eleven	-7544
▁listen	-7545
▁parish	-7546
▁shells	-7547
▁Federal	-7548
▁Kannada	-7549
▁Réunion	-7550
▁Swedish	-7551
▁bombard	-7552
▁burning	-7553
▁climate	-7554
▁jackrab	-7555
▁mixture	-7556
▁operate	-7557
▁survive	-7558
urricanes	-7559
▁Historic	-7560
▁Ministry	-7561
▁Portugal	-7562
▁Richmond	-7563
▁behavior	-7564
▁disaster	-7565
▁festival	-7566
▁generals	-7567
▁overseas	-7568
ekāntavāda	-7569
▁administr	-7570
▁departure	-7571
▁movements	-7572
▁partially	-7573
▁starlings	-7574
▁victories	-7575
▁impossible	-7576
▁resistance	-7577
▁instruments	-7578
▁substantial	-7579
▁transportation	-7580
OK	-7581
ni	-7582
ASA	-7583
aga	-7584
osl	-7585
osm	-7586
pes	-7587
rot	-7588
utz	-7589
aste	-7590
lets	-7591
life	-7592
pent	-7593
quez	-7594
▁Ald	-7595
▁CBS	-7596
▁Int	-7597
▁Már	-7598
▁Ton	-7599
▁Yug	-7600
▁phr	-7601
chang	-7602
heera	-7603
iling	-7604
ithic	-7605
raham	-7606
▁1860	-7607
▁1933	-7608
▁Ball	-7609
▁Gary	-7610
▁Howe	-7611
▁Mand	-7612
▁Pass	-7613
▁Pict	-7614
▁loan	-7615
▁shut	-7616
▁wasn	-7617
andoba	-7618
forced	-7619
ricted	-7620
teenth	-7621
▁Eaton	-7622
▁Elect	-7623
▁Patty	-7624
▁Yanke	-7625
▁abund	-7626
▁consc	-7627
▁liber	-7628
▁looks	-7629
▁lover	-7630
▁marry	-7631
▁persu	-7632
▁rooms	-7633
▁spend	-7634
▁Bureau	-7635
▁Police	-7636
▁Yugosl	-7637
▁commem	-7638
▁models	-7639
▁spores	-7640
▁unlike	-7641
▁Masters	-7642
▁Márquez	-7643
▁Stewart	-7644
▁amateur	-7645
▁bearing	-7646
▁compete	-7647
▁cruiser	-7648
▁listing	-7649
▁temples	-7650
▁tribute	-7651
▁windows	-7652
▁Khandoba	-7653
▁Veronica	-7654
▁instance	-7655
▁resigned	-7656
▁restored	-7657
▁squadron	-7658
▁struggle	-7659
▁thinking	-7660
▁beautiful	-7661
▁dangerous	-7662
▁documents	-7663
▁engineers	-7664
▁premiered	-7665
▁sequences	-7666
▁afterwards	-7667
▁electronic	-7668
▁supporters	-7669
▁techniques	-7670
▁interesting	-7671
▁establishing	-7672
▁opportunities	-7673
DH	-7674
Hg	-7675
MO	-7676
nal	-7677
zac	-7678
▁68	-7679
▁AP	-7680
▁Jr	-7681
LIMO	-7682
iped	-7683
osis	-7684
rene	-7685
roit	-7686
urse	-7687
yria	-7688
▁FRE	-7689
▁Roc	-7690
▁Sis	-7691
▁Tam	-7692
▁eat	-7693
▁tip	-7694
itzer	-7695
otton	-7696
▁1957	-7697
▁Lith	-7698
▁Niel	-7699
▁Soon	-7700
▁Then	-7701
▁fram	-7702
▁gard	-7703
▁heat	-7704
▁inHg	-7705
▁mode	-7706
▁outl	-7707
▁pale	-7708
▁sale	-7709
▁wine	-7710
rorist	-7711
roscop	-7712
uation	-7713
▁Baker	-7714
▁Eagle	-7715
▁Midge	-7716
▁Robin	-7717
▁advis	-7718
▁coins	-7719
▁divor	-7720
▁merch	-7721
▁prove	-7722
▁	-7723
e	-7724
t	-7725
a	-7726
n	-7727
o	-7728
i	-7729
r	-7730
s	-7731
h	-7732
d	-7733
l	-7734
c	-7735
u	-7736
m	-7737
f	-7738
g	-7739
p	-7740
w	-7741
y	-7742
b	-7743
,	-7744
.	-7745
v	-7746
@	-7747
k	-7748
1	-7749
T	-7750
0	-7751
A	-7752
=	-7753
"	-7754
S	-7755
C	-7756
2	-7757
I	-7758
M	-7759
'	-7760
9	-7761
B	-7762
-	-7763
H	-7764
x	-7765
P	-7766
R	-7767
D	-7768
F	-7769
)	-7770
(	-7771
W	-7772
N	-7773
L	-7774
G	-7775
3	-7776
5	-7777
8	-7778
J	-7779
O	-7780
E	-7781
4	-7782
6	-7783
7	-7784
z	-7785
j	-7786
q	-7787
U	-7788
K	-7789
V	-7790
;	-7791
–	-7792
:	-7793
Y	-7794
/	-7795
—	-7796
Z	-7797
%	-7798
$	-7799
[	-7800
]	-7801
é	-7802
Q	-7803
X	-7804
&	-7805
!	-7806
’	-7807
í	-7808
á	-7809
ā	-7810
£	-7811
°	-7812
?	-7813
ó	-7814
+	-7815
#	-7816
š	-7817
−	-7818
è	-7819
ö	-7820
×	-7821
ü	-7822
ä	-7823
ō	-7824
ʻ	-7825
ć	-7826
ś	-7827
“	-7828
ç	-7829
μ	-7830
ł	-7831
ø	-7832
”	-7833
₹	-7834
ã	-7835
ì	-7836
ư	-7837
⁄	-7838
→	-7839
Æ	-7840
ơ	-7841
ñ	-7842
Í	-7843
É	-7844
☉	-7845
‘	-7846
*	-7847
~	-7848
Å	-7849
Ō	-7850
ë	-7851
ệ	-7852
ī	-7853
ễ	-7854
à	-7855
ô	-7856
ă	-7857
ū	-7858
<	-7859
^	-7860
ê	-7861
′	-7862
♯	-7863
ú	-7864
ỳ	-7865
‐	-7866
Î	-7867
≤	-7868
>	-7869
å	-7870
î	-7871
ل	-7872
ṃ	-7873
～	-7874
Ā	-7875
्	-7876
†	-7877
€	-7878
±	-7879
ž	-7880
〈	-7881
〉	-7882
・	-7883
û	-7884
č	-7885
ė	-7886
α	-7887
β	-7888
Ø	-7889
đ	-7890
γ	-7891
ṭ	-7892
ị	-7893
„	-7894
♭	-7895
â	-7896
Đ	-7897
̃	-7898
ا	-7899
ه	-7900
჻	-7901
ṅ	-7902
ầ	-7903
ớ	-7904
大	-7905
空	-7906
¡	-7907
¥	-7908
·	-7909
ş	-7910
ح	-7911
ص	-7912
ن	-7913
ვ	-7914
ი	-7915
კ	-7916
ო	-7917
ხ	-7918
ჯ	-7919
ḥ	-7920
ṯ	-7921
ả	-7922
ấ	-7923
火	-7924
礮	-7925
\	-7926
`	-7927
|	-7928
§	-7929
Á	-7930
Ö	-7931
Ú	-7932
Ü	-7933
Þ	-7934
ò	-7935
Ł	-7936
ń	-7937
ų	-7938
Ż	-7939
ʿ	-7940
κ	-7941
С	-7942
а	-7943
в	-7944
е	-7945
к	-7946
о	-7947
с	-7948
т	-7949
я	-7950
ก	-7951
ง	-7952
ณ	-7953
ต	-7954
ม	-7955
ย	-7956
ร	-7957
ล	-7958
ั	-7959
า	-7960
ิ	-7961
่	-7962
์	-7963
გ	-7964
დ	-7965
ზ	-7966
რ	-7967
ს	-7968
უ	-7969
ც	-7970
ძ	-7971
წ	-7972
ṣ	-7973
ắ	-7974
ử	-7975
₤	-7976
の	-7977
ァ	-7978
ア	-7979
キ	-7980
ス	-7981
ッ	-7982
ト	-7983
プ	-7984
ュ	-7985
リ	-7986
ル	-7987
ヴ	-7988
動	-7989
場	-7990
戦	-7991
攻	-7992
機	-7993
殻	-7994
隊	-7995
